const unsigned char model[] __attribute__((aligned(4))) = {
  0x1c, 0x00, 0x00, 0x00, 0x54, 0x46, 0x4c, 0x33, 0x00, 0x00, 0x12, 0x00,
  0x1c, 0x00, 0x04, 0x00, 0x08, 0x00, 0x0c, 0x00, 0x10, 0x00, 0x14, 0x00,
  0x00, 0x00, 0x18, 0x00, 0x12, 0x00, 0x00, 0x00, 0x03, 0x00, 0x00, 0x00,
  0x14, 0x00, 0x00, 0x00, 0x28, 0x00, 0x00, 0x00, 0xd0, 0x00, 0x00, 0x00,
  0x28, 0x00, 0x00, 0x00, 0x78, 0x00, 0x00, 0x00, 0x05, 0x00, 0x00, 0x00,
  0x00, 0x07, 0x00, 0x00, 0x1c, 0x06, 0x00, 0x00, 0x88, 0x03, 0x00, 0x00,
  0xd8, 0x02, 0x00, 0x00, 0xa8, 0x01, 0x00, 0x00, 0x01, 0x00, 0x00, 0x00,
  0xcc, 0x00, 0x00, 0x00, 0x14, 0x00, 0x00, 0x00, 0x38, 0x2b, 0x00, 0x00,
  0x34, 0x2b, 0x00, 0x00, 0x28, 0x2a, 0x00, 0x00, 0x70, 0x29, 0x00, 0x00,
  0xc4, 0x28, 0x00, 0x00, 0x50, 0x28, 0x00, 0x00, 0xe0, 0x27, 0x00, 0x00,
  0x8c, 0x0f, 0x00, 0x00, 0xb8, 0x0e, 0x00, 0x00, 0xf8, 0x0d, 0x00, 0x00,
  0x98, 0x07, 0x00, 0x00, 0x0c, 0x2b, 0x00, 0x00, 0x08, 0x2b, 0x00, 0x00,
  0x04, 0x2b, 0x00, 0x00, 0x00, 0x2b, 0x00, 0x00, 0xfc, 0x2a, 0x00, 0x00,
  0xf8, 0x2a, 0x00, 0x00, 0xf4, 0x2a, 0x00, 0x00, 0xf0, 0x2a, 0x00, 0x00,
  0x38, 0x00, 0x00, 0x00, 0x01, 0x00, 0x00, 0x00, 0x0c, 0x00, 0x00, 0x00,
  0x08, 0x00, 0x0c, 0x00, 0x04, 0x00, 0x08, 0x00, 0x08, 0x00, 0x00, 0x00,
  0x08, 0x00, 0x00, 0x00, 0x13, 0x00, 0x00, 0x00, 0x13, 0x00, 0x00, 0x00,
  0x6d, 0x69, 0x6e, 0x5f, 0x72, 0x75, 0x6e, 0x74, 0x69, 0x6d, 0x65, 0x5f,
  0x76, 0x65, 0x72, 0x73, 0x69, 0x6f, 0x6e, 0x00, 0x5a, 0xd6, 0xff, 0xff,
  0x04, 0x00, 0x00, 0x00, 0x10, 0x00, 0x00, 0x00, 0x31, 0x2e, 0x35, 0x2e,
  0x30, 0x00, 0x00, 0x00, 0x00, 0x00, 0x00, 0x00, 0x00, 0x00, 0x00, 0x00,
  0x0f, 0x00, 0x00, 0x00, 0x4d, 0x4c, 0x49, 0x52, 0x20, 0x43, 0x6f, 0x6e,
  0x76, 0x65, 0x72, 0x74, 0x65, 0x64, 0x2e, 0x00, 0x00, 0x00, 0x0e, 0x00,
  0x18, 0x00, 0x04, 0x00, 0x08, 0x00, 0x0c, 0x00, 0x10, 0x00, 0x14, 0x00,
  0x0e, 0x00, 0x00, 0x00, 0x14, 0x00, 0x00, 0x00, 0x5c, 0x00, 0x00, 0x00,
  0x60, 0x00, 0x00, 0x00, 0x64, 0x00, 0x00, 0x00, 0x84, 0x00, 0x00, 0x00,
  0x12, 0x00, 0x00, 0x00, 0xfc, 0x29, 0x00, 0x00, 0x88, 0x29, 0x00, 0x00,
  0xe0, 0x28, 0x00, 0x00, 0x34, 0x28, 0x00, 0x00, 0x88, 0x27, 0x00, 0x00,
  0x28, 0x27, 0x00, 0x00, 0xbc, 0x26, 0x00, 0x00, 0x68, 0x0e, 0x00, 0x00,
  0x88, 0x0d, 0x00, 0x00, 0xc8, 0x0c, 0x00, 0x00, 0xe4, 0x05, 0x00, 0x00,
  0x00, 0x05, 0x00, 0x00, 0xbc, 0x03, 0x00, 0x00, 0x0c, 0x03, 0x00, 0x00,
  0x64, 0x02, 0x00, 0x00, 0xb4, 0x01, 0x00, 0x00, 0x0c, 0x01, 0x00, 0x00,
  0x80, 0x00, 0x00, 0x00, 0x01, 0x00, 0x00, 0x00, 0x00, 0x00, 0x00, 0x00,
  0x01, 0x00, 0x00, 0x00, 0x11, 0x00, 0x00, 0x00, 0x08, 0x00, 0x00, 0x00,
  0x50, 0x05, 0x00, 0x00, 0x70, 0x04, 0x00, 0x00, 0x4c, 0x03, 0x00, 0x00,
  0x8c, 0x02, 0x00, 0x00, 0x00, 0x02, 0x00, 0x00, 0x34, 0x01, 0x00, 0x00,
  0xa4, 0x00, 0x00, 0x00, 0x10, 0x00, 0x00, 0x00, 0x04, 0x00, 0x00, 0x00,
  0x6d, 0x61, 0x69, 0x6e, 0x00, 0x00, 0x00, 0x00, 0x7e, 0xff, 0xff, 0xff,
  0x00, 0x00, 0x00, 0x09, 0x04, 0x00, 0x00, 0x00, 0x1c, 0x00, 0x00, 0x00,
  0x10, 0x00, 0x00, 0x00, 0x04, 0x00, 0x00, 0x00, 0x56, 0xd7, 0xff, 0xff,
  0x00, 0x00, 0x80, 0x3f, 0x01, 0x00, 0x00, 0x00, 0x11, 0x00, 0x00, 0x00,
  0x01, 0x00, 0x00, 0x00, 0x10, 0x00, 0x00, 0x00, 0xc2, 0xfa, 0xff, 0xff,
  0x00, 0x00, 0x00, 0x19, 0x01, 0x00, 0x00, 0x00, 0xdc, 0xd6, 0xff, 0xff,
  0x14, 0x00, 0x00, 0x00, 0x12, 0x00, 0x00, 0x00, 0x18, 0x00, 0x00, 0x00,
  0x30, 0x00, 0x00, 0x00, 0x20, 0x00, 0x00, 0x00, 0x02, 0x00, 0x00, 0x00,
  0x01, 0x00, 0x00, 0x00, 0x02, 0x00, 0x00, 0x00, 0x08, 0x00, 0x00, 0x00,
  0x49, 0x64, 0x65, 0x6e, 0x74, 0x69, 0x74, 0x79, 0x00, 0x00, 0x00, 0x00,
  0x02, 0x00, 0x00, 0x00, 0xff, 0xff, 0xff, 0xff, 0x02, 0x00, 0x00, 0x00,
  0xc4, 0xd7, 0xff, 0xff, 0x00, 0x00, 0x0e, 0x00, 0x18, 0x00, 0x08, 0x00,
  0x0c, 0x00, 0x10, 0x00, 0x07, 0x00, 0x14, 0x00, 0x0e, 0x00, 0x00, 0x00,
  0x00, 0x00, 0x00, 0x08, 0x03, 0x00, 0x00, 0x00, 0x18, 0x00, 0x00, 0x00,
  0x0c, 0x00, 0x00, 0x00, 0x04, 0x00, 0x00, 0x00, 0xdc, 0xd6, 0xff, 0xff,
  0x01, 0x00, 0x00, 0x00, 0x10, 0x00, 0x00, 0x00, 0x03, 0x00, 0x00, 0x00,
  0x0f, 0x00, 0x00, 0x00, 0x07, 0x00, 0x00, 0x00, 0x04, 0x00, 0x00, 0x00,
  0x64, 0xd7, 0xff, 0xff, 0x14, 0x00, 0x00, 0x00, 0x11, 0x00, 0x00, 0x00,
  0x18, 0x00, 0x00, 0x00, 0x44, 0x00, 0x00, 0x00, 0x34, 0x00, 0x00, 0x00,
  0x02, 0x00, 0x00, 0x00, 0x01, 0x00, 0x00, 0x00, 0x02, 0x00, 0x00, 0x00,
  0x1c, 0x00, 0x00, 0x00, 0x73, 0x65, 0x71, 0x75, 0x65, 0x6e, 0x74, 0x69,
  0x61, 0x6c, 0x5f, 0x34, 0x2f, 0x64, 0x65, 0x6e, 0x73, 0x65, 0x5f, 0x39,
  0x2f, 0x42, 0x69, 0x61, 0x73, 0x41, 0x64, 0x64, 0x00, 0x00, 0x00, 0x00,
  0x02, 0x00, 0x00, 0x00, 0xff, 0xff, 0xff, 0xff, 0x02, 0x00, 0x00, 0x00,
  0x4c, 0xd7, 0xff, 0xff, 0xe2, 0xfc, 0xff, 0xff, 0x00, 0x00, 0x00, 0x08,
  0x03, 0x00, 0x00, 0x00, 0x24, 0x00, 0x00, 0x00, 0x18, 0x00, 0x00, 0x00,
  0x0c, 0x00, 0x00, 0x00, 0x00, 0x00, 0x06, 0x00, 0x08, 0x00, 0x07, 0x00,
  0x06, 0x00, 0x00, 0x00, 0x00, 0x00, 0x00, 0x01, 0x01, 0x00, 0x00, 0x00,
  0x0f, 0x00, 0x00, 0x00, 0x03, 0x00, 0x00, 0x00, 0x0e, 0x00, 0x00, 0x00,
  0x06, 0x00, 0x00, 0x00, 0x03, 0x00, 0x00, 0x00, 0xee, 0xfb, 0xff, 0xff,
  0x00, 0x00, 0x00, 0x09, 0x01, 0x00, 0x00, 0x00, 0x08, 0xd8, 0xff, 0xff,
  0x14, 0x00, 0x00, 0x00, 0x10, 0x00, 0x00, 0x00, 0x18, 0x00, 0x00, 0x00,
  0x5c, 0x00, 0x00, 0x00, 0x4c, 0x00, 0x00, 0x00, 0x02, 0x00, 0x00, 0x00,
  0x01, 0x00, 0x00, 0x00, 0x10, 0x00, 0x00, 0x00, 0x36, 0x00, 0x00, 0x00,
  0x73, 0x65, 0x71, 0x75, 0x65, 0x6e, 0x74, 0x69, 0x61, 0x6c, 0x5f, 0x34,
  0x2f, 0x64, 0x65, 0x6e, 0x73, 0x65, 0x5f, 0x38, 0x2f, 0x52, 0x65, 0x6c,
  0x75, 0x3b, 0x73, 0x65, 0x71, 0x75, 0x65, 0x6e, 0x74, 0x69, 0x61, 0x6c,
  0x5f, 0x34, 0x2f, 0x64, 0x65, 0x6e, 0x73, 0x65, 0x5f, 0x38, 0x2f, 0x42,
  0x69, 0x61, 0x73, 0x41, 0x64, 0x64, 0x00, 0x00, 0x02, 0x00, 0x00, 0x00,
  0xff, 0xff, 0xff, 0xff, 0x10, 0x00, 0x00, 0x00, 0x1c, 0xd9, 0xff, 0xff,
  0x00, 0x00, 0x0a, 0x00, 0x10, 0x00, 0x04, 0x00, 0x08, 0x00, 0x0c, 0x00,
  0x0a, 0x00, 0x00, 0x00, 0x02, 0x00, 0x00, 0x00, 0x10, 0x00, 0x00, 0x00,
  0x04, 0x00, 0x00, 0x00, 0x01, 0x00, 0x00, 0x00, 0x0e, 0x00, 0x00, 0x00,
  0x02, 0x00, 0x00, 0x00, 0x0d, 0x00, 0x00, 0x00, 0x05, 0x00, 0x00, 0x00,
  0x9a, 0xfc, 0xff, 0xff, 0x00, 0x00, 0x00, 0x16, 0x01, 0x00, 0x00, 0x00,
  0xb4, 0xd8, 0xff, 0xff, 0x14, 0x00, 0x00, 0x00, 0x0f, 0x00, 0x00, 0x00,
  0x18, 0x00, 0x00, 0x00, 0x44, 0x00, 0x00, 0x00, 0x34, 0x00, 0x00, 0x00,
  0x02, 0x00, 0x00, 0x00, 0x01, 0x00, 0x00, 0x00, 0x60, 0x00, 0x00, 0x00,
  0x1e, 0x00, 0x00, 0x00, 0x73, 0x65, 0x71, 0x75, 0x65, 0x6e, 0x74, 0x69,
  0x61, 0x6c, 0x5f, 0x34, 0x2f, 0x66, 0x6c, 0x61, 0x74, 0x74, 0x65, 0x6e,
  0x5f, 0x34, 0x2f, 0x52, 0x65, 0x73, 0x68, 0x61, 0x70, 0x65, 0x00, 0x00,
  0x02, 0x00, 0x00, 0x00, 0xff, 0xff, 0xff, 0xff, 0x60, 0x00, 0x00, 0x00,
  0x9c, 0xd8, 0xff, 0xff, 0x32, 0xfe, 0xff, 0xff, 0x00, 0x00, 0x00, 0x05,
  0x01, 0x00, 0x00, 0x00, 0x38, 0x00, 0x00, 0x00, 0x2c, 0x00, 0x00, 0x00,
  0x14, 0x00, 0x00, 0x00, 0x00, 0x00, 0x0e, 0x00, 0x14, 0x00, 0x00, 0x00,
  0x10, 0x00, 0x0c, 0x00, 0x08, 0x00, 0x04, 0x00, 0x0e, 0x00, 0x00, 0x00,
  0x03, 0x00, 0x00, 0x00, 0x01, 0x00, 0x00, 0x00, 0x03, 0x00, 0x00, 0x00,
  0x01, 0x00, 0x00, 0x00, 0x01, 0x00, 0x00, 0x00, 0x0d, 0x00, 0x00, 0x00,
  0x01, 0x00, 0x00, 0x00, 0x0c, 0x00, 0x00, 0x00, 0x58, 0xd9, 0xff, 0xff,
  0x14, 0x00, 0x00, 0x00, 0x0e, 0x00, 0x00, 0x00, 0x20, 0x00, 0x00, 0x00,
  0x5c, 0x00, 0x00, 0x00, 0x44, 0x00, 0x00, 0x00, 0x04, 0x00, 0x00, 0x00,
  0x01, 0x00, 0x00, 0x00, 0x06, 0x00, 0x00, 0x00, 0x01, 0x00, 0x00, 0x00,
  0x10, 0x00, 0x00, 0x00, 0x24, 0x00, 0x00, 0x00, 0x73, 0x65, 0x71, 0x75,
  0x65, 0x6e, 0x74, 0x69, 0x61, 0x6c, 0x5f, 0x34, 0x2f, 0x6d, 0x61, 0x78,
  0x5f, 0x70, 0x6f, 0x6f, 0x6c, 0x69, 0x6e, 0x67, 0x32, 0x64, 0x5f, 0x39,
  0x2f, 0x4d, 0x61, 0x78, 0x50, 0x6f, 0x6f, 0x6c, 0x00, 0x00, 0x00, 0x00,
  0x04, 0x00, 0x00, 0x00, 0xff, 0xff, 0xff, 0xff, 0x06, 0x00, 0x00, 0x00,
  0x01, 0x00, 0x00, 0x00, 0x10, 0x00, 0x00, 0x00, 0x58, 0xd9, 0xff, 0xff,
  0x12, 0xfe, 0xff, 0xff, 0x00, 0x00, 0x00, 0x01, 0x24, 0x00, 0x00, 0x00,
  0x18, 0x00, 0x00, 0x00, 0x04, 0x00, 0x00, 0x00, 0x04, 0xfe, 0xff, 0xff,
  0x01, 0x00, 0x00, 0x00, 0x01, 0x00, 0x00, 0x00, 0x00, 0x00, 0x00, 0x01,
  0x01, 0x00, 0x00, 0x00, 0x0c, 0x00, 0x00, 0x00, 0x03, 0x00, 0x00, 0x00,
  0x0b, 0x00, 0x00, 0x00, 0x09, 0x00, 0x00, 0x00, 0x02, 0x00, 0x00, 0x00,
  0x04, 0xda, 0xff, 0xff, 0x14, 0x00, 0x00, 0x00, 0x0d, 0x00, 0x00, 0x00,
  0x20, 0x00, 0x00, 0x00, 0xc0, 0x00, 0x00, 0x00, 0xa8, 0x00, 0x00, 0x00,
  0x04, 0x00, 0x00, 0x00, 0x01, 0x00, 0x00, 0x00, 0x10, 0x00, 0x00, 0x00,
  0x01, 0x00, 0x00, 0x00, 0x10, 0x00, 0x00, 0x00, 0x8b, 0x00, 0x00, 0x00,
  0x73, 0x65, 0x71, 0x75, 0x65, 0x6e, 0x74, 0x69, 0x61, 0x6c, 0x5f, 0x34,
  0x2f, 0x63, 0x6f, 0x6e, 0x76, 0x32, 0x64, 0x5f, 0x39, 0x2f, 0x52, 0x65,
  0x6c, 0x75, 0x3b, 0x73, 0x65, 0x71, 0x75, 0x65, 0x6e, 0x74, 0x69, 0x61,
  0x6c, 0x5f, 0x34, 0x2f, 0x63, 0x6f, 0x6e, 0x76, 0x32, 0x64, 0x5f, 0x39,
  0x2f, 0x42, 0x69, 0x61, 0x73, 0x41, 0x64, 0x64, 0x3b, 0x73, 0x65, 0x71,
  0x75, 0x65, 0x6e, 0x74, 0x69, 0x61, 0x6c, 0x5f, 0x34, 0x2f, 0x63, 0x6f,
  0x6e, 0x76, 0x32, 0x64, 0x5f, 0x39, 0x2f, 0x43, 0x6f, 0x6e, 0x76, 0x32,
  0x44, 0x3b, 0x73, 0x65, 0x71, 0x75, 0x65, 0x6e, 0x74, 0x69, 0x61, 0x6c,
  0x5f, 0x34, 0x2f, 0x63, 0x6f, 0x6e, 0x76, 0x32, 0x64, 0x5f, 0x39, 0x2f,
  0x42, 0x69, 0x61, 0x73, 0x41, 0x64, 0x64, 0x2f, 0x52, 0x65, 0x61, 0x64,
  0x56, 0x61, 0x72, 0x69, 0x61, 0x62, 0x6c, 0x65, 0x4f, 0x70, 0x2f, 0x72,
  0x65, 0x73, 0x6f, 0x75, 0x72, 0x63, 0x65, 0x00, 0x04, 0x00, 0x00, 0x00,
  0xff, 0xff, 0xff, 0xff, 0x10, 0x00, 0x00, 0x00, 0x01, 0x00, 0x00, 0x00,
  0x10, 0x00, 0x00, 0x00, 0x7c, 0xdb, 0xff, 0xff, 0x00, 0x00, 0x0e, 0x00,
  0x1a, 0x00, 0x08, 0x00, 0x0c, 0x00, 0x10, 0x00, 0x07, 0x00, 0x14, 0x00,
  0x0e, 0x00, 0x00, 0x00, 0x00, 0x00, 0x00, 0x05, 0x01, 0x00, 0x00, 0x00,
  0x3c, 0x00, 0x00, 0x00, 0x30, 0x00, 0x00, 0x00, 0x14, 0x00, 0x00, 0x00,
  0x00, 0x00, 0x0e, 0x00, 0x18, 0x00, 0x17, 0x00, 0x10, 0x00, 0x0c, 0x00,
  0x08, 0x00, 0x04, 0x00, 0x0e, 0x00, 0x00, 0x00, 0x03, 0x00, 0x00, 0x00,
  0x03, 0x00, 0x00, 0x00, 0x03, 0x00, 0x00, 0x00, 0x03, 0x00, 0x00, 0x00,
  0x00, 0x00, 0x00, 0x01, 0x01, 0x00, 0x00, 0x00, 0x0b, 0x00, 0x00, 0x00,
  0x01, 0x00, 0x00, 0x00, 0x0a, 0x00, 0x00, 0x00, 0x2a, 0xff, 0xff, 0xff,
  0x00, 0x00, 0x00, 0x11, 0x01, 0x00, 0x00, 0x00, 0x44, 0xdb, 0xff, 0xff,
  0x14, 0x00, 0x00, 0x00, 0x0c, 0x00, 0x00, 0x00, 0x20, 0x00, 0x00, 0x00,
  0x5c, 0x00, 0x00, 0x00, 0x44, 0x00, 0x00, 0x00, 0x04, 0x00, 0x00, 0x00,
  0x01, 0x00, 0x00, 0x00, 0x10, 0x00, 0x00, 0x00, 0x01, 0x00, 0x00, 0x00,
  0x08, 0x00, 0x00, 0x00, 0x24, 0x00, 0x00, 0x00, 0x73, 0x65, 0x71, 0x75,
  0x65, 0x6e, 0x74, 0x69, 0x61, 0x6c, 0x5f, 0x34, 0x2f, 0x6d, 0x61, 0x78,
  0x5f, 0x70, 0x6f, 0x6f, 0x6c, 0x69, 0x6e, 0x67, 0x32, 0x64, 0x5f, 0x38,
  0x2f, 0x4d, 0x61, 0x78, 0x50, 0x6f, 0x6f, 0x6c, 0x00, 0x00, 0x00, 0x00,
  0x04, 0x00, 0x00, 0x00, 0xff, 0xff, 0xff, 0xff, 0x10, 0x00, 0x00, 0x00,
  0x01, 0x00, 0x00, 0x00, 0x08, 0x00, 0x00, 0x00, 0x58, 0xdc, 0xff, 0xff,
  0x00, 0x00, 0x0e, 0x00, 0x14, 0x00, 0x00, 0x00, 0x08, 0x00, 0x0c, 0x00,
  0x07, 0x00, 0x10, 0x00, 0x0e, 0x00, 0x00, 0x00, 0x00, 0x00, 0x00, 0x01,
  0x30, 0x00, 0x00, 0x00, 0x24, 0x00, 0x00, 0x00, 0x10, 0x00, 0x00, 0x00,
  0x0c, 0x00, 0x10, 0x00, 0x00, 0x00, 0x04, 0x00, 0x08, 0x00, 0x0f, 0x00,
  0x0c, 0x00, 0x00, 0x00, 0x01, 0x00, 0x00, 0x00, 0x01, 0x00, 0x00, 0x00,
  0x00, 0x00, 0x00, 0x01, 0x01, 0x00, 0x00, 0x00, 0x0a, 0x00, 0x00, 0x00,
  0x03, 0x00, 0x00, 0x00, 0x00, 0x00, 0x00, 0x00, 0x08, 0x00, 0x00, 0x00,
  0x01, 0x00, 0x00, 0x00, 0x00, 0x00, 0x0a, 0x00, 0x0c, 0x00, 0x07, 0x00,
  0x00, 0x00, 0x08, 0x00, 0x0a, 0x00, 0x00, 0x00, 0x00, 0x00, 0x00, 0x03,
  0x01, 0x00, 0x00, 0x00, 0x24, 0xdc, 0xff, 0xff, 0x14, 0x00, 0x00, 0x00,
  0x0b, 0x00, 0x00, 0x00, 0x20, 0x00, 0x00, 0x00, 0xc0, 0x00, 0x00, 0x00,
  0xa8, 0x00, 0x00, 0x00, 0x04, 0x00, 0x00, 0x00, 0x01, 0x00, 0x00, 0x00,
  0x32, 0x00, 0x00, 0x00, 0x03, 0x00, 0x00, 0x00, 0x08, 0x00, 0x00, 0x00,
  0x8b, 0x00, 0x00, 0x00, 0x73, 0x65, 0x71, 0x75, 0x65, 0x6e, 0x74, 0x69,
  0x61, 0x6c, 0x5f, 0x34, 0x2f, 0x63, 0x6f, 0x6e, 0x76, 0x32, 0x64, 0x5f,
  0x38, 0x2f, 0x52, 0x65, 0x6c, 0x75, 0x3b, 0x73, 0x65, 0x71, 0x75, 0x65,
  0x6e, 0x74, 0x69, 0x61, 0x6c, 0x5f, 0x34, 0x2f, 0x63, 0x6f, 0x6e, 0x76,
  0x32, 0x64, 0x5f, 0x38, 0x2f, 0x42, 0x69, 0x61, 0x73, 0x41, 0x64, 0x64,
  0x3b, 0x73, 0x65, 0x71, 0x75, 0x65, 0x6e, 0x74, 0x69, 0x61, 0x6c, 0x5f,
  0x34, 0x2f, 0x63, 0x6f, 0x6e, 0x76, 0x32, 0x64, 0x5f, 0x38, 0x2f, 0x43,
  0x6f, 0x6e, 0x76, 0x32, 0x44, 0x3b, 0x73, 0x65, 0x71, 0x75, 0x65, 0x6e,
  0x74, 0x69, 0x61, 0x6c, 0x5f, 0x34, 0x2f, 0x63, 0x6f, 0x6e, 0x76, 0x32,
  0x64, 0x5f, 0x38, 0x2f, 0x42, 0x69, 0x61, 0x73, 0x41, 0x64, 0x64, 0x2f,
  0x52, 0x65, 0x61, 0x64, 0x56, 0x61, 0x72, 0x69, 0x61, 0x62, 0x6c, 0x65,
  0x4f, 0x70, 0x2f, 0x72, 0x65, 0x73, 0x6f, 0x75, 0x72, 0x63, 0x65, 0x00,
  0x04, 0x00, 0x00, 0x00, 0xff, 0xff, 0xff, 0xff, 0x32, 0x00, 0x00, 0x00,
  0x03, 0x00, 0x00, 0x00, 0x08, 0x00, 0x00, 0x00, 0x88, 0xdc, 0xff, 0xff,
  0x96, 0xdd, 0xff, 0xff, 0x04, 0x00, 0x00, 0x00, 0x00, 0x06, 0x00, 0x00,
  0x82, 0xe2, 0x51, 0xbe, 0xac, 0x81, 0x50, 0xbe, 0x10, 0xf6, 0xda, 0xbc,
  0x60, 0xf0, 0x18, 0xbc, 0xac, 0x99, 0x29, 0xbd, 0x50, 0xb1, 0x2a, 0x3e,
  0x53, 0x6b, 0x09, 0xbe, 0x13, 0xb5, 0x4e, 0xbe, 0x5a, 0xcf, 0x73, 0x3d,
  0x4b, 0x70, 0xfc, 0x3f, 0x70, 0xd6, 0x23, 0xbf, 0x2c, 0xf6, 0x1d, 0x3f,
  0x78, 0x4f, 0x33, 0x3f, 0x1c, 0x4a, 0x7c, 0x3c, 0x16, 0x5e, 0x31, 0xbf,
  0xbe, 0xb4, 0x60, 0x3e, 0xca, 0xcc, 0x90, 0x3e, 0x78, 0x1a, 0x34, 0xbd,
  0xe8, 0x32, 0xf6, 0x3d, 0x80, 0x3f, 0x83, 0xbb, 0x84, 0xad, 0x71, 0x3e,
  0xc7, 0x18, 0x38, 0xbe, 0xa0, 0xed, 0x1e, 0x3c, 0x4a, 0x20, 0xf0, 0xbd,
  0x60, 0x67, 0x78, 0xbc, 0x40, 0x1e, 0x1d, 0x3d, 0xdc, 0x21, 0xbd, 0xbd,
  0x20, 0xd7, 0x4e, 0xbc, 0x10, 0xea, 0xa0, 0x3c, 0xf0, 0xa5, 0x7f, 0xbe,
  0xc0, 0x76, 0xa1, 0x3b, 0x5e, 0x30, 0x2c, 0xbe, 0x10, 0xf9, 0x34, 0xbf,
  0x15, 0x03, 0xd1, 0xbe, 0xdd, 0x15, 0x97, 0x3f, 0x2b, 0x66, 0x60, 0xbf,
  0x7e, 0xd6, 0xb0, 0xbf, 0x26, 0x4e, 0x63, 0x3f, 0x64, 0x6a, 0xa3, 0x3f,
  0x71, 0x0f, 0xc9, 0xbf, 0x9c, 0x09, 0xd6, 0x3d, 0xa8, 0x4c, 0xf9, 0x3d,
  0x5c, 0x6a, 0x19, 0xbe, 0xc6, 0x71, 0x9a, 0xbd, 0x41, 0x40, 0x38, 0xbe,
  0x14, 0x8b, 0x10, 0x3e, 0xe0, 0x8e, 0x98, 0x3c, 0x18, 0x00, 0x91, 0xbe,
  0x54, 0x3d, 0x1d, 0x3e, 0x88, 0x2a, 0x69, 0xbe, 0xd4, 0x10, 0x9b, 0x3d,
  0x40, 0x0b, 0x14, 0x3c, 0x20, 0x50, 0x1c, 0x3c, 0x08, 0xee, 0x32, 0xbd,
  0x04, 0x26, 0x1b, 0x3e, 0x00, 0x2e, 0x27, 0x3e, 0x13, 0xc6, 0x53, 0xbe,
  0x04, 0x85, 0x8b, 0xbe, 0x0a, 0x4c, 0x3c, 0xbe, 0x72, 0xce, 0x70, 0xbe,
  0xf6, 0x0b, 0x6b, 0xbe, 0xcc, 0xdc, 0x27, 0xbe, 0x0a, 0xa5, 0xa1, 0xbc,
  0x09, 0xa2, 0xd8, 0x3d, 0x68, 0x84, 0x48, 0x3e, 0x7e, 0x10, 0x38, 0x3e,
  0x48, 0x16, 0x48, 0xbe, 0x74, 0xaf, 0x45, 0x3e, 0x7f, 0xae, 0x0a, 0xbe,
  0xdc, 0xfd, 0x76, 0x3e, 0x50, 0x74, 0x9b, 0x3c, 0x4c, 0x4d, 0x6c, 0xbe,
  0x16, 0x86, 0x8a, 0x3e, 0x70, 0x3a, 0x34, 0x3d, 0x00, 0x6b, 0x56, 0x3c,
  0x74, 0x7b, 0x23, 0x3e, 0x32, 0x2a, 0x85, 0x3e, 0xf8, 0x21, 0x75, 0x3e,
  0x3a, 0xd6, 0x77, 0xbe, 0xd8, 0x28, 0x78, 0x3e, 0xe3, 0x1a, 0x7a, 0xbe,
  0xc0, 0xb8, 0xff, 0xbf, 0xc6, 0x4a, 0x3a, 0xbe, 0xc0, 0x2b, 0x23, 0xbf,
  0x1e, 0x81, 0x22, 0xbe, 0x4c, 0x6b, 0xd8, 0x3f, 0x76, 0xc4, 0x07, 0xbe,
  0x49, 0x61, 0x50, 0xbd, 0x1a, 0xa6, 0xef, 0xbd, 0x10, 0x6e, 0x12, 0xbd,
  0x00, 0x44, 0xd2, 0xb9, 0x50, 0x99, 0xd6, 0xbc, 0xfe, 0x99, 0x03, 0xbe,
  0x10, 0x25, 0x38, 0x3e, 0x52, 0xec, 0x92, 0xbe, 0x24, 0x5a, 0xab, 0x3d,
  0x30, 0x24, 0x44, 0x3e, 0x9c, 0x0f, 0x6c, 0xbd, 0x2c, 0xc8, 0x9e, 0x3d,
  0x1c, 0xe9, 0xed, 0x3d, 0x90, 0x21, 0xde, 0x3c, 0xf8, 0x7d, 0x20, 0x3d,
  0x18, 0x1e, 0x2d, 0xbe, 0x9c, 0xfe, 0x85, 0x3d, 0x2a, 0xf8, 0x69, 0xbc,
  0xe2, 0x47, 0xd8, 0xbd, 0xd3, 0x55, 0x6f, 0xbe, 0x5f, 0xa3, 0xb5, 0xbe,
  0xc9, 0xf3, 0x3b, 0xbd, 0xfd, 0x7e, 0xab, 0x3d, 0x0a, 0x2a, 0x95, 0xbe,
  0xfd, 0xfc, 0x4d, 0xbd, 0x92, 0x78, 0x3f, 0x3e, 0xf4, 0x3e, 0x3a, 0xbd,
  0xfe, 0x46, 0x47, 0x3e, 0xe8, 0x2c, 0x49, 0x3e, 0x00, 0xd5, 0x96, 0xba,
  0x60, 0xa9, 0x1b, 0x3d, 0x3a, 0x56, 0x1d, 0xbe, 0x00, 0x60, 0x4c, 0xb8,
  0xfc, 0x08, 0x4b, 0xbe, 0xd2, 0xc9, 0xdf, 0xbd, 0xd6, 0xcf, 0x57, 0x3e,
  0xfb, 0x2a, 0x83, 0xbe, 0xe4, 0xd8, 0xe2, 0x3d, 0xd6, 0x6a, 0xf0, 0xbd,
  0xbe, 0x65, 0x51, 0x3e, 0x20, 0x8c, 0x8f, 0x3d, 0xcf, 0xa6, 0x8c, 0xbe,
  0x12, 0x82, 0x9c, 0xbe, 0x0c, 0xdd, 0xdd, 0xbd, 0x1d, 0x0c, 0x8b, 0xbe,
  0xd0, 0x8b, 0x9a, 0xbd, 0x9b, 0x80, 0x3f, 0x40, 0x34, 0xb8, 0x02, 0xbf,
  0xea, 0x41, 0x6c, 0xbd, 0x7c, 0x66, 0x4c, 0x3e, 0xf0, 0x0f, 0x1a, 0x3d,
  0x80, 0xe4, 0xc7, 0x3d, 0x52, 0xeb, 0x90, 0x3e, 0x02, 0xa2, 0x84, 0xbd,
  0x86, 0xfd, 0x83, 0xbe, 0x4c, 0x34, 0x3c, 0x3e, 0xee, 0x42, 0xbc, 0xbd,
  0x47, 0x82, 0x83, 0xbe, 0x74, 0x69, 0x74, 0x3e, 0x7e, 0x46, 0xcd, 0xbd,
  0x85, 0x3b, 0x14, 0xbe, 0xd8, 0xbf, 0xc1, 0x3d, 0xbe, 0xb3, 0x6e, 0xbe,
  0x52, 0xfe, 0x86, 0x3e, 0x10, 0x9a, 0xfd, 0xbd, 0x2d, 0x52, 0xe4, 0x3f,
  0x54, 0x88, 0xb2, 0x3e, 0x75, 0xcc, 0xb1, 0x3d, 0x5d, 0x6c, 0x15, 0x40,
  0xda, 0x6c, 0x30, 0x3f, 0xdb, 0x35, 0x3d, 0xbf, 0xab, 0xc4, 0x0b, 0x3f,
  0x4b, 0x69, 0x1c, 0x3f, 0xf8, 0xf7, 0x12, 0xbe, 0x70, 0x10, 0x55, 0x3d,
  0xa1, 0x80, 0x87, 0xbe, 0xf4, 0x9d, 0x58, 0xbe, 0x90, 0xa4, 0x62, 0x3e,
  0xf6, 0x19, 0x62, 0xbe, 0x1e, 0xa8, 0x1d, 0x3e, 0x36, 0xc0, 0x92, 0x3e,
  0x24, 0x5c, 0x6c, 0x3e, 0xb6, 0x78, 0x80, 0xbe, 0x44, 0x9a, 0x8a, 0x3e,
  0x74, 0x45, 0xb8, 0x3d, 0x92, 0xee, 0xf7, 0xbd, 0xd6, 0x34, 0x8d, 0x3e,
  0xdc, 0xc7, 0x8b, 0x3e, 0x6a, 0xf0, 0x1f, 0x3e, 0xa2, 0x53, 0x40, 0x3f,
  0x90, 0x6b, 0xce, 0x3f, 0x04, 0xdf, 0xe4, 0x3d, 0x49, 0x31, 0x40, 0x3f,
  0x32, 0x42, 0x3a, 0xbe, 0x04, 0xff, 0x06, 0x40, 0x7e, 0xcf, 0x0e, 0x3e,
  0x5e, 0x13, 0x79, 0x3e, 0x8c, 0x0c, 0x6d, 0x3e, 0xdc, 0xde, 0x86, 0x3e,
  0x00, 0x9c, 0xb2, 0x3c, 0x5a, 0x90, 0x93, 0x3e, 0x8d, 0xd6, 0x25, 0xbe,
  0xdc, 0x7c, 0xd4, 0x3d, 0x78, 0x00, 0xdd, 0x3d, 0x0b, 0xa6, 0x8d, 0xbe,
  0xbc, 0xfa, 0x78, 0x3e, 0x8e, 0xd4, 0xc7, 0xbd, 0x64, 0xd6, 0x5f, 0xbe,
  0xea, 0x94, 0x0c, 0x3e, 0x2a, 0xad, 0xd9, 0xbd, 0xe8, 0x69, 0x8e, 0x3d,
  0xde, 0x06, 0x8f, 0xbd, 0xbb, 0x3a, 0x04, 0xbe, 0x3f, 0x2b, 0xc8, 0xbe,
  0x4d, 0xa6, 0x80, 0x3f, 0x3f, 0x34, 0x43, 0xbf, 0xda, 0x69, 0xbf, 0xbf,
  0xe3, 0x22, 0xe4, 0x3e, 0x74, 0x77, 0xf0, 0x3f, 0x80, 0x86, 0xd8, 0xbf,
  0x84, 0x2a, 0x3a, 0x3f, 0x6c, 0x0b, 0x4f, 0x3e, 0x54, 0x92, 0x6e, 0xbe,
  0x20, 0xe8, 0x76, 0xbe, 0x8a, 0x9e, 0x04, 0xbe, 0x70, 0x13, 0x1d, 0x3e,
  0xc9, 0xf3, 0x15, 0xbe, 0x9c, 0x64, 0x5b, 0x3e, 0x64, 0xc7, 0xff, 0x3d,
  0x7e, 0xd8, 0x1b, 0x3e, 0xd6, 0x28, 0xa3, 0xbd, 0xc8, 0x7b, 0xda, 0xbd,
  0x95, 0x9c, 0x0e, 0xbe, 0x3c, 0xf2, 0xbb, 0x3d, 0xa0, 0xa0, 0x3d, 0x3d,
  0xa0, 0xc9, 0x53, 0xbe, 0xb4, 0xa7, 0xf5, 0x3d, 0xed, 0x39, 0x53, 0x3d,
  0xdc, 0xc9, 0xb8, 0xbf, 0xbc, 0xea, 0x2d, 0xbf, 0x8a, 0x32, 0x63, 0xbe,
  0xb1, 0xa9, 0xd9, 0x3f, 0x36, 0x0e, 0xad, 0x3f, 0x7f, 0xb7, 0xff, 0xbe,
  0x6c, 0xea, 0x94, 0x3f, 0x70, 0x80, 0x7c, 0x3e, 0x1a, 0xe4, 0x8f, 0xbd,
  0xa4, 0xcf, 0xd6, 0x3d, 0xa0, 0x8c, 0xae, 0x3c, 0x00, 0x9a, 0xc5, 0x3c,
  0xa0, 0x60, 0xb4, 0x3c, 0x99, 0xb0, 0x32, 0xbe, 0xd1, 0xa4, 0x81, 0xbe,
  0x48, 0x59, 0x68, 0x3d, 0x58, 0xb7, 0x61, 0x3e, 0x68, 0xbe, 0x90, 0x3e,
  0xac, 0x74, 0xe2, 0x3d, 0x6a, 0xc6, 0x35, 0x3e, 0xf0, 0x86, 0xb3, 0x3c,
  0xc0, 0x7e, 0xae, 0xbb, 0x70, 0xae, 0x67, 0x3e, 0xb5, 0xdd, 0x33, 0x3f,
  0x5f, 0x97, 0x36, 0x3f, 0x58, 0x99, 0xf3, 0xbd, 0xb9, 0x66, 0x99, 0x3f,
  0x52, 0x4d, 0xd4, 0x3f, 0x23, 0x80, 0x86, 0xbf, 0x9d, 0x84, 0x79, 0xbe,
  0x7c, 0xfc, 0x82, 0x3f, 0xe8, 0x17, 0x3b, 0x3d, 0x54, 0x3a, 0x8c, 0x3e,
  0x00, 0xd2, 0x8a, 0x3e, 0xb8, 0x7c, 0x2b, 0x3d, 0x80, 0xe2, 0x87, 0x3c,
  0xfa, 0xed, 0x7c, 0xbe, 0x6c, 0xf5, 0xef, 0xbd, 0x1e, 0x16, 0x86, 0x3e,
  0x3e, 0xfb, 0x86, 0x3e, 0xbe, 0x16, 0xf1, 0xbd, 0xf8, 0xa6, 0x25, 0x3d,
  0x76, 0x3a, 0x68, 0xbe, 0x93, 0x5a, 0x1a, 0xbe, 0xca, 0xc1, 0x86, 0xbe,
  0x74, 0x0b, 0x71, 0x3e, 0x76, 0x48, 0x1e, 0x3e, 0x5f, 0xa2, 0x3c, 0xbf,
  0x4b, 0xac, 0x08, 0x40, 0xb2, 0x19, 0xae, 0xba, 0xe9, 0x24, 0x43, 0x3d,
  0x40, 0xb1, 0x15, 0xbf, 0x00, 0x02, 0x14, 0xbf, 0x35, 0x2d, 0x80, 0xbd,
  0xdc, 0x21, 0x5d, 0xbf, 0x7e, 0x79, 0xc0, 0xbd, 0xd0, 0xbe, 0x1b, 0xbd,
  0x8c, 0x70, 0x73, 0x3e, 0xc8, 0x89, 0x22, 0xbd, 0x10, 0x70, 0xf3, 0x3c,
  0xc8, 0x0f, 0xcb, 0x3d, 0x5e, 0x65, 0x88, 0xbe, 0x60, 0x79, 0x1b, 0xbc,
  0x1f, 0xdc, 0x54, 0xbe, 0x58, 0x46, 0x93, 0x3d, 0x48, 0x95, 0x20, 0xbd,
  0xec, 0x30, 0xd9, 0x3d, 0x48, 0x28, 0x6e, 0x3e, 0x04, 0x3a, 0xdf, 0x3d,
  0xa4, 0x4f, 0x00, 0xbe, 0x42, 0x2b, 0x43, 0x3e, 0xc5, 0xae, 0x20, 0xc0,
  0x2a, 0x4f, 0x6d, 0x3f, 0xfb, 0x75, 0xe6, 0x3d, 0x8a, 0x6d, 0xf2, 0xbf,
  0xaf, 0x9e, 0x63, 0xc0, 0x93, 0x4b, 0x1c, 0xc0, 0x96, 0x9e, 0x8c, 0xbe,
  0xa0, 0x86, 0x57, 0xc0, 0xa8, 0x71, 0x0a, 0xbd, 0x18, 0x78, 0x09, 0x3e,
  0x74, 0x34, 0xa1, 0xbd, 0x6c, 0x60, 0x8f, 0xbe, 0x88, 0x91, 0x59, 0x3e,
  0xec, 0xb5, 0x84, 0xbd, 0x0e, 0x62, 0x28, 0x3e, 0xbc, 0xe2, 0xaa, 0xbd,
  0x3c, 0xff, 0x72, 0xbe, 0x12, 0x5a, 0x33, 0x3e, 0xe0, 0x46, 0xbb, 0xbc,
  0xfe, 0xbf, 0x0a, 0x3e, 0x08, 0x49, 0xa7, 0x3d, 0x44, 0x03, 0x7a, 0x3e,
  0x0f, 0x76, 0x55, 0xbe, 0xcc, 0xe2, 0x5c, 0x3e, 0xf0, 0x26, 0xf3, 0xbd,
  0xcd, 0x0e, 0x31, 0x3e, 0xaf, 0xdd, 0xc3, 0x3f, 0x97, 0xbf, 0x0e, 0x3f,
  0x7f, 0xb6, 0x51, 0xbf, 0xfa, 0x8c, 0xb4, 0xbc, 0x4d, 0x75, 0xd9, 0x3f,
  0xb8, 0x57, 0x59, 0xbf, 0x68, 0x33, 0x52, 0x3e, 0xc2, 0x40, 0x91, 0x3e,
  0x54, 0x2c, 0x79, 0x3e, 0xdc, 0x98, 0x33, 0xbd, 0x4e, 0x04, 0x5d, 0xbe,
  0xb2, 0x9e, 0xc0, 0xbd, 0xca, 0x4f, 0x3e, 0x3e, 0xfc, 0x18, 0xb4, 0x3d,
  0xc8, 0x72, 0x16, 0x3e, 0xe4, 0x34, 0x60, 0x3e, 0x80, 0x73, 0x5b, 0x3d,
  0x86, 0x74, 0x23, 0x3e, 0xac, 0x07, 0xee, 0x3d, 0x6c, 0x96, 0x80, 0x3d,
  0x5b, 0x5c, 0x7a, 0xbe, 0xf8, 0x9b, 0x0b, 0x3e, 0x1d, 0xc5, 0x74, 0xbe,
  0x89, 0x6d, 0x3b, 0xbe, 0x46, 0x99, 0x19, 0xbe, 0x32, 0xab, 0x02, 0xbe,
  0x0c, 0xb9, 0x1e, 0x3e, 0xdc, 0x8a, 0x98, 0xbe, 0xb4, 0x37, 0x06, 0x3e,
  0x1f, 0x14, 0xf7, 0xbd, 0x07, 0x2b, 0x93, 0xbe, 0xd2, 0xee, 0x8e, 0x3e,
  0xfc, 0x04, 0x50, 0xbd, 0x54, 0x06, 0x47, 0xbe, 0xb4, 0xd5, 0x58, 0xbd,
  0xe8, 0xcc, 0x8a, 0xbe, 0xbc, 0x07, 0x65, 0x3e, 0xd5, 0x90, 0x20, 0xbe,
  0x04, 0x59, 0x0d, 0x3e, 0xf8, 0x24, 0xe2, 0x3d, 0x1c, 0x3e, 0xef, 0xbd,
  0xc2, 0x0c, 0x84, 0xbd, 0x42, 0x24, 0x10, 0x3e, 0x14, 0x10, 0xba, 0xbd,
  0x94, 0xdf, 0x5f, 0x3e, 0xca, 0xc6, 0x17, 0xbe, 0x45, 0x9e, 0xbe, 0xbd,
  0xe7, 0xfb, 0x04, 0xbe, 0xda, 0x93, 0x21, 0xbd, 0x7c, 0x1a, 0x0d, 0xbe,
  0xb9, 0x1b, 0x23, 0xbd, 0xfa, 0x78, 0x56, 0x3c, 0xb5, 0x1c, 0x79, 0x3d,
  0xfb, 0x51, 0xa8, 0x3c, 0xe8, 0xcb, 0x90, 0x3d, 0xa0, 0x08, 0xbd, 0x3d,
  0x4c, 0x25, 0x1d, 0xbe, 0x70, 0xec, 0xa6, 0xbc, 0xa0, 0x89, 0x87, 0xbc,
  0x2c, 0xb8, 0x49, 0xbe, 0x5a, 0xef, 0x05, 0xbe, 0xad, 0x51, 0x2f, 0xbe,
  0x6e, 0xe3, 0xff, 0xff, 0x10, 0x00, 0x00, 0x00, 0x0a, 0x00, 0x00, 0x00,
  0x1c, 0x00, 0x00, 0x00, 0x3c, 0x00, 0x00, 0x00, 0x04, 0x00, 0x00, 0x00,
  0x10, 0x00, 0x00, 0x00, 0x01, 0x00, 0x00, 0x00, 0x03, 0x00, 0x00, 0x00,
  0x08, 0x00, 0x00, 0x00, 0x1c, 0x00, 0x00, 0x00, 0x73, 0x65, 0x71, 0x75,
  0x65, 0x6e, 0x74, 0x69, 0x61, 0x6c, 0x5f, 0x34, 0x2f, 0x63, 0x6f, 0x6e,
  0x76, 0x32, 0x64, 0x5f, 0x39, 0x2f, 0x43, 0x6f, 0x6e, 0x76, 0x32, 0x44,
  0x00, 0x00, 0x00, 0x00, 0xe4, 0xe2, 0xff, 0xff, 0xf2, 0xe3, 0xff, 0xff,
  0x04, 0x00, 0x00, 0x00, 0x60, 0x00, 0x00, 0x00, 0x57, 0xd5, 0x2c, 0x3f,
  0x09, 0xd8, 0x97, 0x3e, 0xe2, 0xde, 0xe3, 0xbf, 0x6c, 0x41, 0xcf, 0x3e,
  0xbe, 0x8c, 0x9b, 0xbf, 0x71, 0xf1, 0x36, 0x3f, 0x94, 0xfa, 0x31, 0x3f,
  0x8f, 0xb6, 0x72, 0x3e, 0x82, 0xff, 0x4c, 0x3e, 0xcf, 0x9b, 0x08, 0x3f,
  0x22, 0x40, 0x25, 0x3f, 0xb2, 0xf3, 0x25, 0xbf, 0xb6, 0xe3, 0x90, 0xbf,
  0xa6, 0x83, 0x59, 0xbf, 0xd4, 0xbd, 0x3d, 0x3f, 0xf9, 0xf1, 0x15, 0x3f,
  0xaf, 0xd7, 0x87, 0xbf, 0xed, 0xd6, 0xd0, 0xbe, 0x3d, 0x2b, 0x2a, 0x3f,
  0x4b, 0xf4, 0xec, 0x3e, 0xc0, 0xf8, 0x5a, 0x3e, 0xfd, 0xad, 0x3d, 0xbf,
  0xe2, 0xee, 0x22, 0xbf, 0x68, 0xd5, 0x3a, 0x3f, 0x2a, 0xe4, 0xff, 0xff,
  0x10, 0x00, 0x00, 0x00, 0x09, 0x00, 0x00, 0x00, 0x1c, 0x00, 0x00, 0x00,
  0x3c, 0x00, 0x00, 0x00, 0x04, 0x00, 0x00, 0x00, 0x08, 0x00, 0x00, 0x00,
  0x01, 0x00, 0x00, 0x00, 0x03, 0x00, 0x00, 0x00, 0x01, 0x00, 0x00, 0x00,
  0x1c, 0x00, 0x00, 0x00, 0x73, 0x65, 0x71, 0x75, 0x65, 0x6e, 0x74, 0x69,
  0x61, 0x6c, 0x5f, 0x34, 0x2f, 0x63, 0x6f, 0x6e, 0x76, 0x32, 0x64, 0x5f,
  0x38, 0x2f, 0x43, 0x6f, 0x6e, 0x76, 0x32, 0x44, 0x00, 0x00, 0x00, 0x00,
  0xa0, 0xe3, 0xff, 0xff, 0xae, 0xe4, 0xff, 0xff, 0x04, 0x00, 0x00, 0x00,
  0x80, 0x00, 0x00, 0x00, 0x16, 0xf2, 0x57, 0xbf, 0x54, 0x5b, 0x2d, 0xbf,
  0x06, 0x63, 0x05, 0x40, 0xec, 0x02, 0x43, 0x40, 0x83, 0xec, 0x0a, 0x40,
  0x65, 0x67, 0x08, 0x40, 0xac, 0xf1, 0xfc, 0x3f, 0xf5, 0x18, 0xba, 0x3e,
  0x4f, 0x13, 0x85, 0xbe, 0xb0, 0xdf, 0x02, 0xbe, 0x19, 0xd6, 0x6b, 0xbf,
  0xe8, 0x19, 0x45, 0x3e, 0x5e, 0x27, 0x4d, 0x3e, 0x8a, 0xff, 0x2f, 0x40,
  0x5f, 0x6d, 0xfb, 0x3f, 0xd4, 0xe8, 0x40, 0x40, 0x35, 0x89, 0xd6, 0x3f,
  0x8a, 0xc1, 0xad, 0x3f, 0x66, 0x1a, 0xfd, 0xbf, 0x28, 0x2b, 0x06, 0xc0,
  0xe3, 0xc2, 0x2e, 0xc0, 0x3d, 0xe3, 0x07, 0xc0, 0x05, 0x6b, 0x26, 0xc0,
  0xca, 0x61, 0xb0, 0x3e, 0xdb, 0x65, 0x73, 0x3e, 0x50, 0x9d, 0xda, 0x3e,
  0x76, 0x77, 0xb3, 0x3f, 0x93, 0xef, 0x07, 0x3f, 0x76, 0x0b, 0xa6, 0x3e,
  0xb8, 0xde, 0x16, 0xc0, 0xa5, 0x01, 0x00, 0xc0, 0x55, 0xb6, 0x48, 0xc0,
  0x06, 0xe5, 0xff, 0xff, 0x10, 0x00, 0x00, 0x00, 0x08, 0x00, 0x00, 0x00,
  0x14, 0x00, 0x00, 0x00, 0x30, 0x00, 0x00, 0x00, 0x02, 0x00, 0x00, 0x00,
  0x02, 0x00, 0x00, 0x00, 0x10, 0x00, 0x00, 0x00, 0x1b, 0x00, 0x00, 0x00,
  0x73, 0x65, 0x71, 0x75, 0x65, 0x6e, 0x74, 0x69, 0x61, 0x6c, 0x5f, 0x34,
  0x2f, 0x64, 0x65, 0x6e, 0x73, 0x65, 0x5f, 0x39, 0x2f, 0x4d, 0x61, 0x74,
  0x4d, 0x75, 0x6c, 0x00, 0x70, 0xe4, 0xff, 0xff, 0x7e, 0xe5, 0xff, 0xff,
  0x04, 0x00, 0x00, 0x00, 0x00, 0x18, 0x00, 0x00, 0x10, 0x00, 0x1b, 0x3f,
  0x77, 0xc5, 0xdd, 0xbc, 0xa0, 0xc8, 0xfc, 0xbc, 0xbb, 0x4d, 0x1c, 0x3f,
  0x35, 0x74, 0x4b, 0xbe, 0xb3, 0xa4, 0x73, 0x3f, 0x2f, 0x58, 0xb4, 0x3f,
  0x7b, 0x77, 0xd6, 0x3e, 0xa1, 0xd3, 0x48, 0xbf, 0x60, 0xcc, 0x3b, 0x3f,
  0x1e, 0xd2, 0xba, 0x3f, 0xb7, 0xeb, 0xda, 0xbe, 0x9b, 0xa6, 0xed, 0xbf,
  0x75, 0x6b, 0x41, 0x3f, 0xe1, 0x59, 0x28, 0x3e, 0x8a, 0x5b, 0xbf, 0x3d,
  0x62, 0xba, 0x6e, 0x3e, 0x82, 0xc3, 0x2d, 0xbf, 0xe0, 0x26, 0x4b, 0x3e,
  0x99, 0x5b, 0x9f, 0x3f, 0x15, 0x4e, 0xf4, 0x3d, 0x9d, 0x0e, 0x15, 0xbf,
  0x72, 0x6d, 0x17, 0x3f, 0xba, 0x9a, 0x6a, 0x3e, 0x03, 0xbf, 0x07, 0xbf,
  0x0b, 0x55, 0x2b, 0x3e, 0xc8, 0xa7, 0x64, 0x3e, 0x59, 0x46, 0xe1, 0x3e,
  0x59, 0x4d, 0x5a, 0xbf, 0xa0, 0xc5, 0x81, 0x3e, 0x2e, 0xf9, 0x58, 0xbd,
  0xa8, 0xbe, 0xf6, 0xbd, 0xb9, 0x35, 0xfd, 0x3e, 0x16, 0x9f, 0x1d, 0x3f,
  0x94, 0x66, 0x5a, 0x3d, 0x96, 0x3d, 0x2d, 0x3f, 0x18, 0xc8, 0xf0, 0x3d,
  0xfa, 0x3b, 0x0a, 0xbe, 0x8f, 0x00, 0x89, 0x3e, 0x46, 0x54, 0x9f, 0xbc,
  0x6e, 0x19, 0xf0, 0xbe, 0xfc, 0x26, 0x95, 0x3e, 0xdf, 0xc5, 0x57, 0x3e,
  0xcd, 0x3d, 0x09, 0x3f, 0x18, 0x60, 0x21, 0x3f, 0xac, 0x65, 0xcb, 0x3f,
  0xa9, 0xea, 0x38, 0xbe, 0xd1, 0x1c, 0x40, 0xbe, 0xf9, 0x2e, 0x55, 0xbe,
  0x52, 0x3e, 0x97, 0x3e, 0xd0, 0xdf, 0x06, 0x3e, 0x22, 0x38, 0x42, 0x3f,
  0x3e, 0x69, 0x02, 0x3e, 0x9a, 0x13, 0xb7, 0x3c, 0x28, 0x24, 0x07, 0x3e,
  0x6f, 0x86, 0x4b, 0x3e, 0xb4, 0x2f, 0xe2, 0xbe, 0x3c, 0x11, 0x96, 0x3e,
  0xfb, 0x9a, 0x24, 0x3d, 0x39, 0xcb, 0xbb, 0xbe, 0x50, 0xc5, 0x0c, 0x3f,
  0xe1, 0x1b, 0xaa, 0x3f, 0x15, 0xd5, 0x65, 0xbd, 0x23, 0xbb, 0x4e, 0xbe,
  0xc4, 0x04, 0x18, 0x3f, 0x2f, 0xa4, 0x20, 0xbf, 0x30, 0xf9, 0xc8, 0x3c,
  0xf7, 0xe2, 0x8f, 0x3d, 0xf2, 0x1e, 0x7e, 0x3d, 0xb4, 0x57, 0x61, 0xbf,
  0x63, 0x4d, 0x1a, 0x3e, 0xde, 0x59, 0xd4, 0x3d, 0xef, 0xab, 0x6f, 0xbf,
  0x27, 0x51, 0x80, 0x3e, 0x28, 0x4b, 0x03, 0x3f, 0x36, 0xee, 0xa3, 0x3e,
  0x7c, 0x09, 0x49, 0x3f, 0x8d, 0xac, 0x02, 0xbf, 0x4a, 0x47, 0x9c, 0xbd,
  0x38, 0x5a, 0x51, 0x3c, 0x39, 0xf8, 0xf4, 0x3e, 0x66, 0x59, 0x77, 0xbf,
  0xa0, 0x13, 0xa9, 0xbd, 0x69, 0x02, 0x10, 0xc0, 0xd9, 0xce, 0x17, 0xbe,
  0x6f, 0x04, 0xa1, 0xbf, 0xca, 0x9a, 0xce, 0x3e, 0x9d, 0x9b, 0x7b, 0x3d,
  0x52, 0x44, 0xf2, 0xbe, 0x5f, 0x5e, 0x9d, 0xbe, 0x7b, 0xfe, 0xc9, 0x3e,
  0x65, 0x27, 0x73, 0x3f, 0xd9, 0xb8, 0x72, 0x3f, 0x2c, 0x76, 0x0e, 0x3f,
  0x3a, 0xa8, 0x0f, 0xbe, 0xc4, 0x6f, 0xcd, 0xbb, 0x24, 0x7d, 0xf3, 0x3f,
  0x81, 0x6b, 0xec, 0x3c, 0x5e, 0x31, 0x55, 0x3e, 0x0a, 0x04, 0x04, 0x3f,
  0xc4, 0xf0, 0x3b, 0x3e, 0x1f, 0x16, 0x1d, 0x3e, 0x1a, 0xdf, 0xef, 0x3f,
  0x50, 0x34, 0x62, 0x3e, 0x7b, 0xde, 0xcb, 0xbf, 0x47, 0x30, 0xa1, 0x3e,
  0xec, 0x12, 0xe2, 0x3f, 0xc3, 0x1d, 0x67, 0x3f, 0xa1, 0xe0, 0x7d, 0xbe,
  0x01, 0xb0, 0xb8, 0x3e, 0x1d, 0x66, 0x95, 0x3d, 0x28, 0x5b, 0x5c, 0xbd,
  0x89, 0xf1, 0x06, 0xbd, 0x50, 0x46, 0x98, 0x3c, 0x20, 0x32, 0xdf, 0x3c,
  0xa9, 0x44, 0x95, 0x3f, 0xbb, 0x86, 0x9f, 0x3d, 0x47, 0xbf, 0x64, 0x3f,
  0xeb, 0x21, 0x8b, 0xbe, 0xd3, 0xa5, 0x97, 0x3d, 0x34, 0x21, 0x9d, 0xbe,
  0xfc, 0xc0, 0x69, 0xbd, 0x6d, 0x71, 0x4b, 0xbd, 0xb4, 0xa4, 0x9e, 0x3e,
  0x41, 0xe5, 0x0c, 0xbf, 0x23, 0x20, 0x3a, 0x3f, 0xe6, 0xaa, 0xfd, 0x3c,
  0x95, 0x51, 0x50, 0xbe, 0x80, 0x0c, 0xd2, 0xbe, 0x60, 0x78, 0x86, 0x3f,
  0xa1, 0x4d, 0xe5, 0xbd, 0xca, 0xa2, 0x7d, 0x3f, 0xe7, 0x4c, 0x8c, 0xbe,
  0x26, 0x62, 0xdd, 0x3e, 0x83, 0x2a, 0x4c, 0xbf, 0x39, 0x0d, 0xe5, 0xbe,
  0xdb, 0x45, 0x67, 0xbf, 0x64, 0x43, 0xb1, 0xbe, 0x90, 0xf9, 0x51, 0xbf,
  0x34, 0x0c, 0xe1, 0xbe, 0x35, 0x82, 0x67, 0xbf, 0xcc, 0x02, 0x45, 0x3f,
  0x36, 0x6a, 0xd5, 0xbd, 0xfd, 0x70, 0x20, 0xbe, 0x08, 0x7a, 0x3c, 0xbd,
  0x11, 0xaf, 0x75, 0xbf, 0x3d, 0x2c, 0xd4, 0x3d, 0xbc, 0x81, 0x2b, 0x3f,
  0x63, 0xaf, 0x9b, 0x3c, 0xfd, 0x11, 0x01, 0x3f, 0x9b, 0xe6, 0xf0, 0x3e,
  0x6d, 0x46, 0x92, 0x3c, 0x5f, 0xce, 0x2d, 0x3f, 0x8c, 0x34, 0xb9, 0x3d,
  0xec, 0x8e, 0x58, 0x3e, 0xb5, 0x26, 0xfc, 0xbe, 0x59, 0x44, 0xf9, 0xbe,
  0x4f, 0x3a, 0xdf, 0x3e, 0x59, 0x08, 0x96, 0x3e, 0xbc, 0x3f, 0xe0, 0x3d,
  0x90, 0x6c, 0x1f, 0xbe, 0xcd, 0x80, 0x7c, 0x3e, 0x40, 0x67, 0xa9, 0xbb,
  0x54, 0xe5, 0x30, 0x3f, 0xc1, 0x5e, 0x6f, 0xbd, 0x57, 0xfb, 0x07, 0x3f,
  0x61, 0xa7, 0x3b, 0x3d, 0x76, 0xcb, 0xcd, 0x3d, 0xda, 0xc2, 0x04, 0x3e,
  0x17, 0x4e, 0x49, 0x3e, 0xf8, 0x7a, 0x3f, 0xbe, 0xe9, 0x9d, 0x49, 0x3f,
  0xf4, 0x73, 0x17, 0x3f, 0x75, 0x3a, 0xc8, 0x3f, 0xa2, 0x8e, 0x21, 0xbe,
  0xee, 0x82, 0x80, 0xbd, 0x20, 0x3f, 0x04, 0xbf, 0x32, 0x5b, 0x2a, 0xbe,
  0xc0, 0xe6, 0x41, 0xbc, 0xce, 0x56, 0x8d, 0xbe, 0x8d, 0x87, 0x03, 0xbe,
  0xe5, 0xf7, 0x6a, 0x3e, 0x19, 0x3c, 0xab, 0xbf, 0xb8, 0x39, 0x67, 0xbf,
  0xc9, 0x56, 0x19, 0xbf, 0x13, 0x87, 0x54, 0xbf, 0xac, 0x31, 0xb6, 0xbf,
  0xda, 0x1c, 0x57, 0x3e, 0x12, 0x5c, 0x8e, 0x3f, 0x42, 0x73, 0x39, 0xbd,
  0x04, 0x82, 0x81, 0xbe, 0xfe, 0xbe, 0x2a, 0xbe, 0x72, 0x02, 0xcf, 0xbe,
  0x45, 0x05, 0xa3, 0xbe, 0xc5, 0xfe, 0x3d, 0xbe, 0x79, 0xd5, 0x14, 0x3e,
  0x6d, 0xd7, 0x6a, 0xbe, 0x8e, 0xe0, 0xb2, 0xbe, 0x2f, 0xcf, 0xfe, 0xbe,
  0x7c, 0x12, 0x3c, 0xbf, 0xb1, 0x2b, 0x80, 0xbf, 0x7b, 0x2a, 0x99, 0x3e,
  0x50, 0xf3, 0x8f, 0x3e, 0x52, 0xc0, 0x6d, 0xbd, 0x89, 0x76, 0x1b, 0x3e,
  0x5c, 0xe0, 0x12, 0xbe, 0x0a, 0xe8, 0x75, 0x3e, 0x61, 0x94, 0x15, 0xbe,
  0x85, 0x74, 0xb9, 0x3d, 0x91, 0x9c, 0xa6, 0x3d, 0xd6, 0x16, 0x1e, 0x3e,
  0xda, 0x4f, 0x2b, 0xbf, 0xe7, 0x4f, 0xeb, 0x3d, 0x0d, 0xee, 0x52, 0xbe,
  0xcc, 0xe0, 0xbf, 0xbf, 0xac, 0xc8, 0xbf, 0x3d, 0xcb, 0xaa, 0x13, 0x3f,
  0x6d, 0xd9, 0x70, 0xbf, 0x6c, 0x0d, 0x9e, 0xbf, 0x1d, 0x32, 0x81, 0x3e,
  0x2d, 0x86, 0x96, 0x3f, 0x86, 0x69, 0x96, 0x3e, 0xf0, 0x4b, 0x31, 0xbd,
  0xc1, 0x02, 0x40, 0x3e, 0xbc, 0x66, 0xd8, 0x3e, 0x0e, 0x7d, 0x8d, 0xbe,
  0x43, 0x08, 0x29, 0xbe, 0x85, 0x8f, 0x8a, 0x3e, 0x36, 0xe5, 0x12, 0xbd,
  0x9a, 0xe5, 0x6e, 0x3f, 0x6d, 0xb9, 0xb1, 0x3e, 0xa7, 0x75, 0xa0, 0x3e,
  0x09, 0x1e, 0x78, 0x3f, 0x01, 0x1e, 0x98, 0x3e, 0xd9, 0x56, 0xad, 0x3e,
  0xeb, 0x16, 0xf5, 0x3c, 0x38, 0xe2, 0xac, 0x3d, 0xe3, 0xe7, 0x09, 0xbf,
  0x48, 0x3d, 0xad, 0x3d, 0x8e, 0x0e, 0xc5, 0xbc, 0xf3, 0x56, 0xe9, 0x3e,
  0xf1, 0x29, 0x41, 0xbf, 0x28, 0x20, 0xc4, 0x3b, 0x03, 0x6c, 0x35, 0xbf,
  0xb1, 0x7f, 0x12, 0x3e, 0xd3, 0x92, 0x32, 0x3c, 0x00, 0xb6, 0xec, 0x3e,
  0x6d, 0xe4, 0xcc, 0x3e, 0xa9, 0x34, 0xac, 0xbe, 0x12, 0x2b, 0x22, 0xbe,
  0x74, 0x7f, 0xc4, 0x3e, 0x93, 0x57, 0x8e, 0x3e, 0x09, 0xf0, 0x80, 0xbf,
  0x36, 0xd2, 0x1d, 0xbe, 0xf4, 0x95, 0x52, 0x3e, 0xa2, 0x8e, 0x2a, 0xbe,
  0x77, 0xf5, 0xeb, 0x3d, 0x32, 0xca, 0xe4, 0xbd, 0xa0, 0x67, 0xa7, 0x3c,
  0x1f, 0x43, 0x1c, 0xbf, 0x1c, 0xc0, 0xe0, 0x3d, 0xe1, 0xfa, 0x12, 0xbf,
  0xc8, 0xeb, 0xd6, 0x3e, 0x02, 0xb9, 0x80, 0xbe, 0x94, 0x00, 0x4f, 0xbc,
  0x47, 0xd5, 0x52, 0x3e, 0x4b, 0x82, 0x2b, 0x3e, 0xd8, 0x21, 0x63, 0xbf,
  0xab, 0x2f, 0xed, 0xbf, 0x7f, 0x77, 0x09, 0xbf, 0x6b, 0x96, 0x85, 0x3d,
  0x7e, 0x8e, 0x38, 0x3e, 0x28, 0xc7, 0x91, 0xbe, 0xe6, 0xd4, 0x81, 0x3f,
  0xf4, 0xbb, 0x2e, 0xbe, 0xe9, 0x83, 0xc4, 0xbe, 0x8e, 0x50, 0x7a, 0xbe,
  0xd4, 0xb2, 0x94, 0xbf, 0x5c, 0xf6, 0x2a, 0x3d, 0xcb, 0xd7, 0xbb, 0xbf,
  0x73, 0x5b, 0xa6, 0xbf, 0xfe, 0x09, 0x1c, 0xbf, 0xdf, 0x20, 0x02, 0xbf,
  0xce, 0x40, 0xed, 0xbf, 0xbb, 0x61, 0x8b, 0xbf, 0xcf, 0x7b, 0xaa, 0x3f,
  0x32, 0x96, 0x40, 0x3c, 0xd9, 0xe8, 0xc8, 0x3d, 0x48, 0xe0, 0x83, 0xbf,
  0xc2, 0xa0, 0xf0, 0xbe, 0xb0, 0xda, 0xfe, 0x3c, 0xf9, 0xaa, 0xe7, 0xbf,
  0xec, 0xc8, 0x53, 0x3e, 0xcb, 0xc5, 0x46, 0xc0, 0xd1, 0xf6, 0xfd, 0xbf,
  0xdd, 0xd1, 0xf0, 0xbf, 0xb7, 0xf8, 0xaf, 0xbf, 0x8a, 0x17, 0x1b, 0xc0,
  0x72, 0x67, 0xdd, 0xbf, 0x96, 0x31, 0x6d, 0xbe, 0x15, 0xab, 0x52, 0x3f,
  0xc7, 0x71, 0x40, 0xbf, 0x1a, 0x02, 0xa1, 0x3d, 0xad, 0x44, 0x2b, 0xbe,
  0x54, 0x99, 0x21, 0x3f, 0xbe, 0xf1, 0x92, 0x3f, 0xbc, 0xfb, 0xc2, 0x3d,
  0x82, 0x7b, 0x5f, 0xbf, 0x46, 0x1d, 0x3d, 0xbb, 0x2a, 0x6d, 0x5a, 0x3f,
  0x99, 0x74, 0x63, 0xbe, 0x54, 0x8b, 0xce, 0x3e, 0x73, 0xe8, 0x2e, 0x3f,
  0xbd, 0x0c, 0xa6, 0x3d, 0x0d, 0xca, 0x18, 0x3e, 0x41, 0x06, 0x64, 0x3e,
  0xc1, 0xd7, 0x72, 0x3f, 0xb3, 0xc1, 0x3c, 0x3f, 0x91, 0x3e, 0x0d, 0xbe,
  0xef, 0x57, 0x56, 0x3e, 0x78, 0x1d, 0x48, 0x3e, 0x2a, 0xf2, 0xb5, 0x3d,
  0x1a, 0xbb, 0x0c, 0x3e, 0xef, 0x64, 0x50, 0xbf, 0x4d, 0x9b, 0x60, 0x3e,
  0xf8, 0x1c, 0xfa, 0x3e, 0x26, 0x3b, 0x86, 0xbf, 0xe8, 0xab, 0xbc, 0x3e,
  0xbf, 0x3a, 0x43, 0x3f, 0x40, 0x8b, 0xa9, 0xbf, 0x97, 0xe1, 0x51, 0xbf,
  0x8a, 0x54, 0x85, 0x3e, 0xde, 0x1c, 0xad, 0xbe, 0xaa, 0xf2, 0xce, 0x3c,
  0xc8, 0x75, 0xc4, 0xbd, 0xaf, 0xc8, 0xc5, 0x3b, 0x19, 0x17, 0x01, 0x3e,
  0xe1, 0x07, 0x65, 0xbf, 0x24, 0x96, 0x1c, 0xbd, 0xcb, 0x5f, 0x1c, 0x3e,
  0x48, 0x72, 0x39, 0xbd, 0x7c, 0xe6, 0x14, 0x3f, 0xff, 0x10, 0xf3, 0x3e,
  0xa7, 0x2a, 0x66, 0x3d, 0x21, 0x17, 0x30, 0x3f, 0x2d, 0xbb, 0x56, 0x3e,
  0xa0, 0xf9, 0x95, 0x3e, 0x02, 0x19, 0x0c, 0x3f, 0x66, 0x66, 0x30, 0x3e,
  0xb6, 0x7f, 0x44, 0xbc, 0xe6, 0x74, 0x9e, 0x3c, 0x7b, 0x9a, 0x12, 0x3e,
  0xa9, 0xa3, 0x19, 0xbe, 0x9a, 0xbf, 0x8f, 0xbf, 0xf4, 0xab, 0x12, 0xbe,
  0x1f, 0x32, 0x31, 0xbf, 0x88, 0xae, 0x28, 0xbe, 0x44, 0x19, 0x2b, 0x3d,
  0x72, 0x45, 0x73, 0xbe, 0x27, 0xbc, 0x1d, 0x3c, 0xd8, 0xbd, 0x03, 0x3f,
  0x7b, 0x9f, 0x16, 0xbd, 0x54, 0xd7, 0xfa, 0xbd, 0xac, 0x25, 0xc6, 0x3c,
  0xfb, 0x70, 0x88, 0xbf, 0xaf, 0xf7, 0x19, 0xbf, 0x8f, 0x70, 0xdf, 0xbd,
  0xb0, 0x20, 0xb6, 0xbd, 0x78, 0x1a, 0xd7, 0xbe, 0x5d, 0x20, 0x12, 0xbf,
  0x83, 0x8d, 0x63, 0xbe, 0x6a, 0x16, 0x28, 0xbf, 0x2c, 0x09, 0x18, 0x3e,
  0xe7, 0xf9, 0xc7, 0xbf, 0x1f, 0x6e, 0xec, 0x3e, 0x75, 0xec, 0xd5, 0xbe,
  0x14, 0x0d, 0x8f, 0xbf, 0x93, 0xb7, 0xf9, 0x3b, 0x7e, 0x4e, 0xe3, 0x3c,
  0x3a, 0xb6, 0x84, 0xbf, 0x4e, 0xf9, 0xef, 0xbf, 0xe9, 0x18, 0x1f, 0x3e,
  0xe9, 0x20, 0x50, 0xbe, 0x52, 0x44, 0x16, 0x3e, 0x7d, 0x10, 0xa1, 0xbb,
  0xab, 0xda, 0x4d, 0xbd, 0x9c, 0xc8, 0x54, 0xbe, 0x75, 0xb0, 0x56, 0xbf,
  0xb5, 0x51, 0x3f, 0xbe, 0xb8, 0xd3, 0xa3, 0xbf, 0x26, 0xaa, 0xd2, 0xbe,
  0x67, 0x4d, 0xa7, 0x3c, 0x71, 0x8e, 0xe6, 0x3e, 0xd1, 0xf7, 0x1e, 0xbf,
  0x3f, 0x6d, 0x31, 0xbf, 0xdf, 0x61, 0xf2, 0x3e, 0x16, 0xd2, 0x43, 0x3f,
  0x6c, 0xb9, 0xac, 0x3e, 0x4f, 0x55, 0x25, 0x3e, 0x3c, 0x5f, 0x12, 0x3d,
  0x52, 0xf4, 0x17, 0xbf, 0x3c, 0xe2, 0xe0, 0xbd, 0xc8, 0xd6, 0x2d, 0xbd,
  0xa4, 0x44, 0xdb, 0x3e, 0x54, 0x29, 0x13, 0x3c, 0xc9, 0x71, 0x70, 0x3e,
  0x37, 0x7c, 0x36, 0xbf, 0x3d, 0x67, 0x8a, 0xbe, 0x4b, 0xa3, 0x6c, 0x3d,
  0x56, 0xc5, 0xde, 0xbe, 0xf1, 0xf6, 0x03, 0xbf, 0x80, 0xdd, 0xc7, 0xbe,
  0x3e, 0x00, 0xd2, 0xbe, 0x06, 0x29, 0xa4, 0xbe, 0x73, 0x48, 0x26, 0xbe,
  0x79, 0xa5, 0x2b, 0x3e, 0xd6, 0x8b, 0x5d, 0xbf, 0x52, 0x30, 0xbf, 0x3e,
  0xf4, 0x01, 0x1d, 0xbd, 0x30, 0x58, 0xbd, 0xbd, 0x68, 0xe3, 0x75, 0x3e,
  0xac, 0xd1, 0x85, 0xbe, 0x2c, 0x4c, 0x23, 0xbf, 0x25, 0xc4, 0x24, 0xbf,
  0x26, 0x54, 0x0a, 0x3f, 0x8f, 0x91, 0x69, 0xbf, 0xb1, 0x2e, 0xe9, 0xbe,
  0x6e, 0xb8, 0xed, 0xbe, 0x17, 0x9b, 0x87, 0xbe, 0xdb, 0xcf, 0x99, 0x3e,
  0xed, 0xdc, 0x49, 0x3e, 0xfd, 0xba, 0x45, 0x3e, 0x3a, 0x12, 0x7b, 0xbe,
  0x40, 0x76, 0x71, 0x3e, 0x09, 0x37, 0xe2, 0xbd, 0x7c, 0x22, 0x3e, 0xbf,
  0xd7, 0x95, 0x01, 0xbe, 0xb1, 0x0e, 0x0b, 0xbf, 0x77, 0x55, 0x9b, 0xbf,
  0x8c, 0x69, 0xcf, 0xbe, 0xd5, 0x2c, 0x8d, 0x3d, 0x92, 0xfb, 0x88, 0xbf,
  0x0a, 0x1e, 0x69, 0xbf, 0x4a, 0xe6, 0xe4, 0x3e, 0xc2, 0x5e, 0xad, 0x3e,
  0x6a, 0x79, 0xa9, 0x3e, 0x2e, 0xe2, 0x25, 0xbe, 0xa9, 0x23, 0x2a, 0xbd,
  0x0a, 0x34, 0x7c, 0x3f, 0x9d, 0x95, 0x6a, 0xbf, 0x72, 0x88, 0x37, 0x3e,
  0x39, 0xd2, 0x5b, 0xbf, 0x09, 0xfb, 0x1a, 0x3d, 0x0b, 0x92, 0xbd, 0xbd,
  0x65, 0x65, 0x78, 0x3e, 0x16, 0xb7, 0xc2, 0x3e, 0x32, 0x03, 0x73, 0x3f,
  0x9a, 0xbf, 0x66, 0xbe, 0x76, 0xc6, 0x89, 0x3e, 0x5c, 0x44, 0x1b, 0x3f,
  0x4f, 0x0d, 0xb9, 0x3d, 0x70, 0x83, 0x1d, 0xbf, 0x11, 0x90, 0xcb, 0xbd,
  0x34, 0x90, 0xfa, 0xbd, 0x80, 0xea, 0xfe, 0x3e, 0x47, 0x5b, 0x22, 0xbf,
  0xde, 0x83, 0x64, 0x3e, 0x24, 0xcb, 0xf2, 0x3e, 0x2f, 0xfa, 0x14, 0x3e,
  0xfe, 0xcf, 0xfe, 0x3e, 0x9b, 0xd0, 0xae, 0x3d, 0x7b, 0xc7, 0x90, 0x3e,
  0x14, 0x5f, 0xae, 0x3f, 0xbc, 0xef, 0x2f, 0x3e, 0x17, 0x26, 0x4e, 0x3e,
  0x1b, 0x27, 0x1a, 0x3f, 0x1c, 0x53, 0x65, 0xbb, 0x75, 0xdf, 0x68, 0x3e,
  0x81, 0x08, 0x80, 0x3d, 0x6e, 0x71, 0x68, 0x3e, 0xb2, 0x0d, 0xe4, 0x3e,
  0x6f, 0x25, 0x01, 0x3f, 0x90, 0xec, 0xf3, 0x3d, 0x28, 0xb2, 0x59, 0xbf,
  0xa6, 0xb7, 0x6d, 0x3e, 0x97, 0x13, 0xa6, 0xbf, 0x93, 0xd0, 0x27, 0xbf,
  0x11, 0x95, 0x26, 0x3a, 0xc9, 0xfb, 0x2e, 0x3e, 0xb7, 0xd7, 0xf9, 0xbe,
  0x73, 0xd2, 0xd7, 0xbe, 0x16, 0x0b, 0x52, 0x3f, 0xe5, 0xb8, 0x9e, 0x3f,
  0x8c, 0x78, 0x09, 0x3f, 0x81, 0xc4, 0x45, 0xbb, 0x1a, 0xe6, 0xfb, 0xbd,
  0x4d, 0xb4, 0xb2, 0xbf, 0x7d, 0xf3, 0xc5, 0xbe, 0x34, 0xf1, 0xf0, 0xbd,
  0x2a, 0x10, 0x14, 0x3f, 0xec, 0x79, 0x19, 0x3e, 0x46, 0x97, 0x43, 0xbf,
  0x45, 0x25, 0x0e, 0xbf, 0xea, 0x22, 0x9a, 0xbf, 0xd4, 0x29, 0x2e, 0xbf,
  0x48, 0x18, 0x27, 0xbf, 0x8b, 0x6c, 0x38, 0xbf, 0xe6, 0x47, 0x7f, 0xbf,
  0x64, 0xa6, 0x12, 0xbf, 0x74, 0x8b, 0xdf, 0xbd, 0x45, 0xa8, 0x16, 0x3e,
  0xf0, 0x4a, 0x2b, 0xbd, 0x89, 0xd6, 0x90, 0xbf, 0xc4, 0xc9, 0x9b, 0x3f,
  0xa0, 0x9d, 0x1d, 0xbe, 0x74, 0xca, 0xf1, 0x3e, 0x7d, 0x58, 0xb9, 0xbd,
  0xcc, 0xa2, 0x95, 0x3e, 0x90, 0x71, 0xaa, 0xbf, 0xad, 0x67, 0x51, 0xbf,
  0x3b, 0x96, 0x35, 0x3f, 0x72, 0xe9, 0x91, 0xbf, 0x6c, 0x0a, 0xb1, 0xbf,
  0x94, 0x78, 0x93, 0xbe, 0x6b, 0x97, 0x59, 0x3d, 0x71, 0x51, 0x5e, 0x3f,
  0xdf, 0x24, 0x9b, 0x3d, 0xe1, 0x34, 0x0c, 0x3c, 0xc2, 0x7d, 0x95, 0x3e,
  0x38, 0xc9, 0x8c, 0x3e, 0xe1, 0xa4, 0x53, 0x3e, 0x48, 0x89, 0x14, 0xbf,
  0x78, 0xec, 0x26, 0xbe, 0xe3, 0x06, 0x38, 0x3e, 0xc6, 0x7c, 0x00, 0x3e,
  0x0b, 0x64, 0xc0, 0x3e, 0xf4, 0xff, 0x75, 0x3e, 0x39, 0x26, 0xe0, 0xbd,
  0xbf, 0xe7, 0x81, 0x3e, 0x53, 0x52, 0x08, 0x3f, 0x69, 0x0d, 0xf2, 0x3e,
  0xd6, 0x80, 0x98, 0xbc, 0x1d, 0x88, 0x6b, 0xbe, 0x8e, 0x69, 0x3f, 0x3e,
  0x0c, 0xcc, 0x70, 0x3f, 0xf4, 0x0d, 0x41, 0xbf, 0x70, 0xb1, 0x26, 0x3e,
  0x8a, 0x37, 0x26, 0xbe, 0xf2, 0x78, 0xb9, 0x3d, 0xb8, 0x53, 0xd7, 0xbd,
  0x77, 0x2f, 0x6a, 0x3e, 0x08, 0x4b, 0xf6, 0x3e, 0x1e, 0x41, 0x16, 0x3f,
  0xa3, 0xe5, 0x0e, 0xbe, 0x4d, 0x84, 0x99, 0x3d, 0x73, 0x0d, 0xd2, 0x3e,
  0xf0, 0x83, 0xa0, 0xbe, 0xd8, 0x14, 0x19, 0xbf, 0x13, 0x2e, 0xbd, 0x3d,
  0x6e, 0x58, 0xb8, 0x3d, 0xb2, 0x6d, 0x14, 0x3f, 0x86, 0x2a, 0x4c, 0xbf,
  0x67, 0x18, 0x17, 0xbe, 0xdf, 0xb5, 0xad, 0xbe, 0x89, 0xeb, 0x20, 0xbe,
  0x43, 0x61, 0x6b, 0xbc, 0x83, 0xf2, 0x05, 0x3f, 0xbe, 0x2a, 0x5d, 0x3c,
  0xc9, 0x08, 0xb1, 0x3d, 0x9c, 0xd1, 0xd7, 0x3e, 0xc0, 0xc3, 0x42, 0x3f,
  0x56, 0xbb, 0x04, 0xbf, 0x20, 0x67, 0x79, 0xbf, 0x95, 0x19, 0x03, 0x3d,
  0x3b, 0xf3, 0x47, 0xbe, 0x9e, 0x95, 0x5b, 0x3e, 0xd9, 0x8b, 0xb2, 0xbe,
  0x2f, 0xe1, 0xe2, 0xbe, 0x9e, 0x06, 0x0a, 0x3e, 0xd8, 0x97, 0x8d, 0xbf,
  0xc9, 0x9e, 0xed, 0x3d, 0x57, 0x10, 0xbe, 0xbf, 0xf5, 0x20, 0xdf, 0xbd,
  0x17, 0x05, 0x2e, 0xbe, 0x9a, 0xec, 0x72, 0x3f, 0x4e, 0x06, 0x36, 0xbf,
  0xdd, 0xec, 0xa4, 0xbe, 0x6c, 0x07, 0x0d, 0x3f, 0xdb, 0x59, 0x66, 0x3e,
  0xdb, 0xa5, 0x90, 0x3e, 0x25, 0x61, 0xbe, 0xbd, 0x4f, 0x9b, 0xb9, 0xbd,
  0x32, 0x3f, 0x97, 0xbf, 0x65, 0x16, 0xe3, 0xbc, 0xcc, 0x11, 0x09, 0x3e,
  0xc3, 0x5d, 0xb1, 0x3e, 0x23, 0x9d, 0x53, 0x3e, 0x5f, 0xf2, 0xac, 0xbd,
  0x65, 0x36, 0x87, 0xbe, 0x26, 0x22, 0x4c, 0xbf, 0xa5, 0xac, 0x03, 0xbf,
  0x91, 0xd7, 0x6e, 0xbe, 0xb2, 0xe6, 0xbf, 0xbe, 0x4b, 0x7d, 0x8c, 0xbf,
  0x52, 0xf0, 0xd5, 0xbe, 0xab, 0xce, 0x53, 0xbe, 0xe3, 0x0f, 0x11, 0xbe,
  0x18, 0x29, 0xd2, 0x3d, 0x93, 0xaf, 0x36, 0xbf, 0x17, 0x9a, 0xc2, 0xbe,
  0x4e, 0x7a, 0xc1, 0xbd, 0xf0, 0x16, 0x90, 0xbe, 0xf4, 0x74, 0x2f, 0x3d,
  0x9d, 0x6e, 0xe5, 0xbe, 0x31, 0x27, 0xb8, 0xbe, 0x76, 0xbf, 0x17, 0xbf,
  0x71, 0x86, 0x32, 0x3f, 0x6e, 0x77, 0xb5, 0x3d, 0xbf, 0x1a, 0x43, 0xbd,
  0xed, 0xec, 0x27, 0xbf, 0x85, 0x6a, 0x57, 0xbe, 0x86, 0x5d, 0xbd, 0x3c,
  0x4f, 0x7a, 0xc6, 0x3d, 0x15, 0xa8, 0x50, 0x3d, 0xc7, 0x9d, 0xf9, 0xbe,
  0x13, 0x80, 0x28, 0x3f, 0xa0, 0x37, 0x82, 0x3d, 0xa8, 0x75, 0xe1, 0xbe,
  0x45, 0x3a, 0x9f, 0xbd, 0xa9, 0x0a, 0x26, 0xbf, 0xc3, 0xe0, 0x9f, 0xbf,
  0xc3, 0x2f, 0x57, 0xbf, 0xdb, 0x5c, 0x5c, 0x3c, 0xe9, 0x4b, 0x4a, 0xbf,
  0x45, 0xe4, 0x83, 0xbf, 0xaf, 0x0f, 0x59, 0x3d, 0x4b, 0xa9, 0xcc, 0x3e,
  0x02, 0x2b, 0xe4, 0xbe, 0x7a, 0x1f, 0x61, 0xbe, 0xb4, 0x8e, 0x28, 0xbe,
  0x43, 0x59, 0x76, 0x3f, 0x2f, 0x4f, 0x9d, 0x3c, 0x50, 0xf9, 0x14, 0x3c,
  0x51, 0x39, 0x30, 0xbf, 0xff, 0x0a, 0xe9, 0x3d, 0x24, 0x42, 0x69, 0xbe,
  0xe7, 0x2a, 0x5a, 0xbd, 0xf9, 0xf3, 0x1f, 0x3f, 0x7e, 0xbf, 0x70, 0x3f,
  0xb6, 0x4e, 0x45, 0xbf, 0xf3, 0x20, 0x08, 0xbd, 0xcc, 0xca, 0x56, 0x3f,
  0x0f, 0x69, 0xa5, 0x3e, 0xbb, 0x49, 0x4f, 0xbf, 0xa8, 0x04, 0x6c, 0xbe,
  0xcc, 0xf7, 0x51, 0xbd, 0x08, 0x75, 0x48, 0x3f, 0x4e, 0x36, 0xd5, 0xbe,
  0xb6, 0x78, 0x89, 0xbd, 0x4d, 0xfb, 0xf5, 0x3e, 0xf9, 0x72, 0xd0, 0x3c,
  0x10, 0x81, 0x5f, 0x3f, 0x73, 0x7f, 0xbe, 0x3e, 0xe8, 0x39, 0xb8, 0x3e,
  0x73, 0x83, 0x99, 0x3f, 0x8e, 0x64, 0x04, 0x3e, 0x6e, 0x15, 0x40, 0x3d,
  0x76, 0x8c, 0x4b, 0x3f, 0x33, 0x5d, 0xc7, 0x3e, 0x0c, 0x56, 0x3a, 0x3e,
  0xc8, 0x43, 0xdf, 0xbd, 0x34, 0xc9, 0x61, 0x3e, 0xde, 0xd1, 0xf2, 0xbd,
  0x17, 0x75, 0xe8, 0x3d, 0xe0, 0xec, 0x0b, 0x3c, 0xab, 0xa7, 0xda, 0xbc,
  0x74, 0x09, 0x4c, 0xbe, 0x0e, 0xeb, 0x5a, 0xbe, 0x0e, 0xca, 0xb3, 0xbd,
  0x67, 0x78, 0xa4, 0xbd, 0x8e, 0xac, 0x11, 0xbe, 0x8c, 0x4e, 0xeb, 0xbc,
  0x61, 0xb4, 0xe0, 0xbd, 0xe7, 0x65, 0x0d, 0x3e, 0x60, 0xf9, 0x3a, 0xbe,
  0xb1, 0x30, 0x9b, 0xbe, 0xa4, 0xb4, 0x8a, 0x3c, 0xda, 0xa0, 0x29, 0x3e,
  0xf1, 0x12, 0x52, 0xbc, 0xa6, 0x3a, 0x1a, 0xbe, 0xea, 0xd2, 0xed, 0xbd,
  0x54, 0xae, 0xb1, 0xbd, 0xa0, 0x73, 0xad, 0x3c, 0x38, 0x8f, 0x15, 0x3c,
  0x96, 0x4f, 0x09, 0xbe, 0xaa, 0x61, 0x5e, 0xbe, 0xcc, 0x54, 0xdc, 0xbd,
  0x27, 0x28, 0x53, 0xbe, 0x0f, 0xa5, 0xc7, 0xbd, 0xca, 0x1a, 0x44, 0xbe,
  0x99, 0xe3, 0x12, 0xbe, 0x5e, 0xca, 0x4f, 0x3d, 0x54, 0x76, 0x04, 0x3e,
  0x52, 0xdd, 0x63, 0x3e, 0x40, 0x70, 0x1e, 0xbe, 0x2a, 0x4b, 0x13, 0xbe,
  0xb4, 0x74, 0x88, 0x3d, 0x9b, 0xf1, 0x94, 0xbd, 0xfa, 0x88, 0x00, 0xbe,
  0x60, 0xe5, 0x05, 0xbe, 0x14, 0x8f, 0xf3, 0xbd, 0x42, 0x81, 0x02, 0xbe,
  0xf3, 0x37, 0x48, 0x3e, 0xb3, 0x3d, 0x05, 0x3e, 0x44, 0x16, 0x38, 0xbe,
  0xd9, 0x90, 0x0f, 0xbe, 0xac, 0xba, 0x5f, 0xbe, 0x92, 0x97, 0x4d, 0x3d,
  0xd9, 0x07, 0x1c, 0xbe, 0x4e, 0x63, 0xff, 0xbd, 0xf3, 0x58, 0x62, 0xbe,
  0x24, 0x38, 0x00, 0xbd, 0x80, 0x1c, 0x98, 0xbb, 0xe4, 0x67, 0x7b, 0x3d,
  0x24, 0x49, 0x48, 0xbd, 0x9e, 0x2c, 0xc0, 0x3d, 0x76, 0x50, 0x10, 0xbe,
  0x65, 0x97, 0x91, 0x3d, 0x65, 0x38, 0xfb, 0x3d, 0x4e, 0x12, 0xa9, 0x3d,
  0x99, 0x9c, 0x20, 0xbe, 0x4c, 0xee, 0x77, 0xbd, 0xcc, 0xa1, 0x8f, 0xbe,
  0x33, 0x27, 0x5a, 0x3d, 0x7c, 0x67, 0x0a, 0xbd, 0x6a, 0x71, 0x52, 0xbe,
  0x50, 0xfe, 0xb0, 0x3d, 0x81, 0x42, 0xb8, 0x3d, 0x67, 0x34, 0xef, 0xbd,
  0x1a, 0x46, 0x2d, 0xbe, 0x37, 0x4c, 0xf7, 0xbd, 0x77, 0x57, 0x97, 0xbe,
  0x01, 0xcc, 0x2b, 0xbe, 0xe9, 0x9e, 0x8b, 0xbe, 0x91, 0x84, 0xa4, 0x3d,
  0xb0, 0x14, 0xe6, 0x3d, 0xb3, 0xc9, 0xd8, 0x3d, 0x2b, 0x7a, 0x81, 0xbe,
  0xff, 0xe6, 0x75, 0xbe, 0x79, 0xdc, 0x88, 0xbe, 0x30, 0xbf, 0xca, 0xbd,
  0x80, 0xa9, 0xa3, 0x3b, 0x13, 0x92, 0x4c, 0x3d, 0x6d, 0xc1, 0x46, 0xbe,
  0x37, 0x16, 0x64, 0xbe, 0x82, 0x4e, 0x11, 0xbd, 0x8a, 0xbb, 0x57, 0x3e,
  0x63, 0xa9, 0xdb, 0x3c, 0x7d, 0xf2, 0xc2, 0xbd, 0x01, 0x44, 0xec, 0xbd,
  0x17, 0x50, 0x73, 0xbc, 0x32, 0x25, 0x00, 0xbd, 0x61, 0xbb, 0x90, 0x3d,
  0x89, 0x22, 0xa7, 0x3d, 0xd2, 0x92, 0xbf, 0xbd, 0x2d, 0x52, 0xb2, 0x3c,
  0xee, 0x0e, 0x59, 0xbe, 0x20, 0xf7, 0xe8, 0xbc, 0xb9, 0x4e, 0x59, 0xbe,
  0x41, 0x07, 0x1e, 0x3d, 0xf8, 0x11, 0x1f, 0x3e, 0x24, 0xcc, 0x89, 0xbe,
  0x46, 0x88, 0x34, 0xbe, 0xb7, 0x78, 0x77, 0xbe, 0xf4, 0x33, 0x97, 0xbd,
  0x00, 0x71, 0x35, 0x3d, 0x00, 0xe0, 0x8e, 0xbd, 0x48, 0xcc, 0xb5, 0x3d,
  0x78, 0x5f, 0xe7, 0xbd, 0x3e, 0x2c, 0xf3, 0x3c, 0x66, 0x30, 0xcd, 0x3d,
  0xa3, 0x24, 0x95, 0xbe, 0x6b, 0x70, 0xf6, 0x3d, 0x0c, 0x17, 0x80, 0xbd,
  0x89, 0xd9, 0x8c, 0xbd, 0x5e, 0x71, 0x60, 0xbe, 0x28, 0xc9, 0x65, 0xbd,
  0x64, 0xa9, 0x62, 0xbe, 0xb0, 0xc3, 0xa0, 0xbd, 0xe9, 0xbb, 0x25, 0x3d,
  0x31, 0xa7, 0x21, 0xbe, 0xcd, 0xfc, 0x69, 0xbe, 0x50, 0xdf, 0xdc, 0xbc,
  0x12, 0xb1, 0x28, 0xbe, 0xaa, 0x52, 0x25, 0xbe, 0xd7, 0x72, 0x68, 0xbe,
  0x30, 0xb9, 0x3d, 0xbe, 0xc1, 0x3b, 0x50, 0x3c, 0xee, 0xf6, 0x24, 0xbe,
  0x4c, 0x90, 0xdf, 0x3d, 0xfb, 0x38, 0x0d, 0xbe, 0xbf, 0x77, 0x69, 0xbd,
  0xb4, 0x1b, 0x3f, 0xbe, 0x11, 0x7e, 0x0e, 0x3e, 0xa0, 0xa3, 0x23, 0xbe,
  0x5e, 0x03, 0x58, 0xbd, 0x32, 0xec, 0x49, 0xbd, 0x25, 0x5f, 0x4e, 0xbe,
  0x45, 0xac, 0x02, 0x3e, 0x15, 0x73, 0x1d, 0xbe, 0x62, 0xcb, 0xd2, 0xbc,
  0x91, 0xbe, 0x9f, 0xbd, 0x23, 0x79, 0x21, 0xbd, 0x01, 0x4d, 0x15, 0xbc,
  0x0e, 0x4e, 0x38, 0x3e, 0xe8, 0x03, 0x55, 0x3d, 0xaf, 0x72, 0xf9, 0xbd,
  0xe6, 0x19, 0x24, 0x3d, 0x10, 0x1d, 0xb5, 0x3c, 0x56, 0x11, 0x66, 0x3b,
  0x80, 0xaa, 0xc5, 0xbb, 0x00, 0xaf, 0x09, 0xbe, 0x69, 0x80, 0xde, 0x3d,
  0xc6, 0x63, 0xa3, 0x3b, 0xc2, 0xe3, 0x53, 0xbe, 0xeb, 0x8d, 0x92, 0x3d,
  0x53, 0x22, 0x86, 0xbe, 0x60, 0x11, 0x0b, 0x3d, 0xc0, 0x8f, 0x86, 0xbd,
  0x39, 0xb1, 0x29, 0xbe, 0xf2, 0x51, 0xf4, 0x3d, 0xc6, 0xfe, 0x6a, 0x3e,
  0xbd, 0x2b, 0x0c, 0xbd, 0x85, 0xd7, 0x3d, 0xbe, 0xf6, 0x21, 0x16, 0xbe,
  0xd2, 0x5f, 0x5a, 0xbe, 0x4c, 0xcf, 0xd5, 0xbd, 0xf3, 0x81, 0x59, 0xbe,
  0x04, 0x1d, 0xbf, 0x3d, 0x49, 0xb4, 0x90, 0x3d, 0xb0, 0x80, 0x53, 0xbe,
  0x79, 0xb6, 0x56, 0xbe, 0xbe, 0xe6, 0x1a, 0xbe, 0xee, 0x2e, 0x80, 0xbd,
  0x50, 0xf7, 0x0a, 0x3d, 0x6e, 0x49, 0x22, 0x3d, 0x56, 0xd9, 0x46, 0x3e,
  0xfa, 0xad, 0x2a, 0xbe, 0x31, 0xf2, 0x67, 0xbe, 0x17, 0x58, 0x80, 0x3c,
  0x14, 0x7e, 0x35, 0xbe, 0xa6, 0x49, 0x6d, 0xbd, 0xa0, 0x5b, 0x17, 0x3e,
  0x0d, 0x21, 0x24, 0xbe, 0xbc, 0x61, 0xde, 0xbd, 0xb2, 0x95, 0x7e, 0x3d,
  0xc5, 0xce, 0x0b, 0xbe, 0xaa, 0x5e, 0x3e, 0xbe, 0x64, 0x9b, 0xc3, 0xbd,
  0x06, 0xe9, 0x48, 0x3d, 0x63, 0xde, 0xa2, 0x3c, 0x61, 0x1d, 0xfe, 0xbd,
  0x23, 0x39, 0x58, 0xbe, 0x28, 0xa8, 0xd5, 0x3d, 0x52, 0xd4, 0x9a, 0x3f,
  0x60, 0x24, 0x4b, 0xbe, 0x13, 0xa1, 0x58, 0xbe, 0x9e, 0x45, 0x80, 0x3f,
  0x85, 0xd8, 0x0b, 0xbe, 0xea, 0x59, 0x6f, 0x3f, 0x99, 0x1a, 0xf2, 0x3f,
  0x3c, 0xf7, 0x00, 0x3f, 0x29, 0xb8, 0xae, 0xbf, 0xd5, 0x76, 0xb1, 0x3f,
  0x52, 0x71, 0x04, 0x40, 0x2f, 0x58, 0x4d, 0x3f, 0x86, 0xcd, 0x89, 0xbf,
  0xa2, 0x2c, 0x82, 0x3e, 0x29, 0xea, 0xc8, 0x3d, 0xa9, 0xb3, 0x4a, 0xbe,
  0xd9, 0x94, 0x17, 0x3d, 0xac, 0xac, 0x7e, 0xbe, 0x5a, 0x18, 0x30, 0xbe,
  0x81, 0xf2, 0x4d, 0x3f, 0x82, 0x25, 0x08, 0xbe, 0xf2, 0x4f, 0x20, 0x3e,
  0x62, 0x6f, 0xba, 0x3e, 0x9e, 0xb8, 0x4c, 0x3c, 0xac, 0xa7, 0xed, 0xbe,
  0x33, 0x12, 0xd4, 0xbd, 0xaa, 0xbc, 0x8c, 0x3d, 0x04, 0xe0, 0xe0, 0x3c,
  0xdf, 0x58, 0x22, 0xbf, 0x17, 0x65, 0x06, 0x3f, 0x06, 0xe4, 0x7e, 0x3d,
  0x21, 0xd9, 0x96, 0xbd, 0x73, 0xe8, 0x2f, 0x3f, 0xe4, 0x6e, 0x3b, 0x3f,
  0x44, 0xdc, 0xae, 0x3d, 0x2a, 0xed, 0xb3, 0x3f, 0xdf, 0x88, 0x71, 0xbe,
  0xf1, 0x9c, 0xde, 0x3e, 0xd8, 0x57, 0x61, 0xbf, 0x8a, 0x9e, 0xfe, 0x3d,
  0xba, 0x85, 0x7a, 0xbf, 0x18, 0xa8, 0x19, 0xbf, 0xc0, 0x9d, 0x7b, 0xbf,
  0x71, 0x3a, 0xf2, 0x3e, 0x9b, 0xf7, 0x9c, 0xbe, 0xc3, 0xf8, 0xaf, 0x3f,
  0x28, 0x86, 0xd7, 0x3d, 0x39, 0x22, 0x17, 0x3e, 0x73, 0xc1, 0x82, 0x3e,
  0x82, 0x6e, 0x18, 0x3d, 0xf2, 0xf5, 0xfa, 0x3c, 0xf9, 0xb5, 0x47, 0x3f,
  0x04, 0x09, 0x85, 0xbb, 0x82, 0x2d, 0x21, 0x3f, 0xab, 0xf6, 0x8b, 0xbd,
  0xd1, 0x17, 0x9c, 0x3d, 0x25, 0x73, 0x4a, 0xbe, 0x98, 0x81, 0x93, 0x3e,
  0x2c, 0x61, 0x9e, 0x3d, 0xa6, 0x61, 0xbd, 0xbd, 0x88, 0x43, 0x07, 0x3f,
  0xfe, 0xcf, 0x51, 0x3f, 0x1b, 0xd2, 0x86, 0xbb, 0xef, 0x76, 0xda, 0xbd,
  0x09, 0x9d, 0xf2, 0xbe, 0xc1, 0x12, 0x03, 0x3f, 0x9c, 0x04, 0x48, 0x3e,
  0x08, 0xd3, 0x9e, 0x3f, 0x5a, 0x57, 0xa8, 0x3c, 0xa1, 0xd8, 0x12, 0x3f,
  0x9b, 0x4e, 0x10, 0xbd, 0x31, 0x7e, 0x87, 0x3e, 0x4a, 0x6d, 0xfd, 0xbe,
  0xfd, 0xae, 0xe7, 0x3e, 0x67, 0x49, 0x7a, 0xbe, 0x9b, 0x67, 0x53, 0x3e,
  0x63, 0xd2, 0x09, 0x3f, 0x05, 0xf0, 0xcb, 0x3f, 0x78, 0x6e, 0x50, 0x3d,
  0xc5, 0x2b, 0x1c, 0x3e, 0xbe, 0xd3, 0xf9, 0xbe, 0x65, 0x42, 0xb0, 0xbe,
  0x45, 0x6e, 0xf7, 0xbd, 0x2e, 0xc2, 0x85, 0x3f, 0xab, 0xcd, 0x32, 0xbd,
  0x62, 0x2f, 0x5a, 0x3f, 0xc8, 0xa5, 0x86, 0xbf, 0x12, 0x25, 0xb2, 0xbe,
  0x14, 0x4b, 0x0f, 0xbf, 0x00, 0x5e, 0x09, 0x3f, 0x74, 0xb3, 0x69, 0xbf,
  0xc3, 0x3f, 0x0e, 0x3d, 0x72, 0x9d, 0x4a, 0x3f, 0x88, 0xec, 0x4c, 0xbe,
  0xc8, 0xf0, 0x83, 0x3c, 0xa7, 0x9a, 0xa9, 0x3d, 0x67, 0xb3, 0x50, 0x3f,
  0x41, 0x23, 0x72, 0x3c, 0xc2, 0xb5, 0x40, 0xbe, 0x6d, 0xe7, 0xb4, 0xbd,
  0xff, 0x77, 0x7b, 0xbd, 0xfd, 0x58, 0x8c, 0x3d, 0x69, 0x36, 0x6c, 0x3f,
  0x0a, 0xb9, 0x1e, 0xbe, 0xa2, 0xbb, 0xb4, 0xbf, 0x42, 0xeb, 0x95, 0xbe,
  0xc1, 0x99, 0x01, 0x3e, 0x68, 0xc2, 0x93, 0x3f, 0xac, 0x63, 0x0d, 0xbc,
  0xfb, 0x9d, 0xc1, 0x3e, 0xf7, 0x5d, 0xde, 0xbd, 0x17, 0x43, 0x92, 0xbd,
  0x14, 0x04, 0x65, 0xbd, 0x92, 0xa7, 0xef, 0xbe, 0x50, 0x3e, 0x13, 0x3c,
  0xa3, 0xc4, 0xe9, 0x3e, 0x02, 0x89, 0xf4, 0x3d, 0xad, 0xa8, 0x02, 0xbd,
  0x3e, 0x2c, 0xc2, 0xbe, 0xc2, 0x50, 0xc9, 0xbc, 0x54, 0x89, 0x12, 0x3a,
  0xb1, 0x55, 0x69, 0xbe, 0xe5, 0x66, 0x72, 0x3e, 0x02, 0x42, 0x81, 0x3d,
  0x25, 0xc2, 0x60, 0xbe, 0xf1, 0x98, 0x47, 0x3f, 0x82, 0x5b, 0xdd, 0xbd,
  0x02, 0x98, 0x07, 0x3e, 0xef, 0x82, 0xd7, 0x3e, 0x7f, 0x0e, 0x49, 0x3f,
  0x96, 0x49, 0xce, 0x3d, 0xf4, 0xf7, 0x81, 0x3f, 0x7d, 0x10, 0xa5, 0x3d,
  0xac, 0x0a, 0x31, 0x3f, 0x03, 0x55, 0xe3, 0xbe, 0xa2, 0x11, 0x67, 0x3e,
  0x97, 0x9b, 0x41, 0xbf, 0xc4, 0x9b, 0x4d, 0xbc, 0x18, 0x68, 0xfc, 0xbe,
  0xad, 0x52, 0xcf, 0x3e, 0xe4, 0x87, 0xc0, 0xbe, 0x4a, 0x63, 0xbd, 0x3f,
  0xac, 0xd6, 0x7b, 0xbe, 0x2c, 0xa7, 0x77, 0xbd, 0x5f, 0xe4, 0xb7, 0xbe,
  0xe8, 0x28, 0x53, 0x3e, 0x5c, 0x5c, 0x5d, 0xbe, 0xa4, 0x17, 0x0c, 0x3f,
  0xc3, 0x98, 0x0d, 0x3e, 0x29, 0x3c, 0x38, 0xbf, 0x2e, 0x3c, 0xb6, 0xbe,
  0x32, 0xae, 0x3d, 0xbf, 0x2c, 0x74, 0xb5, 0xbf, 0xfa, 0x35, 0xbb, 0x3d,
  0xfa, 0x44, 0xd3, 0xbe, 0xa9, 0x55, 0x7f, 0x3e, 0x0b, 0xb1, 0x81, 0x3e,
  0xfc, 0xcc, 0x22, 0x3f, 0x17, 0xe6, 0xb2, 0x3d, 0x6c, 0xce, 0xca, 0x3d,
  0xac, 0xbd, 0x09, 0xc0, 0x33, 0x82, 0xe6, 0x3e, 0x6d, 0x5e, 0x3c, 0xbe,
  0x25, 0xd1, 0x09, 0x3f, 0x3c, 0x22, 0xb4, 0x3d, 0xc0, 0xea, 0x1c, 0x3f,
  0x83, 0xea, 0x39, 0xbf, 0xdb, 0xa4, 0xe7, 0xbe, 0xfa, 0xe7, 0x17, 0xbf,
  0x55, 0x53, 0x37, 0xbc, 0x31, 0xa9, 0x25, 0xbf, 0xc5, 0x7d, 0x4c, 0xbf,
  0x75, 0x5a, 0x08, 0x3f, 0x11, 0x02, 0x0b, 0x3f, 0xbf, 0xcc, 0x12, 0x3e,
  0x2e, 0x2a, 0x26, 0xbe, 0x7f, 0x09, 0x92, 0xbf, 0x7a, 0x47, 0x19, 0xbe,
  0xd0, 0xd3, 0x65, 0x3e, 0x56, 0xcd, 0xad, 0x3f, 0x64, 0xec, 0x89, 0x3e,
  0xbe, 0x1b, 0x2e, 0x3f, 0xce, 0xe3, 0x05, 0x3f, 0x19, 0x51, 0x14, 0xbe,
  0x09, 0x2e, 0x45, 0xbf, 0xbf, 0xa3, 0x8e, 0x3f, 0xec, 0xac, 0x40, 0x3f,
  0xb5, 0x9f, 0xbe, 0xbf, 0x49, 0x3c, 0x08, 0xbf, 0xe7, 0x07, 0xb2, 0x3d,
  0x93, 0x4f, 0x12, 0xbe, 0x59, 0x0a, 0x2c, 0xbe, 0xf2, 0x85, 0xba, 0x3f,
  0x17, 0x68, 0x1c, 0xbe, 0x74, 0x37, 0xc8, 0x3d, 0x8a, 0x95, 0x83, 0x3f,
  0x9a, 0x37, 0xbf, 0x3d, 0x6b, 0xc2, 0x85, 0x3f, 0xcf, 0x18, 0xba, 0x3f,
  0x3d, 0x30, 0x41, 0x3f, 0xbe, 0xe7, 0xc3, 0xbf, 0x3b, 0x8e, 0x7e, 0x3f,
  0x5a, 0x30, 0xd1, 0x3f, 0xf6, 0xe5, 0x29, 0x3f, 0xe2, 0x92, 0xbb, 0xbf,
  0x6d, 0xa6, 0xcd, 0x3e, 0x08, 0x32, 0xda, 0x3d, 0x67, 0xe1, 0x29, 0xbe,
  0xbe, 0x9b, 0x3f, 0x3e, 0x10, 0x51, 0x10, 0xbe, 0x08, 0x0c, 0x92, 0x3d,
  0x17, 0x12, 0x7e, 0x3f, 0x97, 0xcc, 0xcf, 0x3d, 0xac, 0x4a, 0x6b, 0xbe,
  0x98, 0x6b, 0xa0, 0x3e, 0xfa, 0x10, 0x46, 0x3e, 0x20, 0x29, 0x58, 0xbf,
  0x22, 0x5e, 0x14, 0xbe, 0xc7, 0xbc, 0x34, 0x3f, 0x5f, 0x89, 0xa7, 0x3e,
  0xd2, 0xd7, 0x40, 0xbf, 0x4f, 0x44, 0x83, 0x3f, 0xc8, 0xbf, 0x1e, 0xbe,
  0x7f, 0x36, 0x49, 0xbe, 0x65, 0x1c, 0x31, 0x3f, 0x6d, 0xb7, 0x23, 0x3f,
  0xa8, 0xf1, 0x28, 0xbe, 0x04, 0xe1, 0x86, 0x3f, 0x04, 0xab, 0x42, 0xbd,
  0xa3, 0x9e, 0xbe, 0xbd, 0x97, 0x94, 0xbf, 0xbe, 0x4f, 0x97, 0xec, 0x3e,
  0x34, 0xe4, 0xab, 0xbf, 0x76, 0x85, 0xd3, 0xbe, 0x76, 0xb5, 0x93, 0xbd,
  0x85, 0x5c, 0xbe, 0x3e, 0xc4, 0x9b, 0x6a, 0xbf, 0x9c, 0x8a, 0xb4, 0x3f,
  0x01, 0xad, 0xcc, 0xbd, 0x16, 0xe6, 0x94, 0xbd, 0x07, 0xa2, 0x85, 0x3e,
  0xb7, 0x7d, 0xfd, 0x3c, 0x28, 0x03, 0xe7, 0x3c, 0xfa, 0x34, 0x7b, 0x3f,
  0xea, 0x40, 0xe0, 0xbd, 0xce, 0xc8, 0x1b, 0x3f, 0x44, 0xf3, 0x9c, 0xbd,
  0xf8, 0x9c, 0x98, 0x3d, 0x68, 0x97, 0xc0, 0xbd, 0xdb, 0xd5, 0x90, 0x3c,
  0xfe, 0x10, 0xc2, 0xbc, 0xb8, 0x19, 0x54, 0x3e, 0x01, 0x0a, 0x12, 0x3f,
  0x41, 0x58, 0xbd, 0x3f, 0x51, 0xa7, 0x72, 0x3d, 0xb0, 0x39, 0x62, 0x3d,
  0xe6, 0x8e, 0xfd, 0xbd, 0x49, 0x87, 0x0b, 0x3e, 0xdc, 0x46, 0x66, 0x3e,
  0x0f, 0xc3, 0x66, 0x3f, 0x14, 0x9b, 0xa1, 0x3d, 0x52, 0xf6, 0xc2, 0x3e,
  0x9f, 0x30, 0xc6, 0xbe, 0xc2, 0xbb, 0xef, 0xbc, 0x6e, 0x1e, 0xda, 0xbe,
  0x33, 0xb9, 0x22, 0x3e, 0x2b, 0xb0, 0x2c, 0xbd, 0x0e, 0x7c, 0x09, 0x3f,
  0x18, 0xc4, 0x86, 0x3f, 0xe2, 0x12, 0xb8, 0x3f, 0x06, 0x7c, 0x29, 0xbe,
  0x24, 0x5c, 0x4a, 0xbe, 0x05, 0x9d, 0xf6, 0xbe, 0xea, 0x9d, 0x7c, 0xbe,
  0x20, 0x26, 0x21, 0x3e, 0x3b, 0x29, 0x61, 0x3f, 0x83, 0x05, 0xf6, 0xbd,
  0x19, 0x06, 0x2c, 0x3f, 0xc3, 0x1a, 0xe2, 0xbe, 0x6f, 0xd5, 0xba, 0xbe,
  0xac, 0x2a, 0x5a, 0xbf, 0x1c, 0x90, 0x44, 0x3f, 0x4a, 0x9c, 0x5a, 0xbf,
  0x80, 0x1b, 0x07, 0xbc, 0x67, 0xe5, 0x75, 0x3f, 0x88, 0x9a, 0xa9, 0x3d,
  0x40, 0x17, 0x68, 0xbe, 0x22, 0xe5, 0xf8, 0x3c, 0x18, 0x38, 0x10, 0x3d,
  0x00, 0x34, 0x7c, 0xbe, 0x14, 0xac, 0x38, 0xbe, 0xcd, 0xfb, 0x2c, 0x3c,
  0x6c, 0x3b, 0x22, 0xbd, 0x82, 0xf7, 0x04, 0xbd, 0xc0, 0x80, 0x85, 0xbe,
  0x5c, 0x76, 0x79, 0xbe, 0xc4, 0x1f, 0x3d, 0x3e, 0x01, 0x65, 0x2b, 0xbc,
  0x6f, 0x76, 0x63, 0xbc, 0x12, 0xd2, 0x76, 0xbe, 0x25, 0xf1, 0xa0, 0xbd,
  0x15, 0xce, 0xe8, 0xbd, 0x81, 0xd0, 0x0c, 0x3d, 0x3d, 0xe3, 0x8c, 0xbd,
  0x4f, 0x28, 0xea, 0x3b, 0xdb, 0x03, 0x77, 0xbd, 0xac, 0x21, 0x26, 0x3e,
  0x0f, 0xf1, 0x95, 0x3d, 0x00, 0x9e, 0x93, 0x3a, 0x53, 0xfc, 0xba, 0xbd,
  0x0a, 0x73, 0x31, 0xbe, 0x58, 0x02, 0x2e, 0xbe, 0x65, 0xe8, 0x41, 0x3c,
  0x2c, 0x06, 0x04, 0xbe, 0x44, 0x19, 0xec, 0xbc, 0x68, 0xad, 0x71, 0x3d,
  0x5f, 0x84, 0x9d, 0xbe, 0xb6, 0x98, 0x92, 0xbe, 0x10, 0xc1, 0xa7, 0x3d,
  0xa3, 0xa2, 0x64, 0xbe, 0x10, 0xd5, 0xf4, 0xbb, 0xb4, 0x62, 0xd8, 0xbd,
  0x26, 0x2d, 0x52, 0xbe, 0x96, 0xc8, 0x20, 0xbd, 0x96, 0x4a, 0x52, 0xbe,
  0xd4, 0x2a, 0x3f, 0xbe, 0xbf, 0x45, 0x0a, 0xbe, 0x7d, 0xb5, 0xcc, 0xbd,
  0x2a, 0x77, 0x4e, 0xbe, 0x58, 0x25, 0x86, 0x3d, 0x68, 0x23, 0x9a, 0x3b,
  0xa7, 0x29, 0x69, 0x3d, 0x17, 0x7a, 0x38, 0xbe, 0x07, 0x9e, 0x07, 0xbe,
  0x1e, 0xd6, 0xf6, 0x3c, 0xd9, 0xe7, 0x5a, 0xbc, 0x79, 0x45, 0xd9, 0xbd,
  0xfd, 0xdc, 0xc8, 0xbc, 0xd8, 0x77, 0x5c, 0xbd, 0x95, 0x46, 0x28, 0xbd,
  0x1a, 0x65, 0x37, 0x3e, 0x52, 0xd2, 0x4d, 0xbe, 0xf5, 0xbe, 0xa0, 0xbe,
  0xb1, 0x6b, 0x87, 0xbe, 0x6f, 0x54, 0x20, 0x3d, 0xf3, 0x79, 0xb0, 0xbe,
  0xfe, 0x86, 0xa9, 0xbd, 0x72, 0x06, 0xdb, 0xbd, 0x6f, 0x19, 0x3a, 0xbe,
  0x4a, 0x58, 0x9d, 0xbe, 0xdb, 0x6e, 0x25, 0xbe, 0x0f, 0xd5, 0xc2, 0x3b,
  0xdc, 0x31, 0x23, 0xbd, 0x8b, 0xfe, 0x20, 0xbe, 0x68, 0x91, 0xd8, 0x3d,
  0xd7, 0xc6, 0x24, 0x3d, 0x00, 0xb1, 0xbf, 0x3c, 0x5e, 0xea, 0x2e, 0x3d,
  0xbc, 0x5f, 0x65, 0x3d, 0xb2, 0xc8, 0xcd, 0x3d, 0x99, 0x3b, 0x0c, 0xbe,
  0xd6, 0xa4, 0x66, 0xbd, 0x1b, 0x40, 0x1a, 0x3d, 0x18, 0x65, 0x2c, 0xbe,
  0x8b, 0xf0, 0x6e, 0xbe, 0x71, 0x32, 0xf1, 0x3d, 0x23, 0xb5, 0x11, 0xbe,
  0xe9, 0xfc, 0x38, 0xbe, 0x93, 0xa0, 0xae, 0x3c, 0x50, 0x73, 0x0c, 0x3d,
  0x5c, 0x95, 0x10, 0xbe, 0x08, 0xc3, 0x79, 0xbe, 0xa6, 0x6f, 0x08, 0x3e,
  0x81, 0xbe, 0xaa, 0xbe, 0xff, 0xf7, 0x51, 0x3d, 0x9b, 0x4f, 0xaa, 0xbd,
  0x6c, 0x20, 0x0e, 0xbd, 0x1b, 0x54, 0xd6, 0xbc, 0xac, 0xe1, 0xb3, 0xbd,
  0x9e, 0xb1, 0x8f, 0xbd, 0x39, 0xc5, 0x68, 0xbe, 0x37, 0x7b, 0x27, 0xbe,
  0x9c, 0xf2, 0xdc, 0x3d, 0x5e, 0x67, 0x26, 0x3e, 0xa3, 0x09, 0x8a, 0xbf,
  0xb4, 0xb3, 0x8d, 0xbe, 0x7f, 0xff, 0x2e, 0xbe, 0x82, 0xb9, 0xde, 0x3e,
  0x40, 0x90, 0xf6, 0xbd, 0xdf, 0x4c, 0x36, 0x3f, 0x8e, 0x26, 0xa7, 0x3d,
  0x30, 0x26, 0x04, 0x3f, 0x6b, 0x46, 0x6b, 0x3f, 0xbb, 0x8c, 0x3f, 0x3f,
  0xc6, 0x91, 0x34, 0x3f, 0xf6, 0x52, 0xee, 0xbf, 0x9d, 0xe9, 0x2c, 0xbe,
  0x58, 0x98, 0x0b, 0xbf, 0x1c, 0xe2, 0x20, 0xbe, 0xc0, 0x19, 0x51, 0x3c,
  0x87, 0x0b, 0x9c, 0xbe, 0x09, 0x5c, 0x55, 0xbf, 0xcf, 0xe7, 0x5b, 0xbe,
  0x47, 0xc8, 0xbd, 0xbf, 0x72, 0x56, 0x1f, 0xbe, 0xb0, 0x79, 0x44, 0xc0,
  0xca, 0xb3, 0x49, 0xbf, 0x91, 0x8b, 0xab, 0xbf, 0x94, 0xa4, 0x06, 0xbe,
  0xb3, 0x0c, 0x8c, 0xbf, 0xbb, 0x12, 0xba, 0xbf, 0x96, 0x67, 0xf3, 0xbe,
  0x53, 0xf8, 0x32, 0xbd, 0xcf, 0x41, 0x12, 0xbf, 0x74, 0x53, 0x39, 0xbd,
  0xff, 0x04, 0x69, 0xbe, 0x49, 0xac, 0xaf, 0xbd, 0x0c, 0x5e, 0xa5, 0xbe,
  0xaa, 0x16, 0x69, 0x3e, 0xbb, 0xc8, 0x27, 0xbf, 0x1c, 0x8e, 0xbb, 0xbd,
  0x68, 0xd0, 0xbe, 0xbc, 0xfd, 0x05, 0x25, 0x3f, 0xb5, 0xe0, 0x1a, 0xbe,
  0xbe, 0x8d, 0x2d, 0x3f, 0x27, 0x0d, 0x99, 0x3e, 0x55, 0x23, 0x14, 0x3f,
  0xd5, 0x8e, 0xad, 0x3e, 0x00, 0x8e, 0x34, 0x3f, 0x21, 0x00, 0x4d, 0xbf,
  0x6d, 0x46, 0x6f, 0xbe, 0x00, 0xcf, 0xda, 0x3c, 0xf6, 0xbb, 0x55, 0x3e,
  0xf7, 0x06, 0xbd, 0xbe, 0x80, 0xa6, 0xcd, 0xbd, 0x91, 0xe8, 0x9c, 0xbe,
  0xa6, 0x2f, 0x0d, 0xbe, 0xab, 0x12, 0xfe, 0x3e, 0xa7, 0x8f, 0x6a, 0xbe,
  0x29, 0x60, 0xc7, 0x3e, 0x69, 0xbe, 0x50, 0xbf, 0xd1, 0x55, 0xce, 0x3e,
  0xe1, 0x48, 0x21, 0xbe, 0x1a, 0xa1, 0x4c, 0xbd, 0x6d, 0x01, 0x58, 0xbd,
  0x89, 0xfa, 0x7a, 0xbe, 0xa6, 0x8d, 0x08, 0xbe, 0xe9, 0xc1, 0x21, 0xbe,
  0xf3, 0x4a, 0x90, 0xbf, 0xbd, 0xd2, 0x3d, 0xbe, 0x7b, 0x34, 0x3e, 0xbe,
  0x1f, 0x1a, 0x6e, 0xbe, 0x5e, 0xca, 0xd1, 0x3c, 0xfd, 0xa7, 0xb3, 0xbe,
  0xca, 0xbb, 0xaa, 0x3e, 0x28, 0xda, 0xc6, 0xbf, 0x28, 0x34, 0x1a, 0xc0,
  0x35, 0x87, 0xd8, 0x3e, 0x11, 0x27, 0x6f, 0x3e, 0x36, 0x07, 0x95, 0xbf,
  0x43, 0xb5, 0x64, 0xbf, 0xe2, 0x51, 0x41, 0x3d, 0x36, 0x44, 0xc8, 0x3d,
  0x36, 0x11, 0x25, 0x3e, 0x4e, 0xc1, 0xa5, 0xbf, 0xf8, 0x6c, 0x16, 0x3f,
  0x55, 0x70, 0x5e, 0xbe, 0x1e, 0xb6, 0x9b, 0xbf, 0x05, 0xa1, 0xfc, 0xbd,
  0x06, 0xd6, 0xe2, 0xbf, 0x78, 0x96, 0x04, 0x3f, 0x99, 0x0f, 0xf2, 0xbf,
  0x11, 0x15, 0x25, 0xbf, 0x9d, 0x9e, 0x0a, 0xc0, 0x79, 0x85, 0x34, 0xbf,
  0x5d, 0x93, 0x49, 0xbf, 0x7a, 0x8d, 0xcf, 0xbe, 0x65, 0x30, 0x56, 0x3f,
  0x4e, 0x38, 0xfa, 0x3c, 0x9c, 0x71, 0xbe, 0xbd, 0x0c, 0xeb, 0xc8, 0x3e,
  0x8e, 0xdb, 0x2b, 0x3e, 0x30, 0x07, 0x96, 0x3c, 0x45, 0xd4, 0x93, 0xbf,
  0x46, 0xfa, 0xd5, 0xbd, 0x5c, 0xd0, 0xb2, 0xbf, 0xc1, 0x25, 0x21, 0xbf,
  0x1a, 0x0e, 0xac, 0xbe, 0xfb, 0x0e, 0x33, 0xbe, 0xa4, 0xf2, 0x18, 0xbf,
  0x7e, 0x66, 0x05, 0xbf, 0x1e, 0xaa, 0x76, 0x3f, 0x60, 0x38, 0xc3, 0x3f,
  0x3b, 0x3e, 0x57, 0x3e, 0xf3, 0x63, 0x00, 0xbe, 0x42, 0xb7, 0xd3, 0x3d,
  0x8d, 0xb6, 0x1f, 0xbe, 0x14, 0x7f, 0x55, 0xbe, 0xe0, 0x57, 0x75, 0xbd,
  0xef, 0x30, 0xd7, 0xbe, 0xcd, 0xab, 0x59, 0xbe, 0x96, 0xbf, 0x57, 0xbf,
  0x99, 0xc5, 0x44, 0xbf, 0xb7, 0x69, 0x8f, 0xbd, 0x5a, 0x83, 0x5c, 0x3f,
  0x22, 0x82, 0x32, 0xbf, 0x21, 0xda, 0x32, 0xbf, 0x6f, 0x03, 0xc2, 0xbe,
  0xca, 0x4b, 0x45, 0x3e, 0xfb, 0x2c, 0x04, 0x3e, 0x96, 0xac, 0x1c, 0xbe,
  0x65, 0x3b, 0x50, 0xbe, 0xb0, 0x75, 0xb9, 0xbe, 0x85, 0xfc, 0x3b, 0x3f,
  0x34, 0x04, 0x8c, 0xbd, 0xa4, 0xdf, 0x24, 0x3e, 0x42, 0xdd, 0x5c, 0x3c,
  0xcd, 0x3e, 0x47, 0x3f, 0xa0, 0x4f, 0x46, 0xbf, 0xbf, 0xa9, 0xd9, 0xbd,
  0x58, 0x27, 0x66, 0x3f, 0xa4, 0xfb, 0xb3, 0xbf, 0x40, 0xca, 0x9b, 0xbf,
  0x01, 0x29, 0x9e, 0x3c, 0x9e, 0xd7, 0x5f, 0xbd, 0xd3, 0x77, 0x54, 0x3f,
  0x72, 0xfe, 0xc6, 0x3d, 0x03, 0xf3, 0x2d, 0xbe, 0x16, 0x11, 0xad, 0x3e,
  0x14, 0xec, 0x2d, 0xbe, 0x27, 0xa8, 0x31, 0x3e, 0x6d, 0x3f, 0xd1, 0x3e,
  0x7a, 0x1b, 0x39, 0xbe, 0xb9, 0xe5, 0xf2, 0x3e, 0x54, 0x63, 0xf3, 0x3e,
  0x47, 0x87, 0xca, 0x3e, 0x1e, 0x32, 0x13, 0x3e, 0x5a, 0x61, 0x18, 0x3e,
  0xd3, 0xa1, 0x80, 0x3e, 0x34, 0x08, 0x9a, 0x3e, 0xe8, 0x16, 0xb0, 0xbe,
  0x91, 0x28, 0x32, 0x3e, 0x1d, 0xd4, 0x5e, 0xbd, 0xc4, 0xf4, 0xcb, 0xbb,
  0xb8, 0x65, 0xb5, 0x3e, 0x93, 0x19, 0x44, 0xbf, 0x9a, 0xfc, 0x0c, 0x3e,
  0x92, 0xac, 0xc5, 0x3d, 0x7b, 0x2a, 0x03, 0xbe, 0x39, 0x24, 0xa8, 0x3c,
  0x90, 0xa8, 0x1a, 0x3e, 0xd4, 0x27, 0x12, 0x3e, 0xd0, 0xcd, 0x61, 0xbd,
  0xb8, 0x6d, 0x37, 0x3e, 0xaf, 0x1f, 0xc7, 0x3e, 0x5c, 0x94, 0xdd, 0x3d,
  0x4d, 0xe6, 0x64, 0xbf, 0x25, 0xf1, 0x85, 0xbf, 0x6c, 0xd9, 0x6a, 0xbd,
  0xba, 0xed, 0x95, 0x3d, 0x44, 0xaa, 0x4d, 0x3e, 0xbc, 0x5c, 0xcb, 0xbe,
  0x93, 0xc6, 0x00, 0xbe, 0xb8, 0xcd, 0xe3, 0xbe, 0xc8, 0x6d, 0x7d, 0x3d,
  0x36, 0xdf, 0x6b, 0xbf, 0x98, 0xd6, 0x66, 0x3f, 0xab, 0xd6, 0x93, 0xbe,
  0x3a, 0x75, 0x2f, 0xbf, 0xa2, 0x58, 0x10, 0x3f, 0xaa, 0x5a, 0x09, 0x3f,
  0x78, 0xb0, 0x9b, 0xbf, 0xaa, 0x08, 0x28, 0xc0, 0xdf, 0xfc, 0xb6, 0x3e,
  0x59, 0x06, 0x66, 0x3e, 0x9b, 0x9a, 0x27, 0xbe, 0xd0, 0x6f, 0xcb, 0xbf,
  0x18, 0xc9, 0x3b, 0xbf, 0x5c, 0xa0, 0x57, 0x3e, 0xa9, 0x03, 0x91, 0xbf,
  0xa1, 0x9b, 0x07, 0x3e, 0x7b, 0xd4, 0x0c, 0xc0, 0x29, 0x56, 0xd3, 0xbf,
  0x7e, 0xaa, 0xa0, 0xbf, 0x8f, 0x8c, 0xa0, 0xbf, 0x14, 0x4c, 0x1c, 0xc0,
  0x41, 0xf7, 0xe1, 0xbf, 0x57, 0x86, 0x2a, 0x3f, 0x81, 0x6a, 0x57, 0x3f,
  0x41, 0xf7, 0x0a, 0xbf, 0x67, 0x7e, 0x8a, 0x3e, 0xc0, 0x8c, 0xad, 0x3d,
  0xe5, 0x5f, 0x95, 0xbe, 0x87, 0x06, 0x40, 0x3f, 0x48, 0x44, 0x11, 0x3e,
  0x89, 0x9e, 0x92, 0x3e, 0x0a, 0xf3, 0x2d, 0xbe, 0x68, 0x9d, 0x22, 0x3f,
  0xb9, 0xf1, 0x8a, 0xbd, 0x65, 0xf6, 0x41, 0x3d, 0xa4, 0xaf, 0x3a, 0x3f,
  0xc4, 0x31, 0xd2, 0x3e, 0xa2, 0x55, 0x14, 0x3e, 0xef, 0x7a, 0xa5, 0xbf,
  0x9c, 0xed, 0x05, 0x3e, 0xf3, 0x51, 0x06, 0xbc, 0xec, 0x2a, 0x74, 0xbd,
  0xa0, 0x0f, 0xf6, 0xbd, 0x58, 0xb8, 0x89, 0x3e, 0xc6, 0x9e, 0x06, 0xc0,
  0xef, 0x4b, 0x08, 0xbd, 0x53, 0xd9, 0x22, 0xbe, 0x17, 0xbf, 0xf8, 0x3d,
  0xd2, 0x85, 0xb9, 0x3d, 0xf5, 0x81, 0xb3, 0x3b, 0x3c, 0xf5, 0xee, 0xbd,
  0x77, 0x66, 0x06, 0x3f, 0xba, 0xf0, 0x1d, 0x3f, 0x03, 0x83, 0xc3, 0xbc,
  0x8a, 0x1a, 0x13, 0xbf, 0x78, 0x1f, 0x01, 0xc0, 0xf8, 0xcb, 0x6c, 0xbf,
  0xe3, 0xbf, 0x93, 0xbc, 0x3b, 0x1c, 0x95, 0xbc, 0xe7, 0x75, 0x72, 0x3d,
  0x3b, 0x76, 0xf2, 0x3e, 0x63, 0x34, 0x14, 0xbe, 0x10, 0x77, 0x7d, 0xbe,
  0x1a, 0xb4, 0x03, 0xbe, 0x64, 0x2f, 0x60, 0xbf, 0x0d, 0x8d, 0x3d, 0x3e,
  0x39, 0x8d, 0x9a, 0xbf, 0x4f, 0x5f, 0x7e, 0xbf, 0xd8, 0x04, 0x71, 0x3e,
  0x0d, 0x19, 0xe1, 0x3e, 0x76, 0x13, 0xaf, 0xbf, 0xb9, 0x53, 0x2d, 0xbf,
  0xa4, 0x6a, 0x34, 0x3e, 0x21, 0x8d, 0x83, 0xbe, 0xd7, 0x0d, 0xde, 0x3d,
  0x42, 0x03, 0xe5, 0xbe, 0xd5, 0x05, 0x27, 0x3f, 0x78, 0xbd, 0x7b, 0xbd,
  0xf2, 0x78, 0x00, 0x3e, 0x43, 0x99, 0x4a, 0xbe, 0x12, 0x11, 0x55, 0xbe,
  0x86, 0x30, 0x24, 0xbf, 0xbc, 0x02, 0x75, 0xbf, 0x78, 0xbf, 0x8c, 0x3d,
  0x28, 0x79, 0x9f, 0xbe, 0x17, 0x06, 0x93, 0x3d, 0xe7, 0x48, 0x08, 0xbf,
  0xd6, 0xbe, 0x38, 0xbd, 0x95, 0x7d, 0x2e, 0xbe, 0xb2, 0x52, 0x11, 0x3e,
  0x9c, 0xe1, 0x76, 0xbc, 0xb5, 0xa2, 0xc6, 0x3e, 0xa3, 0x3b, 0x40, 0x3f,
  0xe0, 0x47, 0x01, 0xbd, 0x6c, 0xbb, 0x99, 0x3e, 0x78, 0x1f, 0x04, 0x3e,
  0x60, 0x03, 0x34, 0x3e, 0x7d, 0x87, 0x14, 0x3d, 0xce, 0x4d, 0x27, 0x3f,
  0xba, 0xb3, 0xd9, 0x3f, 0x79, 0xb4, 0x61, 0xbf, 0x31, 0x60, 0x01, 0x3e,
  0x2b, 0xa1, 0x17, 0x3f, 0x1b, 0xcf, 0x0d, 0xbe, 0xb1, 0xc3, 0x33, 0x3f,
  0x23, 0xd2, 0xb1, 0xbd, 0x8c, 0xad, 0x3f, 0x3e, 0x56, 0xfd, 0xff, 0xff,
  0x10, 0x00, 0x00, 0x00, 0x07, 0x00, 0x00, 0x00, 0x14, 0x00, 0x00, 0x00,
  0x30, 0x00, 0x00, 0x00, 0x02, 0x00, 0x00, 0x00, 0x10, 0x00, 0x00, 0x00,
  0x60, 0x00, 0x00, 0x00, 0x1b, 0x00, 0x00, 0x00, 0x73, 0x65, 0x71, 0x75,
  0x65, 0x6e, 0x74, 0x69, 0x61, 0x6c, 0x5f, 0x34, 0x2f, 0x64, 0x65, 0x6e,
  0x73, 0x65, 0x5f, 0x38, 0x2f, 0x4d, 0x61, 0x74, 0x4d, 0x75, 0x6c, 0x00,
  0xc0, 0xfc, 0xff, 0xff, 0xce, 0xfd, 0xff, 0xff, 0x04, 0x00, 0x00, 0x00,
  0x08, 0x00, 0x00, 0x00, 0xff, 0xff, 0xff, 0xff, 0x60, 0x00, 0x00, 0x00,
  0x00, 0x00, 0x0e, 0x00, 0x18, 0x00, 0x08, 0x00, 0x07, 0x00, 0x0c, 0x00,
  0x10, 0x00, 0x14, 0x00, 0x0e, 0x00, 0x00, 0x00, 0x00, 0x00, 0x00, 0x02,
  0x10, 0x00, 0x00, 0x00, 0x06, 0x00, 0x00, 0x00, 0x10, 0x00, 0x00, 0x00,
  0x30, 0x00, 0x00, 0x00, 0x01, 0x00, 0x00, 0x00, 0x02, 0x00, 0x00, 0x00,
  0x1c, 0x00, 0x00, 0x00, 0x73, 0x65, 0x71, 0x75, 0x65, 0x6e, 0x74, 0x69,
  0x61, 0x6c, 0x5f, 0x34, 0x2f, 0x66, 0x6c, 0x61, 0x74, 0x74, 0x65, 0x6e,
  0x5f, 0x34, 0x2f, 0x43, 0x6f, 0x6e, 0x73, 0x74, 0x00, 0x00, 0x00, 0x00,
  0x2c, 0xfd, 0xff, 0xff, 0x3a, 0xfe, 0xff, 0xff, 0x04, 0x00, 0x00, 0x00,
  0x08, 0x00, 0x00, 0x00, 0x35, 0x2d, 0x14, 0xbf, 0x4b, 0x2d, 0x14, 0x3f,
  0x1a, 0xfe, 0xff, 0xff, 0x10, 0x00, 0x00, 0x00, 0x05, 0x00, 0x00, 0x00,
  0x10, 0x00, 0x00, 0x00, 0x48, 0x00, 0x00, 0x00, 0x01, 0x00, 0x00, 0x00,
  0x02, 0x00, 0x00, 0x00, 0x34, 0x00, 0x00, 0x00, 0x73, 0x65, 0x71, 0x75,
  0x65, 0x6e, 0x74, 0x69, 0x61, 0x6c, 0x5f, 0x34, 0x2f, 0x64, 0x65, 0x6e,
  0x73, 0x65, 0x5f, 0x39, 0x2f, 0x42, 0x69, 0x61, 0x73, 0x41, 0x64, 0x64,
  0x2f, 0x52, 0x65, 0x61, 0x64, 0x56, 0x61, 0x72, 0x69, 0x61, 0x62, 0x6c,
  0x65, 0x4f, 0x70, 0x2f, 0x72, 0x65, 0x73, 0x6f, 0x75, 0x72, 0x63, 0x65,
  0x00, 0x00, 0x00, 0x00, 0x9c, 0xfd, 0xff, 0xff, 0xaa, 0xfe, 0xff, 0xff,
  0x04, 0x00, 0x00, 0x00, 0x40, 0x00, 0x00, 0x00, 0x06, 0x28, 0xa9, 0xbf,
  0x20, 0x6b, 0x5a, 0x3e, 0xed, 0x50, 0x76, 0xbc, 0x1d, 0xa2, 0x23, 0xbf,
  0x01, 0x01, 0x05, 0xbf, 0x82, 0x2b, 0xd1, 0xbe, 0x08, 0x02, 0x8f, 0xbe,
  0x50, 0x8e, 0x7a, 0xbd, 0x78, 0x1a, 0xd2, 0xbd, 0x2b, 0xd5, 0xb3, 0xbd,
  0x12, 0x75, 0xf9, 0xbb, 0x94, 0x24, 0xa3, 0xbe, 0xd7, 0x94, 0xd7, 0xbd,
  0x4b, 0xef, 0x18, 0x3f, 0xa8, 0x63, 0x01, 0xbf, 0xcb, 0x10, 0xe3, 0x3b,
  0xc2, 0xfe, 0xff, 0xff, 0x10, 0x00, 0x00, 0x00, 0x04, 0x00, 0x00, 0x00,
  0x10, 0x00, 0x00, 0x00, 0x48, 0x00, 0x00, 0x00, 0x01, 0x00, 0x00, 0x00,
  0x10, 0x00, 0x00, 0x00, 0x34, 0x00, 0x00, 0x00, 0x73, 0x65, 0x71, 0x75,
  0x65, 0x6e, 0x74, 0x69, 0x61, 0x6c, 0x5f, 0x34, 0x2f, 0x64, 0x65, 0x6e,
  0x73, 0x65, 0x5f, 0x38, 0x2f, 0x42, 0x69, 0x61, 0x73, 0x41, 0x64, 0x64,
  0x2f, 0x52, 0x65, 0x61, 0x64, 0x56, 0x61, 0x72, 0x69, 0x61, 0x62, 0x6c,
  0x65, 0x4f, 0x70, 0x2f, 0x72, 0x65, 0x73, 0x6f, 0x75, 0x72, 0x63, 0x65,
  0x00, 0x00, 0x00, 0x00, 0x44, 0xfe, 0xff, 0xff, 0x52, 0xff, 0xff, 0xff,
  0x04, 0x00, 0x00, 0x00, 0x40, 0x00, 0x00, 0x00, 0x2d, 0x37, 0x25, 0xbe,
  0x6a, 0xe8, 0xf5, 0x3d, 0x94, 0x01, 0x45, 0xbd, 0x6f, 0x37, 0x04, 0x3d,
  0xf5, 0x88, 0x8b, 0xbd, 0xc3, 0xb3, 0xa0, 0xbd, 0x28, 0xf4, 0x69, 0xbd,
  0xaa, 0xfd, 0x68, 0xbe, 0x20, 0x69, 0xd5, 0xbe, 0xb8, 0x59, 0xa0, 0xbd,
  0x6f, 0xfe, 0x0f, 0xbe, 0x2d, 0x95, 0x95, 0x3d, 0xad, 0xdb, 0x08, 0x3e,
  0xb1, 0x91, 0x57, 0xbe, 0x76, 0x3e, 0x7f, 0xbd, 0x7b, 0xb4, 0x10, 0xbd,
  0x6a, 0xff, 0xff, 0xff, 0x10, 0x00, 0x00, 0x00, 0x03, 0x00, 0x00, 0x00,
  0x10, 0x00, 0x00, 0x00, 0x4c, 0x00, 0x00, 0x00, 0x01, 0x00, 0x00, 0x00,
  0x10, 0x00, 0x00, 0x00, 0x35, 0x00, 0x00, 0x00, 0x73, 0x65, 0x71, 0x75,
  0x65, 0x6e, 0x74, 0x69, 0x61, 0x6c, 0x5f, 0x34, 0x2f, 0x63, 0x6f, 0x6e,
  0x76, 0x32, 0x64, 0x5f, 0x39, 0x2f, 0x42, 0x69, 0x61, 0x73, 0x41, 0x64,
  0x64, 0x2f, 0x52, 0x65, 0x61, 0x64, 0x56, 0x61, 0x72, 0x69, 0x61, 0x62,
  0x6c, 0x65, 0x4f, 0x70, 0x2f, 0x72, 0x65, 0x73, 0x6f, 0x75, 0x72, 0x63,
  0x65, 0x00, 0x00, 0x00, 0x04, 0x00, 0x06, 0x00, 0x04, 0x00, 0x00, 0x00,
  0x00, 0x00, 0x06, 0x00, 0x08, 0x00, 0x04, 0x00, 0x06, 0x00, 0x00, 0x00,
  0x04, 0x00, 0x00, 0x00, 0x20, 0x00, 0x00, 0x00, 0x72, 0x27, 0xff, 0xbe,
  0xe7, 0x72, 0x83, 0x3d, 0x1f, 0xcb, 0x0d, 0xbf, 0x0e, 0x1e, 0x33, 0xbf,
  0xde, 0xc1, 0x7d, 0x3d, 0xcd, 0xca, 0x8d, 0x3e, 0xf0, 0xb4, 0x35, 0xbf,
  0xf4, 0x2f, 0x4d, 0xbd, 0x00, 0x00, 0x0e, 0x00, 0x14, 0x00, 0x04, 0x00,
  0x00, 0x00, 0x08, 0x00, 0x0c, 0x00, 0x10, 0x00, 0x0e, 0x00, 0x00, 0x00,
  0x10, 0x00, 0x00, 0x00, 0x02, 0x00, 0x00, 0x00, 0x10, 0x00, 0x00, 0x00,
  0x48, 0x00, 0x00, 0x00, 0x01, 0x00, 0x00, 0x00, 0x08, 0x00, 0x00, 0x00,
  0x35, 0x00, 0x00, 0x00, 0x73, 0x65, 0x71, 0x75, 0x65, 0x6e, 0x74, 0x69,
  0x61, 0x6c, 0x5f, 0x34, 0x2f, 0x63, 0x6f, 0x6e, 0x76, 0x32, 0x64, 0x5f,
  0x38, 0x2f, 0x42, 0x69, 0x61, 0x73, 0x41, 0x64, 0x64, 0x2f, 0x52, 0x65,
  0x61, 0x64, 0x56, 0x61, 0x72, 0x69, 0x61, 0x62, 0x6c, 0x65, 0x4f, 0x70,
  0x2f, 0x72, 0x65, 0x73, 0x6f, 0x75, 0x72, 0x63, 0x65, 0x00, 0x00, 0x00,
  0x90, 0xff, 0xff, 0xff, 0x14, 0x00, 0x18, 0x00, 0x04, 0x00, 0x00, 0x00,
  0x08, 0x00, 0x0c, 0x00, 0x10, 0x00, 0x00, 0x00, 0x00, 0x00, 0x14, 0x00,
  0x14, 0x00, 0x00, 0x00, 0x14, 0x00, 0x00, 0x00, 0x01, 0x00, 0x00, 0x00,
  0x20, 0x00, 0x00, 0x00, 0x44, 0x00, 0x00, 0x00, 0x2c, 0x00, 0x00, 0x00,
  0x04, 0x00, 0x00, 0x00, 0x01, 0x00, 0x00, 0x00, 0x32, 0x00, 0x00, 0x00,
  0x03, 0x00, 0x00, 0x00, 0x01, 0x00, 0x00, 0x00, 0x0e, 0x00, 0x00, 0x00,
  0x63, 0x6f, 0x6e, 0x76, 0x32, 0x64, 0x5f, 0x38, 0x5f, 0x69, 0x6e, 0x70,
  0x75, 0x74, 0x00, 0x00, 0x04, 0x00, 0x00, 0x00, 0xff, 0xff, 0xff, 0xff,
  0x32, 0x00, 0x00, 0x00, 0x03, 0x00, 0x00, 0x00, 0x01, 0x00, 0x00, 0x00,
  0xfc, 0xff, 0xff, 0xff, 0x04, 0x00, 0x04, 0x00, 0x04, 0x00, 0x00, 0x00
};
