const unsigned char model[] __attribute__((aligned(4))) = {
  0x1c, 0x00, 0x00, 0x00, 0x54, 0x46, 0x4c, 0x33, 0x00, 0x00, 0x12, 0x00,
  0x1c, 0x00, 0x04, 0x00, 0x08, 0x00, 0x0c, 0x00, 0x10, 0x00, 0x14, 0x00,
  0x00, 0x00, 0x18, 0x00, 0x12, 0x00, 0x00, 0x00, 0x03, 0x00, 0x00, 0x00,
  0x14, 0x00, 0x00, 0x00, 0x28, 0x00, 0x00, 0x00, 0xf4, 0x00, 0x00, 0x00,
  0x28, 0x00, 0x00, 0x00, 0x9c, 0x00, 0x00, 0x00, 0x05, 0x00, 0x00, 0x00,
  0xa4, 0x0b, 0x00, 0x00, 0x0c, 0x07, 0x00, 0x00, 0x2c, 0x03, 0x00, 0x00,
  0x94, 0x02, 0x00, 0x00, 0xfc, 0x01, 0x00, 0x00, 0x01, 0x00, 0x00, 0x00,
  0xf0, 0x00, 0x00, 0x00, 0x1d, 0x00, 0x00, 0x00, 0x20, 0x5d, 0x00, 0x00,
  0x1c, 0x5d, 0x00, 0x00, 0x08, 0x5c, 0x00, 0x00, 0x4c, 0x5b, 0x00, 0x00,
  0x9c, 0x5a, 0x00, 0x00, 0xec, 0x59, 0x00, 0x00, 0x3c, 0x59, 0x00, 0x00,
  0x8c, 0x58, 0x00, 0x00, 0x18, 0x58, 0x00, 0x00, 0xa8, 0x57, 0x00, 0x00,
  0xd0, 0x56, 0x00, 0x00, 0x10, 0x56, 0x00, 0x00, 0xb0, 0x4d, 0x00, 0x00,
  0x50, 0x3d, 0x00, 0x00, 0xf0, 0x2c, 0x00, 0x00, 0x90, 0x1c, 0x00, 0x00,
  0x30, 0x0c, 0x00, 0x00, 0xdc, 0x5c, 0x00, 0x00, 0xd8, 0x5c, 0x00, 0x00,
  0xd4, 0x5c, 0x00, 0x00, 0xd0, 0x5c, 0x00, 0x00, 0xcc, 0x5c, 0x00, 0x00,
  0xc8, 0x5c, 0x00, 0x00, 0xc4, 0x5c, 0x00, 0x00, 0xc0, 0x5c, 0x00, 0x00,
  0xbc, 0x5c, 0x00, 0x00, 0xb8, 0x5c, 0x00, 0x00, 0xb4, 0x5c, 0x00, 0x00,
  0x38, 0x00, 0x00, 0x00, 0x01, 0x00, 0x00, 0x00, 0x0c, 0x00, 0x00, 0x00,
  0x08, 0x00, 0x0c, 0x00, 0x04, 0x00, 0x08, 0x00, 0x08, 0x00, 0x00, 0x00,
  0x08, 0x00, 0x00, 0x00, 0x1c, 0x00, 0x00, 0x00, 0x13, 0x00, 0x00, 0x00,
  0x6d, 0x69, 0x6e, 0x5f, 0x72, 0x75, 0x6e, 0x74, 0x69, 0x6d, 0x65, 0x5f,
  0x76, 0x65, 0x72, 0x73, 0x69, 0x6f, 0x6e, 0x00, 0x9e, 0xa4, 0xff, 0xff,
  0x04, 0x00, 0x00, 0x00, 0x10, 0x00, 0x00, 0x00, 0x31, 0x2e, 0x35, 0x2e,
  0x30, 0x00, 0x00, 0x00, 0x00, 0x00, 0x00, 0x00, 0x00, 0x00, 0x00, 0x00,
  0x0f, 0x00, 0x00, 0x00, 0x4d, 0x4c, 0x49, 0x52, 0x20, 0x43, 0x6f, 0x6e,
  0x76, 0x65, 0x72, 0x74, 0x65, 0x64, 0x2e, 0x00, 0x00, 0x00, 0x0e, 0x00,
  0x18, 0x00, 0x04, 0x00, 0x08, 0x00, 0x0c, 0x00, 0x10, 0x00, 0x14, 0x00,
  0x0e, 0x00, 0x00, 0x00, 0x14, 0x00, 0x00, 0x00, 0x80, 0x00, 0x00, 0x00,
  0x84, 0x00, 0x00, 0x00, 0x88, 0x00, 0x00, 0x00, 0xb4, 0x00, 0x00, 0x00,
  0x1b, 0x00, 0x00, 0x00, 0xbc, 0x5b, 0x00, 0x00, 0x44, 0x5b, 0x00, 0x00,
  0x98, 0x5a, 0x00, 0x00, 0xe8, 0x59, 0x00, 0x00, 0x38, 0x59, 0x00, 0x00,
  0x88, 0x58, 0x00, 0x00, 0xd8, 0x57, 0x00, 0x00, 0x2c, 0x57, 0x00, 0x00,
  0xcc, 0x56, 0x00, 0x00, 0x5c, 0x56, 0x00, 0x00, 0x7c, 0x55, 0x00, 0x00,
  0xbc, 0x54, 0x00, 0x00, 0x5c, 0x4c, 0x00, 0x00, 0xfc, 0x3b, 0x00, 0x00,
  0x9c, 0x2b, 0x00, 0x00, 0x3c, 0x1b, 0x00, 0x00, 0x4c, 0x0a, 0x00, 0x00,
  0xd8, 0x08, 0x00, 0x00, 0x98, 0x07, 0x00, 0x00, 0x58, 0x06, 0x00, 0x00,
  0xa8, 0x05, 0x00, 0x00, 0x38, 0x04, 0x00, 0x00, 0x18, 0x03, 0x00, 0x00,
  0x68, 0x02, 0x00, 0x00, 0xbc, 0x01, 0x00, 0x00, 0x24, 0x01, 0x00, 0x00,
  0x8c, 0x00, 0x00, 0x00, 0x01, 0x00, 0x00, 0x00, 0x00, 0x00, 0x00, 0x00,
  0x01, 0x00, 0x00, 0x00, 0x1a, 0x00, 0x00, 0x00, 0x0b, 0x00, 0x00, 0x00,
  0xac, 0x09, 0x00, 0x00, 0x5c, 0x08, 0x00, 0x00, 0x1c, 0x07, 0x00, 0x00,
  0xdc, 0x05, 0x00, 0x00, 0x0c, 0x05, 0x00, 0x00, 0xbc, 0x03, 0x00, 0x00,
  0x9c, 0x02, 0x00, 0x00, 0xdc, 0x01, 0x00, 0x00, 0x4c, 0x01, 0x00, 0x00,
  0xa4, 0x00, 0x00, 0x00, 0x10, 0x00, 0x00, 0x00, 0x04, 0x00, 0x00, 0x00,
  0x6d, 0x61, 0x69, 0x6e, 0x00, 0x00, 0x00, 0x00, 0x7e, 0xff, 0xff, 0xff,
  0x00, 0x00, 0x00, 0x09, 0x04, 0x00, 0x00, 0x00, 0x1c, 0x00, 0x00, 0x00,
  0x10, 0x00, 0x00, 0x00, 0x04, 0x00, 0x00, 0x00, 0xca, 0xa5, 0xff, 0xff,
  0x00, 0x00, 0x80, 0x3f, 0x01, 0x00, 0x00, 0x00, 0x1a, 0x00, 0x00, 0x00,
  0x01, 0x00, 0x00, 0x00, 0x19, 0x00, 0x00, 0x00, 0x72, 0xf6, 0xff, 0xff,
  0x00, 0x00, 0x00, 0x19, 0x01, 0x00, 0x00, 0x00, 0x4c, 0xa5, 0xff, 0xff,
  0x14, 0x00, 0x00, 0x00, 0x1b, 0x00, 0x00, 0x00, 0x18, 0x00, 0x00, 0x00,
  0x30, 0x00, 0x00, 0x00, 0x20, 0x00, 0x00, 0x00, 0x02, 0x00, 0x00, 0x00,
  0x01, 0x00, 0x00, 0x00, 0x02, 0x00, 0x00, 0x00, 0x08, 0x00, 0x00, 0x00,
  0x49, 0x64, 0x65, 0x6e, 0x74, 0x69, 0x74, 0x79, 0x00, 0x00, 0x00, 0x00,
  0x02, 0x00, 0x00, 0x00, 0xff, 0xff, 0xff, 0xff, 0x02, 0x00, 0x00, 0x00,
  0x38, 0xa6, 0xff, 0xff, 0x00, 0x00, 0x0e, 0x00, 0x18, 0x00, 0x08, 0x00,
  0x0c, 0x00, 0x10, 0x00, 0x07, 0x00, 0x14, 0x00, 0x0e, 0x00, 0x00, 0x00,
  0x00, 0x00, 0x00, 0x08, 0x03, 0x00, 0x00, 0x00, 0x18, 0x00, 0x00, 0x00,
  0x0c, 0x00, 0x00, 0x00, 0x04, 0x00, 0x00, 0x00, 0x48, 0xa5, 0xff, 0xff,
  0x01, 0x00, 0x00, 0x00, 0x19, 0x00, 0x00, 0x00, 0x03, 0x00, 0x00, 0x00,
  0x18, 0x00, 0x00, 0x00, 0x09, 0x00, 0x00, 0x00, 0x07, 0x00, 0x00, 0x00,
  0x06, 0xf7, 0xff, 0xff, 0x00, 0x00, 0x00, 0x09, 0x01, 0x00, 0x00, 0x00,
  0xe0, 0xa5, 0xff, 0xff, 0x14, 0x00, 0x00, 0x00, 0x1a, 0x00, 0x00, 0x00,
  0x18, 0x00, 0x00, 0x00, 0x44, 0x00, 0x00, 0x00, 0x34, 0x00, 0x00, 0x00,
  0x02, 0x00, 0x00, 0x00, 0x01, 0x00, 0x00, 0x00, 0x02, 0x00, 0x00, 0x00,
  0x1e, 0x00, 0x00, 0x00, 0x73, 0x65, 0x71, 0x75, 0x65, 0x6e, 0x74, 0x69,
  0x61, 0x6c, 0x5f, 0x33, 0x34, 0x2f, 0x64, 0x65, 0x6e, 0x73, 0x65, 0x5f,
  0x33, 0x35, 0x2f, 0x42, 0x69, 0x61, 0x73, 0x41, 0x64, 0x64, 0x00, 0x00,
  0x02, 0x00, 0x00, 0x00, 0xff, 0xff, 0xff, 0xff, 0x02, 0x00, 0x00, 0x00,
  0xe0, 0xa6, 0xff, 0xff, 0x00, 0x00, 0x0a, 0x00, 0x10, 0x00, 0x04, 0x00,
  0x08, 0x00, 0x0c, 0x00, 0x0a, 0x00, 0x00, 0x00, 0x02, 0x00, 0x00, 0x00,
  0x10, 0x00, 0x00, 0x00, 0x04, 0x00, 0x00, 0x00, 0x01, 0x00, 0x00, 0x00,
  0x18, 0x00, 0x00, 0x00, 0x02, 0x00, 0x00, 0x00, 0x17, 0x00, 0x00, 0x00,
  0x08, 0x00, 0x00, 0x00, 0x9a, 0xf7, 0xff, 0xff, 0x00, 0x00, 0x00, 0x16,
  0x01, 0x00, 0x00, 0x00, 0x74, 0xa6, 0xff, 0xff, 0x14, 0x00, 0x00, 0x00,
  0x19, 0x00, 0x00, 0x00, 0x18, 0x00, 0x00, 0x00, 0x48, 0x00, 0x00, 0x00,
  0x38, 0x00, 0x00, 0x00, 0x02, 0x00, 0x00, 0x00, 0x01, 0x00, 0x00, 0x00,
  0x10, 0x00, 0x00, 0x00, 0x20, 0x00, 0x00, 0x00, 0x73, 0x65, 0x71, 0x75,
  0x65, 0x6e, 0x74, 0x69, 0x61, 0x6c, 0x5f, 0x33, 0x34, 0x2f, 0x66, 0x6c,
  0x61, 0x74, 0x74, 0x65, 0x6e, 0x5f, 0x33, 0x30, 0x2f, 0x52, 0x65, 0x73,
  0x68, 0x61, 0x70, 0x65, 0x00, 0x00, 0x00, 0x00, 0x02, 0x00, 0x00, 0x00,
  0xff, 0xff, 0xff, 0xff, 0x10, 0x00, 0x00, 0x00, 0x5c, 0xa6, 0xff, 0xff,
  0xea, 0xfc, 0xff, 0xff, 0x00, 0x00, 0x00, 0x05, 0x01, 0x00, 0x00, 0x00,
  0x38, 0x00, 0x00, 0x00, 0x2c, 0x00, 0x00, 0x00, 0x14, 0x00, 0x00, 0x00,
  0x00, 0x00, 0x0e, 0x00, 0x14, 0x00, 0x00, 0x00, 0x10, 0x00, 0x0c, 0x00,
  0x08, 0x00, 0x04, 0x00, 0x0e, 0x00, 0x00, 0x00, 0x0f, 0x00, 0x00, 0x00,
  0x01, 0x00, 0x00, 0x00, 0x0f, 0x00, 0x00, 0x00, 0x01, 0x00, 0x00, 0x00,
  0x01, 0x00, 0x00, 0x00, 0x17, 0x00, 0x00, 0x00, 0x01, 0x00, 0x00, 0x00,
  0x16, 0x00, 0x00, 0x00, 0x1c, 0xa7, 0xff, 0xff, 0x14, 0x00, 0x00, 0x00,
  0x18, 0x00, 0x00, 0x00, 0x20, 0x00, 0x00, 0x00, 0x5c, 0x00, 0x00, 0x00,
  0x44, 0x00, 0x00, 0x00, 0x04, 0x00, 0x00, 0x00, 0x01, 0x00, 0x00, 0x00,
  0x01, 0x00, 0x00, 0x00, 0x01, 0x00, 0x00, 0x00, 0x10, 0x00, 0x00, 0x00,
  0x26, 0x00, 0x00, 0x00, 0x73, 0x65, 0x71, 0x75, 0x65, 0x6e, 0x74, 0x69,
  0x61, 0x6c, 0x5f, 0x33, 0x34, 0x2f, 0x6d, 0x61, 0x78, 0x5f, 0x70, 0x6f,
  0x6f, 0x6c, 0x69, 0x6e, 0x67, 0x32, 0x64, 0x5f, 0x36, 0x39, 0x2f, 0x4d,
  0x61, 0x78, 0x50, 0x6f, 0x6f, 0x6c, 0x00, 0x00, 0x04, 0x00, 0x00, 0x00,
  0xff, 0xff, 0xff, 0xff, 0x01, 0x00, 0x00, 0x00, 0x01, 0x00, 0x00, 0x00,
  0x10, 0x00, 0x00, 0x00, 0x18, 0xa7, 0xff, 0xff, 0x16, 0xf9, 0xff, 0xff,
  0x00, 0x00, 0x00, 0x01, 0x24, 0x00, 0x00, 0x00, 0x18, 0x00, 0x00, 0x00,
  0x04, 0x00, 0x00, 0x00, 0x08, 0xf9, 0xff, 0xff, 0x01, 0x00, 0x00, 0x00,
  0x01, 0x00, 0x00, 0x00, 0x00, 0x00, 0x00, 0x01, 0x01, 0x00, 0x00, 0x00,
  0x16, 0x00, 0x00, 0x00, 0x03, 0x00, 0x00, 0x00, 0x15, 0x00, 0x00, 0x00,
  0x0f, 0x00, 0x00, 0x00, 0x06, 0x00, 0x00, 0x00, 0xc8, 0xa7, 0xff, 0xff,
  0x14, 0x00, 0x00, 0x00, 0x17, 0x00, 0x00, 0x00, 0x20, 0x00, 0x00, 0x00,
  0xcc, 0x00, 0x00, 0x00, 0xb4, 0x00, 0x00, 0x00, 0x04, 0x00, 0x00, 0x00,
  0x01, 0x00, 0x00, 0x00, 0x01, 0x00, 0x00, 0x00, 0x01, 0x00, 0x00, 0x00,
  0x10, 0x00, 0x00, 0x00, 0x97, 0x00, 0x00, 0x00, 0x73, 0x65, 0x71, 0x75,
  0x65, 0x6e, 0x74, 0x69, 0x61, 0x6c, 0x5f, 0x33, 0x34, 0x2f, 0x63, 0x6f,
  0x6e, 0x76, 0x32, 0x64, 0x5f, 0x32, 0x35, 0x31, 0x2f, 0x52, 0x65, 0x6c,
  0x75, 0x3b, 0x73, 0x65, 0x71, 0x75, 0x65, 0x6e, 0x74, 0x69, 0x61, 0x6c,
  0x5f, 0x33, 0x34, 0x2f, 0x63, 0x6f, 0x6e, 0x76, 0x32, 0x64, 0x5f, 0x32,
  0x35, 0x31, 0x2f, 0x42, 0x69, 0x61, 0x73, 0x41, 0x64, 0x64, 0x3b, 0x73,
  0x65, 0x71, 0x75, 0x65, 0x6e, 0x74, 0x69, 0x61, 0x6c, 0x5f, 0x33, 0x34,
  0x2f, 0x63, 0x6f, 0x6e, 0x76, 0x32, 0x64, 0x5f, 0x32, 0x35, 0x31, 0x2f,
  0x43, 0x6f, 0x6e, 0x76, 0x32, 0x44, 0x3b, 0x73, 0x65, 0x71, 0x75, 0x65,
  0x6e, 0x74, 0x69, 0x61, 0x6c, 0x5f, 0x33, 0x34, 0x2f, 0x63, 0x6f, 0x6e,
  0x76, 0x32, 0x64, 0x5f, 0x32, 0x35, 0x31, 0x2f, 0x42, 0x69, 0x61, 0x73,
  0x41, 0x64, 0x64, 0x2f, 0x52, 0x65, 0x61, 0x64, 0x56, 0x61, 0x72, 0x69,
  0x61, 0x62, 0x6c, 0x65, 0x4f, 0x70, 0x2f, 0x72, 0x65, 0x73, 0x6f, 0x75,
  0x72, 0x63, 0x65, 0x00, 0x04, 0x00, 0x00, 0x00, 0xff, 0xff, 0xff, 0xff,
  0x01, 0x00, 0x00, 0x00, 0x01, 0x00, 0x00, 0x00, 0x10, 0x00, 0x00, 0x00,
  0x34, 0xa8, 0xff, 0xff, 0x32, 0xfa, 0xff, 0xff, 0x00, 0x00, 0x00, 0x01,
  0x24, 0x00, 0x00, 0x00, 0x18, 0x00, 0x00, 0x00, 0x04, 0x00, 0x00, 0x00,
  0x24, 0xfa, 0xff, 0xff, 0x01, 0x00, 0x00, 0x00, 0x01, 0x00, 0x00, 0x00,
  0x00, 0x00, 0x00, 0x01, 0x01, 0x00, 0x00, 0x00, 0x15, 0x00, 0x00, 0x00,
  0x03, 0x00, 0x00, 0x00, 0x14, 0x00, 0x00, 0x00, 0x0e, 0x00, 0x00, 0x00,
  0x05, 0x00, 0x00, 0x00, 0xe4, 0xa8, 0xff, 0xff, 0x14, 0x00, 0x00, 0x00,
  0x16, 0x00, 0x00, 0x00, 0x20, 0x00, 0x00, 0x00, 0xec, 0x00, 0x00, 0x00,
  0xd4, 0x00, 0x00, 0x00, 0x04, 0x00, 0x00, 0x00, 0x01, 0x00, 0x00, 0x00,
  0x01, 0x00, 0x00, 0x00, 0x01, 0x00, 0x00, 0x00, 0x10, 0x00, 0x00, 0x00,
  0xb7, 0x00, 0x00, 0x00, 0x73, 0x65, 0x71, 0x75, 0x65, 0x6e, 0x74, 0x69,
  0x61, 0x6c, 0x5f, 0x33, 0x34, 0x2f, 0x63, 0x6f, 0x6e, 0x76, 0x32, 0x64,
  0x5f, 0x32, 0x35, 0x30, 0x2f, 0x52, 0x65, 0x6c, 0x75, 0x3b, 0x73, 0x65,
  0x71, 0x75, 0x65, 0x6e, 0x74, 0x69, 0x61, 0x6c, 0x5f, 0x33, 0x34, 0x2f,
  0x63, 0x6f, 0x6e, 0x76, 0x32, 0x64, 0x5f, 0x32, 0x35, 0x30, 0x2f, 0x42,
  0x69, 0x61, 0x73, 0x41, 0x64, 0x64, 0x3b, 0x73, 0x65, 0x71, 0x75, 0x65,
  0x6e, 0x74, 0x69, 0x61, 0x6c, 0x5f, 0x33, 0x34, 0x2f, 0x63, 0x6f, 0x6e,
  0x76, 0x32, 0x64, 0x5f, 0x32, 0x35, 0x31, 0x2f, 0x43, 0x6f, 0x6e, 0x76,
  0x32, 0x44, 0x3b, 0x73, 0x65, 0x71, 0x75, 0x65, 0x6e, 0x74, 0x69, 0x61,
  0x6c, 0x5f, 0x33, 0x34, 0x2f, 0x63, 0x6f, 0x6e, 0x76, 0x32, 0x64, 0x5f,
  0x32, 0x35, 0x30, 0x2f, 0x43, 0x6f, 0x6e, 0x76, 0x32, 0x44, 0x3b, 0x73,
  0x65, 0x71, 0x75, 0x65, 0x6e, 0x74, 0x69, 0x61, 0x6c, 0x5f, 0x33, 0x34,
  0x2f, 0x63, 0x6f, 0x6e, 0x76, 0x32, 0x64, 0x5f, 0x32, 0x35, 0x30, 0x2f,
  0x42, 0x69, 0x61, 0x73, 0x41, 0x64, 0x64, 0x2f, 0x52, 0x65, 0x61, 0x64,
  0x56, 0x61, 0x72, 0x69, 0x61, 0x62, 0x6c, 0x65, 0x4f, 0x70, 0x2f, 0x72,
  0x65, 0x73, 0x6f, 0x75, 0x72, 0x63, 0x65, 0x00, 0x04, 0x00, 0x00, 0x00,
  0xff, 0xff, 0xff, 0xff, 0x01, 0x00, 0x00, 0x00, 0x01, 0x00, 0x00, 0x00,
  0x10, 0x00, 0x00, 0x00, 0x8c, 0xaa, 0xff, 0xff, 0x00, 0x00, 0x0e, 0x00,
  0x1a, 0x00, 0x08, 0x00, 0x0c, 0x00, 0x10, 0x00, 0x07, 0x00, 0x14, 0x00,
  0x0e, 0x00, 0x00, 0x00, 0x00, 0x00, 0x00, 0x05, 0x01, 0x00, 0x00, 0x00,
  0x3c, 0x00, 0x00, 0x00, 0x30, 0x00, 0x00, 0x00, 0x14, 0x00, 0x00, 0x00,
  0x00, 0x00, 0x0e, 0x00, 0x18, 0x00, 0x17, 0x00, 0x10, 0x00, 0x0c, 0x00,
  0x08, 0x00, 0x04, 0x00, 0x0e, 0x00, 0x00, 0x00, 0x1e, 0x00, 0x00, 0x00,
  0x03, 0x00, 0x00, 0x00, 0x1e, 0x00, 0x00, 0x00, 0x03, 0x00, 0x00, 0x00,
  0x00, 0x00, 0x00, 0x01, 0x01, 0x00, 0x00, 0x00, 0x14, 0x00, 0x00, 0x00,
  0x01, 0x00, 0x00, 0x00, 0x13, 0x00, 0x00, 0x00, 0x76, 0xfb, 0xff, 0xff,
  0x00, 0x00, 0x00, 0x11, 0x01, 0x00, 0x00, 0x00, 0x50, 0xaa, 0xff, 0xff,
  0x14, 0x00, 0x00, 0x00, 0x15, 0x00, 0x00, 0x00, 0x20, 0x00, 0x00, 0x00,
  0x5c, 0x00, 0x00, 0x00, 0x44, 0x00, 0x00, 0x00, 0x04, 0x00, 0x00, 0x00,
  0x01, 0x00, 0x00, 0x00, 0x01, 0x00, 0x00, 0x00, 0x01, 0x00, 0x00, 0x00,
  0x10, 0x00, 0x00, 0x00, 0x26, 0x00, 0x00, 0x00, 0x73, 0x65, 0x71, 0x75,
  0x65, 0x6e, 0x74, 0x69, 0x61, 0x6c, 0x5f, 0x33, 0x34, 0x2f, 0x6d, 0x61,
  0x78, 0x5f, 0x70, 0x6f, 0x6f, 0x6c, 0x69, 0x6e, 0x67, 0x32, 0x64, 0x5f,
  0x36, 0x38, 0x2f, 0x4d, 0x61, 0x78, 0x50, 0x6f, 0x6f, 0x6c, 0x00, 0x00,
  0x04, 0x00, 0x00, 0x00, 0xff, 0xff, 0xff, 0xff, 0x01, 0x00, 0x00, 0x00,
  0x01, 0x00, 0x00, 0x00, 0x10, 0x00, 0x00, 0x00, 0x4c, 0xaa, 0xff, 0xff,
  0x4a, 0xfc, 0xff, 0xff, 0x00, 0x00, 0x00, 0x01, 0x24, 0x00, 0x00, 0x00,
  0x18, 0x00, 0x00, 0x00, 0x04, 0x00, 0x00, 0x00, 0x3c, 0xfc, 0xff, 0xff,
  0x01, 0x00, 0x00, 0x00, 0x01, 0x00, 0x00, 0x00, 0x00, 0x00, 0x00, 0x01,
  0x01, 0x00, 0x00, 0x00, 0x13, 0x00, 0x00, 0x00, 0x03, 0x00, 0x00, 0x00,
  0x12, 0x00, 0x00, 0x00, 0x0d, 0x00, 0x00, 0x00, 0x04, 0x00, 0x00, 0x00,
  0xfc, 0xaa, 0xff, 0xff, 0x14, 0x00, 0x00, 0x00, 0x14, 0x00, 0x00, 0x00,
  0x20, 0x00, 0x00, 0x00, 0xec, 0x00, 0x00, 0x00, 0xd4, 0x00, 0x00, 0x00,
  0x04, 0x00, 0x00, 0x00, 0x01, 0x00, 0x00, 0x00, 0x32, 0x00, 0x00, 0x00,
  0x03, 0x00, 0x00, 0x00, 0x10, 0x00, 0x00, 0x00, 0xb7, 0x00, 0x00, 0x00,
  0x73, 0x65, 0x71, 0x75, 0x65, 0x6e, 0x74, 0x69, 0x61, 0x6c, 0x5f, 0x33,
  0x34, 0x2f, 0x63, 0x6f, 0x6e, 0x76, 0x32, 0x64, 0x5f, 0x32, 0x34, 0x39,
  0x2f, 0x52, 0x65, 0x6c, 0x75, 0x3b, 0x73, 0x65, 0x71, 0x75, 0x65, 0x6e,
  0x74, 0x69, 0x61, 0x6c, 0x5f, 0x33, 0x34, 0x2f, 0x63, 0x6f, 0x6e, 0x76,
  0x32, 0x64, 0x5f, 0x32, 0x34, 0x39, 0x2f, 0x42, 0x69, 0x61, 0x73, 0x41,
  0x64, 0x64, 0x3b, 0x73, 0x65, 0x71, 0x75, 0x65, 0x6e, 0x74, 0x69, 0x61,
  0x6c, 0x5f, 0x33, 0x34, 0x2f, 0x63, 0x6f, 0x6e, 0x76, 0x32, 0x64, 0x5f,
  0x32, 0x35, 0x31, 0x2f, 0x43, 0x6f, 0x6e, 0x76, 0x32, 0x44, 0x3b, 0x73,
  0x65, 0x71, 0x75, 0x65, 0x6e, 0x74, 0x69, 0x61, 0x6c, 0x5f, 0x33, 0x34,
  0x2f, 0x63, 0x6f, 0x6e, 0x76, 0x32, 0x64, 0x5f, 0x32, 0x34, 0x39, 0x2f,
  0x43, 0x6f, 0x6e, 0x76, 0x32, 0x44, 0x3b, 0x73, 0x65, 0x71, 0x75, 0x65,
  0x6e, 0x74, 0x69, 0x61, 0x6c, 0x5f, 0x33, 0x34, 0x2f, 0x63, 0x6f, 0x6e,
  0x76, 0x32, 0x64, 0x5f, 0x32, 0x34, 0x39, 0x2f, 0x42, 0x69, 0x61, 0x73,
  0x41, 0x64, 0x64, 0x2f, 0x52, 0x65, 0x61, 0x64, 0x56, 0x61, 0x72, 0x69,
  0x61, 0x62, 0x6c, 0x65, 0x4f, 0x70, 0x2f, 0x72, 0x65, 0x73, 0x6f, 0x75,
  0x72, 0x63, 0x65, 0x00, 0x04, 0x00, 0x00, 0x00, 0xff, 0xff, 0xff, 0xff,
  0x32, 0x00, 0x00, 0x00, 0x03, 0x00, 0x00, 0x00, 0x10, 0x00, 0x00, 0x00,
  0x88, 0xab, 0xff, 0xff, 0x86, 0xfd, 0xff, 0xff, 0x00, 0x00, 0x00, 0x01,
  0x24, 0x00, 0x00, 0x00, 0x18, 0x00, 0x00, 0x00, 0x04, 0x00, 0x00, 0x00,
  0x78, 0xfd, 0xff, 0xff, 0x01, 0x00, 0x00, 0x00, 0x01, 0x00, 0x00, 0x00,
  0x00, 0x00, 0x00, 0x01, 0x01, 0x00, 0x00, 0x00, 0x12, 0x00, 0x00, 0x00,
  0x03, 0x00, 0x00, 0x00, 0x11, 0x00, 0x00, 0x00, 0x0c, 0x00, 0x00, 0x00,
  0x03, 0x00, 0x00, 0x00, 0x38, 0xac, 0xff, 0xff, 0x14, 0x00, 0x00, 0x00,
  0x13, 0x00, 0x00, 0x00, 0x20, 0x00, 0x00, 0x00, 0xec, 0x00, 0x00, 0x00,
  0xd4, 0x00, 0x00, 0x00, 0x04, 0x00, 0x00, 0x00, 0x01, 0x00, 0x00, 0x00,
  0x32, 0x00, 0x00, 0x00, 0x03, 0x00, 0x00, 0x00, 0x10, 0x00, 0x00, 0x00,
  0xb7, 0x00, 0x00, 0x00, 0x73, 0x65, 0x71, 0x75, 0x65, 0x6e, 0x74, 0x69,
  0x61, 0x6c, 0x5f, 0x33, 0x34, 0x2f, 0x63, 0x6f, 0x6e, 0x76, 0x32, 0x64,
  0x5f, 0x32, 0x34, 0x38, 0x2f, 0x52, 0x65, 0x6c, 0x75, 0x3b, 0x73, 0x65,
  0x71, 0x75, 0x65, 0x6e, 0x74, 0x69, 0x61, 0x6c, 0x5f, 0x33, 0x34, 0x2f,
  0x63, 0x6f, 0x6e, 0x76, 0x32, 0x64, 0x5f, 0x32, 0x34, 0x38, 0x2f, 0x42,
  0x69, 0x61, 0x73, 0x41, 0x64, 0x64, 0x3b, 0x73, 0x65, 0x71, 0x75, 0x65,
  0x6e, 0x74, 0x69, 0x61, 0x6c, 0x5f, 0x33, 0x34, 0x2f, 0x63, 0x6f, 0x6e,
  0x76, 0x32, 0x64, 0x5f, 0x32, 0x35, 0x31, 0x2f, 0x43, 0x6f, 0x6e, 0x76,
  0x32, 0x44, 0x3b, 0x73, 0x65, 0x71, 0x75, 0x65, 0x6e, 0x74, 0x69, 0x61,
  0x6c, 0x5f, 0x33, 0x34, 0x2f, 0x63, 0x6f, 0x6e, 0x76, 0x32, 0x64, 0x5f,
  0x32, 0x34, 0x38, 0x2f, 0x43, 0x6f, 0x6e, 0x76, 0x32, 0x44, 0x3b, 0x73,
  0x65, 0x71, 0x75, 0x65, 0x6e, 0x74, 0x69, 0x61, 0x6c, 0x5f, 0x33, 0x34,
  0x2f, 0x63, 0x6f, 0x6e, 0x76, 0x32, 0x64, 0x5f, 0x32, 0x34, 0x38, 0x2f,
  0x42, 0x69, 0x61, 0x73, 0x41, 0x64, 0x64, 0x2f, 0x52, 0x65, 0x61, 0x64,
  0x56, 0x61, 0x72, 0x69, 0x61, 0x62, 0x6c, 0x65, 0x4f, 0x70, 0x2f, 0x72,
  0x65, 0x73, 0x6f, 0x75, 0x72, 0x63, 0x65, 0x00, 0x04, 0x00, 0x00, 0x00,
  0xff, 0xff, 0xff, 0xff, 0x32, 0x00, 0x00, 0x00, 0x03, 0x00, 0x00, 0x00,
  0x10, 0x00, 0x00, 0x00, 0xc4, 0xac, 0xff, 0xff, 0xc2, 0xfe, 0xff, 0xff,
  0x00, 0x00, 0x00, 0x01, 0x24, 0x00, 0x00, 0x00, 0x18, 0x00, 0x00, 0x00,
  0x04, 0x00, 0x00, 0x00, 0xb4, 0xfe, 0xff, 0xff, 0x01, 0x00, 0x00, 0x00,
  0x01, 0x00, 0x00, 0x00, 0x00, 0x00, 0x00, 0x01, 0x01, 0x00, 0x00, 0x00,
  0x11, 0x00, 0x00, 0x00, 0x03, 0x00, 0x00, 0x00, 0x10, 0x00, 0x00, 0x00,
  0x0b, 0x00, 0x00, 0x00, 0x02, 0x00, 0x00, 0x00, 0x74, 0xad, 0xff, 0xff,
  0x14, 0x00, 0x00, 0x00, 0x12, 0x00, 0x00, 0x00, 0x20, 0x00, 0x00, 0x00,
  0xec, 0x00, 0x00, 0x00, 0xd4, 0x00, 0x00, 0x00, 0x04, 0x00, 0x00, 0x00,
  0x01, 0x00, 0x00, 0x00, 0x32, 0x00, 0x00, 0x00, 0x03, 0x00, 0x00, 0x00,
  0x10, 0x00, 0x00, 0x00, 0xb7, 0x00, 0x00, 0x00, 0x73, 0x65, 0x71, 0x75,
  0x65, 0x6e, 0x74, 0x69, 0x61, 0x6c, 0x5f, 0x33, 0x34, 0x2f, 0x63, 0x6f,
  0x6e, 0x76, 0x32, 0x64, 0x5f, 0x32, 0x34, 0x37, 0x2f, 0x52, 0x65, 0x6c,
  0x75, 0x3b, 0x73, 0x65, 0x71, 0x75, 0x65, 0x6e, 0x74, 0x69, 0x61, 0x6c,
  0x5f, 0x33, 0x34, 0x2f, 0x63, 0x6f, 0x6e, 0x76, 0x32, 0x64, 0x5f, 0x32,
  0x34, 0x37, 0x2f, 0x42, 0x69, 0x61, 0x73, 0x41, 0x64, 0x64, 0x3b, 0x73,
  0x65, 0x71, 0x75, 0x65, 0x6e, 0x74, 0x69, 0x61, 0x6c, 0x5f, 0x33, 0x34,
  0x2f, 0x63, 0x6f, 0x6e, 0x76, 0x32, 0x64, 0x5f, 0x32, 0x35, 0x31, 0x2f,
  0x43, 0x6f, 0x6e, 0x76, 0x32, 0x44, 0x3b, 0x73, 0x65, 0x71, 0x75, 0x65,
  0x6e, 0x74, 0x69, 0x61, 0x6c, 0x5f, 0x33, 0x34, 0x2f, 0x63, 0x6f, 0x6e,
  0x76, 0x32, 0x64, 0x5f, 0x32, 0x34, 0x37, 0x2f, 0x43, 0x6f, 0x6e, 0x76,
  0x32, 0x44, 0x3b, 0x73, 0x65, 0x71, 0x75, 0x65, 0x6e, 0x74, 0x69, 0x61,
  0x6c, 0x5f, 0x33, 0x34, 0x2f, 0x63, 0x6f, 0x6e, 0x76, 0x32, 0x64, 0x5f,
  0x32, 0x34, 0x37, 0x2f, 0x42, 0x69, 0x61, 0x73, 0x41, 0x64, 0x64, 0x2f,
  0x52, 0x65, 0x61, 0x64, 0x56, 0x61, 0x72, 0x69, 0x61, 0x62, 0x6c, 0x65,
  0x4f, 0x70, 0x2f, 0x72, 0x65, 0x73, 0x6f, 0x75, 0x72, 0x63, 0x65, 0x00,
  0x04, 0x00, 0x00, 0x00, 0xff, 0xff, 0xff, 0xff, 0x32, 0x00, 0x00, 0x00,
  0x03, 0x00, 0x00, 0x00, 0x10, 0x00, 0x00, 0x00, 0x1c, 0xaf, 0xff, 0xff,
  0x00, 0x00, 0x0e, 0x00, 0x14, 0x00, 0x00, 0x00, 0x08, 0x00, 0x0c, 0x00,
  0x07, 0x00, 0x10, 0x00, 0x0e, 0x00, 0x00, 0x00, 0x00, 0x00, 0x00, 0x01,
  0x30, 0x00, 0x00, 0x00, 0x24, 0x00, 0x00, 0x00, 0x10, 0x00, 0x00, 0x00,
  0x0c, 0x00, 0x10, 0x00, 0x00, 0x00, 0x04, 0x00, 0x08, 0x00, 0x0f, 0x00,
  0x0c, 0x00, 0x00, 0x00, 0x01, 0x00, 0x00, 0x00, 0x01, 0x00, 0x00, 0x00,
  0x00, 0x00, 0x00, 0x01, 0x01, 0x00, 0x00, 0x00, 0x10, 0x00, 0x00, 0x00,
  0x03, 0x00, 0x00, 0x00, 0x00, 0x00, 0x00, 0x00, 0x0a, 0x00, 0x00, 0x00,
  0x01, 0x00, 0x00, 0x00, 0x00, 0x00, 0x0a, 0x00, 0x0c, 0x00, 0x07, 0x00,
  0x00, 0x00, 0x08, 0x00, 0x0a, 0x00, 0x00, 0x00, 0x00, 0x00, 0x00, 0x03,
  0x01, 0x00, 0x00, 0x00, 0xe4, 0xae, 0xff, 0xff, 0x14, 0x00, 0x00, 0x00,
  0x11, 0x00, 0x00, 0x00, 0x20, 0x00, 0x00, 0x00, 0xcc, 0x00, 0x00, 0x00,
  0xb4, 0x00, 0x00, 0x00, 0x04, 0x00, 0x00, 0x00, 0x01, 0x00, 0x00, 0x00,
  0x32, 0x00, 0x00, 0x00, 0x03, 0x00, 0x00, 0x00, 0x08, 0x00, 0x00, 0x00,
  0x97, 0x00, 0x00, 0x00, 0x73, 0x65, 0x71, 0x75, 0x65, 0x6e, 0x74, 0x69,
  0x61, 0x6c, 0x5f, 0x33, 0x34, 0x2f, 0x63, 0x6f, 0x6e, 0x76, 0x32, 0x64,
  0x5f, 0x32, 0x34, 0x36, 0x2f, 0x52, 0x65, 0x6c, 0x75, 0x3b, 0x73, 0x65,
  0x71, 0x75, 0x65, 0x6e, 0x74, 0x69, 0x61, 0x6c, 0x5f, 0x33, 0x34, 0x2f,
  0x63, 0x6f, 0x6e, 0x76, 0x32, 0x64, 0x5f, 0x32, 0x34, 0x36, 0x2f, 0x42,
  0x69, 0x61, 0x73, 0x41, 0x64, 0x64, 0x3b, 0x73, 0x65, 0x71, 0x75, 0x65,
  0x6e, 0x74, 0x69, 0x61, 0x6c, 0x5f, 0x33, 0x34, 0x2f, 0x63, 0x6f, 0x6e,
  0x76, 0x32, 0x64, 0x5f, 0x32, 0x34, 0x36, 0x2f, 0x43, 0x6f, 0x6e, 0x76,
  0x32, 0x44, 0x3b, 0x73, 0x65, 0x71, 0x75, 0x65, 0x6e, 0x74, 0x69, 0x61,
  0x6c, 0x5f, 0x33, 0x34, 0x2f, 0x63, 0x6f, 0x6e, 0x76, 0x32, 0x64, 0x5f,
  0x32, 0x34, 0x36, 0x2f, 0x42, 0x69, 0x61, 0x73, 0x41, 0x64, 0x64, 0x2f,
  0x52, 0x65, 0x61, 0x64, 0x56, 0x61, 0x72, 0x69, 0x61, 0x62, 0x6c, 0x65,
  0x4f, 0x70, 0x2f, 0x72, 0x65, 0x73, 0x6f, 0x75, 0x72, 0x63, 0x65, 0x00,
  0x04, 0x00, 0x00, 0x00, 0xff, 0xff, 0xff, 0xff, 0x32, 0x00, 0x00, 0x00,
  0x03, 0x00, 0x00, 0x00, 0x08, 0x00, 0x00, 0x00, 0x50, 0xaf, 0xff, 0xff,
  0x66, 0xb0, 0xff, 0xff, 0x04, 0x00, 0x00, 0x00, 0x00, 0x10, 0x00, 0x00,
  0x94, 0x96, 0xf3, 0x3e, 0x9c, 0xf0, 0x80, 0x3d, 0x15, 0x95, 0x98, 0x3e,
  0xb8, 0x8b, 0x95, 0xbd, 0x32, 0x3e, 0xd0, 0xbe, 0xbd, 0x62, 0x21, 0x3f,
  0x33, 0xb2, 0x1b, 0xbf, 0x2e, 0x28, 0x9c, 0x3e, 0xec, 0x84, 0x5c, 0x3f,
  0x68, 0x18, 0x02, 0xbf, 0x2f, 0x22, 0x3a, 0x3f, 0xd2, 0x3f, 0x92, 0x3e,
  0x2b, 0x04, 0x3c, 0xbd, 0xc7, 0x67, 0xd2, 0xbd, 0xa1, 0x9b, 0xd4, 0xbe,
  0x14, 0x63, 0x0d, 0x3e, 0xf0, 0x2c, 0x53, 0xbd, 0xa9, 0xea, 0x0e, 0x3e,
  0x6f, 0xba, 0xde, 0xbd, 0x4d, 0xbc, 0x47, 0x3e, 0x0e, 0xec, 0x94, 0x3d,
  0x6f, 0x5d, 0x33, 0x3e, 0xa5, 0xc0, 0x2a, 0x3e, 0xb0, 0x2f, 0x14, 0xbe,
  0x59, 0x63, 0x1d, 0x3e, 0xc0, 0x80, 0x34, 0xbc, 0x6f, 0xc6, 0x0d, 0x3e,
  0x79, 0x59, 0x55, 0x3e, 0xf0, 0x70, 0x4c, 0xbc, 0xf9, 0x13, 0x0e, 0x3e,
  0x31, 0xb2, 0x1f, 0x3e, 0x3c, 0x60, 0x01, 0xbe, 0x4d, 0xa6, 0x3d, 0x3e,
  0xa1, 0x0d, 0x48, 0xbe, 0x3c, 0xd9, 0x5a, 0xbd, 0x6d, 0x51, 0x4b, 0x3e,
  0x69, 0x70, 0x24, 0x3e, 0x24, 0xb0, 0x0c, 0x3d, 0x98, 0x6c, 0xf4, 0xbc,
  0x8f, 0x0b, 0x0f, 0xbe, 0x4a, 0xd3, 0x0d, 0xbe, 0xa2, 0x48, 0x87, 0x3d,
  0x48, 0xd8, 0xd5, 0xbd, 0xf8, 0x37, 0x05, 0x3d, 0xc7, 0x44, 0xfd, 0xbd,
  0xf9, 0x25, 0x53, 0x3e, 0xf5, 0xd4, 0x4e, 0x3e, 0xbe, 0x3c, 0x9f, 0x3d,
  0x4c, 0xc5, 0x2c, 0xbe, 0x10, 0xda, 0x6f, 0xbd, 0x2c, 0xaf, 0x37, 0x3d,
  0x4f, 0x4b, 0x37, 0x3e, 0xdc, 0xdc, 0x2b, 0x3d, 0xa0, 0x29, 0x57, 0xbe,
  0xf8, 0x62, 0xfa, 0xbc, 0xd2, 0x89, 0x42, 0xbe, 0xf8, 0x2c, 0x6f, 0xbd,
  0xa6, 0x79, 0x9c, 0x3d, 0x8f, 0x4c, 0x59, 0xbe, 0xf4, 0x88, 0x54, 0x3d,
  0x2d, 0xa9, 0x5a, 0x3e, 0x76, 0xc5, 0xc3, 0x3d, 0xec, 0x2f, 0x31, 0x3d,
  0x4d, 0x9b, 0x49, 0x3e, 0xf3, 0x86, 0x3a, 0x3e, 0xa6, 0xb8, 0x61, 0x3e,
  0xc3, 0x9a, 0xa1, 0x3d, 0xc2, 0x7a, 0x2c, 0x3e, 0x0c, 0x6a, 0x9b, 0xbe,
  0x9c, 0x71, 0x4d, 0x3e, 0x30, 0x91, 0xf2, 0xbe, 0xb4, 0xe7, 0x2f, 0x3e,
  0xee, 0x4c, 0xa6, 0x3f, 0x3c, 0xe8, 0x16, 0xbf, 0x12, 0x9b, 0x14, 0x3f,
  0x5d, 0x6a, 0x60, 0xbd, 0x74, 0xfb, 0xf2, 0xbd, 0xc9, 0x77, 0x8e, 0xbe,
  0x4d, 0x60, 0x1a, 0xbf, 0xfb, 0xa9, 0xf7, 0xbd, 0x01, 0xa0, 0x0d, 0xbe,
  0x59, 0xf3, 0x44, 0xbe, 0x2e, 0x3f, 0x33, 0xbe, 0xe4, 0xa2, 0x29, 0xbd,
  0x80, 0x73, 0xa7, 0xbc, 0x9e, 0xc7, 0xdd, 0x3d, 0xba, 0xdd, 0x89, 0x3d,
  0xf9, 0xdd, 0x45, 0xbe, 0x59, 0x02, 0x12, 0x3e, 0x76, 0x84, 0xb8, 0x3d,
  0x34, 0xa0, 0x4a, 0x3d, 0xe5, 0x93, 0x0b, 0x3e, 0x80, 0x7e, 0x89, 0xba,
  0x4a, 0x6f, 0xe6, 0x3d, 0xe0, 0xf2, 0xaa, 0xbb, 0x8c, 0xb3, 0x1a, 0x3d,
  0xa5, 0x82, 0x3d, 0x3e, 0x90, 0x8b, 0x9d, 0x3c, 0x00, 0x67, 0x2b, 0x3b,
  0x3b, 0xe2, 0x10, 0xbe, 0x24, 0x50, 0x1e, 0x3d, 0xde, 0x54, 0xde, 0xbd,
  0x04, 0x5d, 0xb0, 0xbd, 0x27, 0xf0, 0x58, 0xbe, 0x1c, 0xa4, 0x4a, 0xbe,
  0x4b, 0x88, 0x1a, 0x3e, 0x89, 0x2b, 0x31, 0x3e, 0xa8, 0x01, 0x98, 0xbc,
  0xf4, 0x09, 0x1b, 0x3d, 0xa2, 0xcf, 0x48, 0xbe, 0x45, 0xce, 0x53, 0xbe,
  0xa0, 0xf8, 0xd4, 0xbb, 0xe9, 0xca, 0x4a, 0x3e, 0xc2, 0x33, 0x45, 0xbe,
  0x00, 0xc7, 0x08, 0x3a, 0x66, 0xa6, 0xe0, 0x3d, 0x4d, 0x1f, 0x33, 0x3e,
  0xda, 0xbb, 0xa9, 0xbd, 0xef, 0x6e, 0x29, 0x3e, 0x74, 0x94, 0x40, 0x3d,
  0x23, 0x51, 0x43, 0x3e, 0xa6, 0x36, 0x9b, 0x3d, 0x97, 0x99, 0x02, 0x3e,
  0xe8, 0x01, 0x9e, 0xbd, 0x3a, 0xd2, 0x47, 0xbe, 0x6e, 0x16, 0xd8, 0x3d,
  0xff, 0x9e, 0x3b, 0x3e, 0x3a, 0x6f, 0xc1, 0x3d, 0xe7, 0xff, 0x12, 0xbe,
  0x61, 0x10, 0x2c, 0xbe, 0x7f, 0xe4, 0x54, 0xbe, 0x72, 0x48, 0xaf, 0xbd,
  0x92, 0x57, 0x9d, 0xbd, 0xf5, 0xf9, 0x6e, 0xbd, 0xa8, 0xcf, 0x4f, 0xbe,
  0x1e, 0x69, 0x90, 0x3d, 0xbc, 0xa8, 0x62, 0xbd, 0x5d, 0xc8, 0x4e, 0xbe,
  0x10, 0xa1, 0xa2, 0x3d, 0xec, 0x52, 0x11, 0xbe, 0xc0, 0x1c, 0x8a, 0x3b,
  0xb0, 0x35, 0xfe, 0x3a, 0xce, 0x10, 0x11, 0xbe, 0xb0, 0xeb, 0xbb, 0x3d,
  0xfa, 0xe9, 0x40, 0xbe, 0xc0, 0x2b, 0xb3, 0x3c, 0xfa, 0x26, 0x5b, 0xbe,
  0x5a, 0xdc, 0xd0, 0xbd, 0xc6, 0x04, 0xdc, 0x3d, 0xb4, 0xc2, 0x3a, 0xbe,
  0x7a, 0xd3, 0xa2, 0xbd, 0x64, 0x3c, 0x30, 0x3d, 0x1d, 0xc0, 0x0a, 0x3e,
  0x44, 0x97, 0x46, 0xbd, 0x24, 0x2d, 0x33, 0x3d, 0x6b, 0xc7, 0x0c, 0x3e,
  0xa5, 0x27, 0x22, 0x3e, 0xae, 0xd2, 0x90, 0x3d, 0x00, 0x52, 0xf4, 0x3a,
  0x1c, 0xd0, 0x2c, 0xbe, 0x71, 0x18, 0x4e, 0x3e, 0x84, 0x09, 0x7b, 0x3d,
  0x6e, 0x2a, 0xc5, 0x3d, 0xb8, 0xed, 0xc9, 0xbc, 0x32, 0xcb, 0x39, 0xbe,
  0xd7, 0xc0, 0x26, 0x3e, 0x4e, 0xcf, 0xf7, 0x3d, 0x10, 0xeb, 0x75, 0xbd,
  0xa0, 0xdb, 0xca, 0x3b, 0x96, 0x29, 0x0d, 0xbe, 0xcd, 0xa0, 0x5d, 0xbe,
  0xbe, 0xde, 0xa5, 0xbd, 0xda, 0xa3, 0x47, 0xbe, 0x92, 0x3d, 0xe8, 0x3d,
  0x32, 0x80, 0xcb, 0x3d, 0x3c, 0x4e, 0x06, 0xbe, 0xc0, 0xf5, 0x52, 0xbc,
  0x58, 0xa0, 0xf9, 0x3c, 0x73, 0x25, 0x50, 0x3e, 0xb4, 0x38, 0x4e, 0x3d,
  0xdd, 0x3a, 0x3a, 0x3e, 0x8d, 0x28, 0xfd, 0xbd, 0x80, 0x9c, 0x35, 0x3b,
  0x8a, 0x2a, 0x89, 0x3d, 0x14, 0x79, 0x7d, 0x3d, 0x28, 0x4a, 0xea, 0xbd,
  0x02, 0xd1, 0x42, 0xbe, 0xfe, 0x94, 0xa8, 0x3d, 0x66, 0x32, 0xc6, 0x3d,
  0xe7, 0x36, 0x2f, 0x3e, 0xfd, 0x8f, 0x3f, 0xbe, 0x48, 0x08, 0x9f, 0x3c,
  0xf7, 0xc6, 0xd0, 0xbe, 0x21, 0xf2, 0x27, 0x3d, 0x88, 0xae, 0xfe, 0xbe,
  0xf4, 0x9b, 0x3b, 0xbf, 0x7d, 0x51, 0x2d, 0x3e, 0x78, 0x33, 0x3a, 0xbe,
  0x96, 0xd8, 0xe0, 0x3d, 0x14, 0x76, 0xc3, 0xbe, 0x26, 0xd0, 0x08, 0x3f,
  0x25, 0xba, 0xf6, 0x3e, 0xf0, 0x08, 0x33, 0x3f, 0x31, 0xd5, 0x46, 0x3f,
  0xde, 0x0b, 0xec, 0xbd, 0xcf, 0xfc, 0xb9, 0xbe, 0xa8, 0xba, 0xeb, 0x3e,
  0x31, 0xef, 0x15, 0x3e, 0x98, 0xc5, 0xa9, 0x3c, 0x4e, 0xed, 0x4f, 0xbe,
  0x88, 0x22, 0xd4, 0xbd, 0x5a, 0xf9, 0x9e, 0x3d, 0xc0, 0x49, 0x1c, 0xbc,
  0x28, 0xfd, 0xe5, 0x3c, 0x10, 0xa6, 0x85, 0xbd, 0x2e, 0x7c, 0x38, 0xbe,
  0xcc, 0x99, 0x1d, 0xbd, 0xd3, 0x74, 0x08, 0x3e, 0x17, 0x09, 0x4e, 0x3e,
  0x08, 0x25, 0xb3, 0x3c, 0xa8, 0x76, 0x3d, 0xbe, 0x3c, 0x77, 0x18, 0xbe,
  0x60, 0xfa, 0xc0, 0xbb, 0x63, 0xa2, 0x4e, 0x3e, 0x5a, 0x2b, 0xca, 0x3d,
  0xf5, 0xe7, 0x4c, 0x3e, 0xb9, 0xc4, 0x02, 0x3e, 0x58, 0x9a, 0x51, 0xbd,
  0xc6, 0xa2, 0x57, 0xbe, 0x35, 0xb1, 0x16, 0x3e, 0xf0, 0xa8, 0x9f, 0xbd,
  0x56, 0xed, 0xe5, 0xbd, 0x14, 0xca, 0x68, 0xbd, 0x29, 0x68, 0x44, 0x3e,
  0xac, 0x7a, 0x2e, 0x3d, 0x1c, 0x23, 0x5a, 0x3d, 0x90, 0x80, 0x45, 0xbd,
  0x67, 0xbc, 0x5c, 0x3e, 0x62, 0x7d, 0xd8, 0x3d, 0x42, 0xdc, 0x9a, 0xbd,
  0x50, 0x4d, 0x9d, 0xbc, 0xe4, 0x37, 0x65, 0x3d, 0xf8, 0xfc, 0x4c, 0xbe,
  0x22, 0x50, 0x2b, 0xbe, 0x4a, 0xad, 0xa3, 0x3d, 0x90, 0xb3, 0x42, 0xbe,
  0x2b, 0x84, 0x03, 0x3e, 0xc0, 0xa6, 0x01, 0xbd, 0x0c, 0xb2, 0x6e, 0xbd,
  0x44, 0xe8, 0x27, 0xbe, 0x34, 0x1f, 0x82, 0xbd, 0xaf, 0x26, 0x54, 0xbe,
  0x1a, 0x31, 0xb6, 0x3d, 0xb7, 0xba, 0x27, 0x3e, 0x7c, 0x58, 0x27, 0xbd,
  0x8f, 0x1a, 0x15, 0x3e, 0xc8, 0xca, 0x5a, 0x3e, 0xbc, 0x98, 0x21, 0xbd,
  0xa7, 0xf4, 0xaa, 0x3c, 0x5d, 0x60, 0x3b, 0x3e, 0x95, 0xb6, 0xcb, 0x3d,
  0x0a, 0x6a, 0xa2, 0x3e, 0x34, 0x21, 0xb9, 0xbe, 0x3d, 0x11, 0x07, 0xbe,
  0x00, 0x62, 0x52, 0x3f, 0x14, 0xb2, 0x19, 0xbf, 0x01, 0xab, 0x0e, 0x3f,
  0x34, 0x2f, 0x86, 0xbe, 0x24, 0x28, 0xb6, 0xbd, 0x7e, 0x48, 0xa9, 0xbe,
  0xae, 0x8a, 0x7d, 0xbe, 0x63, 0x0e, 0x09, 0xbd, 0x6a, 0x05, 0x85, 0xbd,
  0x3a, 0x62, 0xdf, 0xbd, 0x53, 0x44, 0x43, 0xbe, 0x50, 0x0f, 0x42, 0x3c,
  0xc6, 0xcc, 0xdc, 0xbd, 0xd8, 0x25, 0xb5, 0xbd, 0xd8, 0x53, 0x4d, 0xbe,
  0x87, 0xed, 0x18, 0x3e, 0x60, 0x8f, 0x07, 0xbd, 0x8c, 0x60, 0x29, 0x3d,
  0xa3, 0x97, 0xcd, 0xbd, 0x40, 0xb0, 0x09, 0xbe, 0x30, 0x4f, 0x6e, 0x3c,
  0x4e, 0x1f, 0xab, 0x3d, 0xf7, 0x90, 0x36, 0x3e, 0xb0, 0xa2, 0xad, 0x3c,
  0xb8, 0x33, 0x45, 0xbe, 0xfe, 0x61, 0x1d, 0xbe, 0x76, 0x6d, 0xd8, 0x3d,
  0xa7, 0x40, 0x01, 0xbe, 0xf8, 0xc4, 0x99, 0xbd, 0x20, 0x8e, 0xa6, 0x3c,
  0x97, 0x32, 0x1a, 0x3e, 0x2f, 0x14, 0x49, 0xbe, 0xcc, 0x3a, 0x28, 0xbd,
  0x50, 0xb5, 0xd5, 0x3c, 0x76, 0x90, 0x35, 0xbe, 0x34, 0x76, 0xb4, 0xbd,
  0xf0, 0x5c, 0x0c, 0xbc, 0x5b, 0xf5, 0x40, 0x3e, 0xd3, 0xbf, 0x51, 0x3e,
  0x59, 0x8f, 0x2f, 0x3e, 0x93, 0x06, 0x3c, 0x3e, 0xec, 0x36, 0x47, 0x3d,
  0x44, 0xd8, 0x5a, 0x3d, 0xfa, 0xb1, 0x87, 0x3d, 0xa0, 0xec, 0xfd, 0xbc,
  0xe3, 0x56, 0x1b, 0x3e, 0x44, 0x55, 0x19, 0x3d, 0x22, 0x0a, 0xe6, 0xbd,
  0xd9, 0xa1, 0x4c, 0xbe, 0x31, 0xdd, 0x38, 0x3e, 0xf4, 0xa7, 0x22, 0x3d,
  0x70, 0x36, 0xa6, 0x3c, 0x1f, 0xb9, 0x15, 0x3e, 0x2c, 0x51, 0x15, 0xbe,
  0xea, 0xdd, 0xa7, 0x3d, 0x50, 0xd2, 0xeb, 0x3c, 0x38, 0x9e, 0xda, 0x3e,
  0xa7, 0x7e, 0x0a, 0x3c, 0xb2, 0xd9, 0x7f, 0xbd, 0xec, 0x47, 0x10, 0x3e,
  0xd1, 0x4b, 0xb7, 0x3d, 0x1c, 0xd1, 0xf5, 0x3e, 0x27, 0x14, 0xb8, 0xbe,
  0x0d, 0xba, 0x47, 0x3e, 0xcd, 0x8f, 0x74, 0x3f, 0x95, 0x95, 0xe7, 0xbe,
  0x23, 0x94, 0xee, 0x3e, 0xe7, 0x5f, 0x2d, 0x3e, 0x7c, 0x42, 0xa2, 0x3d,
  0x08, 0x82, 0xd2, 0xbd, 0xe4, 0x09, 0xf6, 0xbd, 0x6c, 0x2e, 0x04, 0x3e,
  0xf2, 0x83, 0xcf, 0xbd, 0xef, 0xf2, 0x07, 0x3e, 0x2e, 0x5f, 0xe7, 0x3d,
  0x21, 0x80, 0x44, 0x3e, 0xe4, 0x29, 0x69, 0x3d, 0xf6, 0x89, 0x1a, 0xbe,
  0x5a, 0x47, 0xe9, 0x3d, 0xfc, 0x87, 0x28, 0xbd, 0xa8, 0x1a, 0xad, 0xbd,
  0x32, 0x32, 0xb8, 0x3d, 0xd2, 0x4a, 0x0d, 0xbe, 0x2d, 0xbe, 0x43, 0x3e,
  0x3a, 0xad, 0xde, 0x3d, 0x86, 0x1a, 0x33, 0xbe, 0x10, 0x3a, 0xbb, 0x3c,
  0x0a, 0xca, 0x20, 0xbe, 0x27, 0xed, 0x10, 0x3e, 0x44, 0x7e, 0x35, 0xbd,
  0xd6, 0xc8, 0xb9, 0x3d, 0x18, 0xd9, 0xdb, 0xbd, 0xfe, 0x05, 0x04, 0xbe,
  0x7c, 0x61, 0x19, 0xbd, 0x78, 0x87, 0x41, 0xbd, 0x4a, 0x29, 0x0a, 0xbe,
  0xb3, 0x2b, 0x4d, 0x3e, 0x80, 0xf7, 0xf9, 0x3b, 0x97, 0x09, 0x2d, 0x3e,
  0xc0, 0x8d, 0x6b, 0xbc, 0x76, 0x3f, 0xcb, 0x3d, 0xfe, 0x70, 0xac, 0x3d,
  0x35, 0x83, 0x05, 0x3e, 0x1f, 0xb4, 0x3b, 0x3e, 0x2c, 0x1b, 0x3b, 0xbe,
  0x85, 0xdc, 0x12, 0x3e, 0x19, 0x04, 0x25, 0x3e, 0xcb, 0x75, 0x28, 0x3e,
  0x59, 0x4a, 0x12, 0xbe, 0xd8, 0x51, 0x3f, 0xbd, 0x8a, 0xdf, 0x18, 0xbe,
  0xc8, 0x7a, 0xee, 0xbc, 0x40, 0x42, 0x66, 0x3c, 0x6a, 0x7c, 0xc6, 0x3d,
  0xd6, 0xf2, 0xad, 0xbd, 0xec, 0x29, 0x23, 0x3d, 0xb8, 0x47, 0x99, 0xbc,
  0x80, 0x8a, 0xa6, 0xba, 0x48, 0xb1, 0xce, 0x3c, 0x84, 0x7c, 0xd1, 0xbd,
  0xc2, 0x65, 0x66, 0xbe, 0xc4, 0x65, 0xba, 0x3d, 0xe7, 0xb3, 0x01, 0xbf,
  0x7e, 0x24, 0x3c, 0xbf, 0x3e, 0xd4, 0x92, 0x3e, 0x87, 0x2e, 0xad, 0xbd,
  0xed, 0x06, 0x81, 0x3e, 0x17, 0xeb, 0xa4, 0xbe, 0x1f, 0x89, 0x1b, 0x3f,
  0x51, 0x12, 0xd2, 0x3e, 0x95, 0xaa, 0x1e, 0x3f, 0xcf, 0x71, 0x2d, 0x3f,
  0x77, 0x1f, 0x8f, 0xbc, 0x2c, 0x7a, 0x11, 0xbf, 0x83, 0x12, 0x1e, 0x3f,
  0x7e, 0x98, 0x45, 0xbe, 0x28, 0x9e, 0x50, 0xbd, 0xd1, 0xd6, 0x52, 0xbe,
  0x73, 0x07, 0x49, 0x3e, 0x16, 0xc2, 0xdb, 0x3d, 0x68, 0x17, 0xaf, 0x3c,
  0x20, 0xe4, 0x3f, 0xbe, 0xfd, 0x63, 0x36, 0x3e, 0xb3, 0x76, 0x09, 0x3e,
  0x40, 0xff, 0xac, 0x3c, 0xc0, 0x5e, 0xaf, 0xbb, 0xe6, 0x47, 0xf2, 0x3d,
  0x34, 0xef, 0x2e, 0xbe, 0x28, 0xf9, 0x0b, 0xbd, 0x12, 0x9e, 0x06, 0xbe,
  0x05, 0xb1, 0x28, 0xbe, 0x2b, 0xc8, 0x27, 0x3e, 0xef, 0x20, 0x19, 0x3e,
  0x80, 0xaf, 0x3c, 0x3b, 0xdd, 0xb6, 0xc4, 0xbd, 0x2e, 0xc0, 0x9c, 0xbd,
  0x5d, 0x8b, 0x3a, 0x3e, 0x90, 0x40, 0x0f, 0xbe, 0x76, 0xcc, 0xb0, 0xbd,
  0xc3, 0x39, 0x58, 0x3e, 0x4e, 0x69, 0x86, 0x3d, 0x9f, 0x88, 0x2c, 0x3e,
  0xa2, 0xb5, 0xac, 0x3d, 0x3b, 0x1f, 0x4c, 0x3e, 0x1d, 0x7c, 0xca, 0xbd,
  0x1c, 0x5c, 0xae, 0xbd, 0x0b, 0x15, 0xd5, 0xbd, 0xc8, 0xbf, 0xa2, 0xbd,
  0xd8, 0x68, 0xd3, 0x3c, 0x24, 0x35, 0x10, 0xbd, 0x7c, 0x07, 0x14, 0xbe,
  0x6f, 0xbf, 0x45, 0xbe, 0xc7, 0x89, 0x45, 0x3e, 0x5a, 0x12, 0x29, 0xbe,
  0xbc, 0x4a, 0x6f, 0xbd, 0xfb, 0x42, 0x5c, 0x3e, 0x6b, 0x4d, 0x02, 0x3e,
  0xb6, 0x35, 0x83, 0x3d, 0xf1, 0x09, 0x30, 0x3e, 0xde, 0x83, 0x9a, 0x3d,
  0x7c, 0xc6, 0x3b, 0xbe, 0x36, 0xc1, 0xe0, 0x3d, 0x51, 0x1d, 0xd3, 0xbd,
  0x7d, 0x6e, 0x26, 0xbe, 0x88, 0x73, 0x39, 0xbe, 0x7f, 0xb1, 0x45, 0xbe,
  0x4c, 0x98, 0x3d, 0x3d, 0xd0, 0xaf, 0x7e, 0x3e, 0x6e, 0x7e, 0x32, 0xbe,
  0x1a, 0x4b, 0x7a, 0x3d, 0x77, 0xb0, 0xf5, 0x3c, 0xa0, 0xa4, 0xca, 0x3d,
  0x1e, 0x93, 0x7d, 0x3f, 0x8f, 0x0f, 0xdd, 0xbe, 0xbc, 0x1c, 0x85, 0x3e,
  0xf1, 0x1d, 0x4f, 0xbc, 0x07, 0xb2, 0x27, 0x3e, 0xc4, 0x72, 0xd0, 0xbd,
  0xd5, 0x68, 0x59, 0xbe, 0xf7, 0xe4, 0xd0, 0xbd, 0x70, 0xa4, 0x10, 0xbd,
  0xed, 0x16, 0x2c, 0x3e, 0x63, 0xc4, 0x5a, 0x3e, 0xbe, 0x87, 0xf6, 0x3d,
  0xd0, 0x14, 0x07, 0x3c, 0xb2, 0xdc, 0x8d, 0xbd, 0x6a, 0xf1, 0x59, 0xbe,
  0x16, 0x27, 0x95, 0x3d, 0xdd, 0xc3, 0x1a, 0xbe, 0x76, 0x76, 0xe3, 0x3d,
  0xd4, 0x74, 0x3a, 0xbd, 0xf8, 0x0a, 0xd8, 0x3c, 0x30, 0x09, 0x6c, 0x3c,
  0xc9, 0xde, 0x02, 0x3e, 0x80, 0x02, 0x0d, 0x3b, 0x30, 0x59, 0x0f, 0xbc,
  0xd2, 0xe9, 0x49, 0xbe, 0xaa, 0x3b, 0xec, 0x3d, 0x24, 0xcb, 0xda, 0xbd,
  0x08, 0x81, 0xe6, 0x3c, 0xb4, 0x30, 0x4d, 0xbe, 0xfe, 0x94, 0x84, 0x3d,
  0x9d, 0x93, 0x59, 0x3e, 0x0d, 0x7f, 0x07, 0xbe, 0xb2, 0x5b, 0xa6, 0xbd,
  0x87, 0x4d, 0x34, 0x3e, 0xf4, 0xba, 0x28, 0x3d, 0x93, 0xea, 0x3e, 0x3e,
  0x78, 0xad, 0x80, 0xbd, 0xa4, 0x83, 0x2e, 0x3d, 0xcc, 0x11, 0x24, 0xbe,
  0xb5, 0x3b, 0xc3, 0xbd, 0x00, 0x36, 0xa2, 0xba, 0x2c, 0xdb, 0x19, 0x3d,
  0x51, 0x22, 0x4c, 0x3e, 0xfc, 0x17, 0x5c, 0xbd, 0xee, 0xf0, 0xd3, 0x3d,
  0xee, 0xd5, 0x2f, 0xbe, 0xb5, 0x26, 0x4e, 0xbe, 0x80, 0xb3, 0x41, 0xbc,
  0x4a, 0xd7, 0xb6, 0x3d, 0xd7, 0xdf, 0xe4, 0xbd, 0x2a, 0xc6, 0xa2, 0xbd,
  0x68, 0x39, 0x60, 0xbd, 0x12, 0xe7, 0xd9, 0x3d, 0x48, 0x5b, 0x3d, 0xbd,
  0x11, 0x0c, 0xc4, 0xbd, 0x4d, 0x31, 0x34, 0x3e, 0xb5, 0xec, 0xc1, 0x3e,
  0x22, 0xb2, 0x06, 0xbd, 0x7b, 0x53, 0x56, 0xbd, 0x7c, 0x5a, 0x85, 0x3e,
  0x3b, 0xe2, 0xd9, 0xbe, 0x35, 0xd7, 0x89, 0x3e, 0xec, 0x27, 0x49, 0xbf,
  0xd9, 0xdb, 0x26, 0x3e, 0x0e, 0xba, 0x82, 0x3f, 0xb3, 0xba, 0x0b, 0xbf,
  0x88, 0xe7, 0x68, 0x3f, 0xb1, 0x9e, 0x48, 0xbe, 0xb7, 0xcf, 0x6b, 0xbc,
  0x6d, 0x76, 0xd1, 0xbd, 0x87, 0xc6, 0x40, 0xbf, 0x33, 0xfd, 0x85, 0xbe,
  0x44, 0x04, 0x46, 0x3d, 0xfd, 0xc6, 0x37, 0x3e, 0xea, 0x8b, 0x13, 0xbe,
  0x2d, 0xa9, 0x5a, 0xbe, 0xab, 0xf2, 0x36, 0xbe, 0x39, 0xa7, 0x2a, 0x3e,
  0x00, 0xc0, 0x7c, 0xbc, 0x8f, 0xc5, 0x3c, 0x3e, 0x70, 0x85, 0x76, 0xbd,
  0x31, 0x0a, 0x4f, 0x3e, 0xf4, 0x96, 0x6f, 0xbd, 0x0c, 0xb5, 0x72, 0xbd,
  0x6b, 0x3f, 0x37, 0x3e, 0x9f, 0x91, 0x0d, 0x3e, 0xfc, 0xd4, 0x0b, 0x3d,
  0xc0, 0x29, 0x4d, 0x3b, 0xdc, 0x54, 0x58, 0xbd, 0xd6, 0xf9, 0x9b, 0x3d,
  0x00, 0x97, 0x02, 0xbe, 0x16, 0x1a, 0x90, 0xbd, 0x51, 0x7e, 0x3f, 0x3e,
  0xae, 0xee, 0x8b, 0x3d, 0x9e, 0x5a, 0xd3, 0x3d, 0xd6, 0xcc, 0xba, 0x3d,
  0x44, 0x63, 0x2d, 0x3d, 0x11, 0x5a, 0x1b, 0x3e, 0x37, 0x85, 0x3f, 0x3e,
  0x3c, 0xb6, 0x19, 0x3d, 0xc2, 0x6a, 0xb8, 0x3d, 0xb0, 0xf0, 0x12, 0xbc,
  0xc7, 0x82, 0x47, 0x3e, 0xe0, 0x25, 0xa1, 0xbd, 0x10, 0xd6, 0x7a, 0xbc,
  0xb0, 0x37, 0x3c, 0x3c, 0x5c, 0x36, 0x3c, 0x3d, 0x42, 0xdc, 0xaa, 0x3d,
  0xf5, 0xaf, 0x1d, 0x3e, 0x79, 0x1f, 0x19, 0x3e, 0x99, 0x6e, 0x40, 0x3e,
  0xd8, 0xe0, 0x61, 0xbd, 0x3d, 0xba, 0x5c, 0x3e, 0x98, 0xb0, 0xfa, 0xbc,
  0x30, 0xd5, 0x62, 0x3c, 0x1f, 0x8f, 0x13, 0xbe, 0xde, 0x2d, 0x34, 0xbe,
  0x7a, 0x65, 0xf5, 0x3d, 0xfa, 0x82, 0xd8, 0x3d, 0x43, 0xec, 0x35, 0xbe,
  0xdb, 0x42, 0x8f, 0xbe, 0xb4, 0x54, 0x69, 0x3c, 0x55, 0x04, 0xa8, 0xbe,
  0xaa, 0x06, 0xc9, 0xbe, 0xe0, 0x93, 0x5b, 0x3d, 0xe0, 0x70, 0xb1, 0xbe,
  0xf3, 0xc1, 0xe4, 0x3e, 0x60, 0xd9, 0x72, 0x3e, 0x8e, 0x6b, 0x0b, 0x3e,
  0xf4, 0xdf, 0xa3, 0x3e, 0xca, 0xa5, 0x9a, 0x3e, 0x1d, 0x45, 0x26, 0x3f,
  0x33, 0xcd, 0x10, 0x3e, 0x53, 0xc6, 0x0f, 0xbd, 0x9b, 0x7b, 0x11, 0x3f,
  0xa8, 0x52, 0xe4, 0x3d, 0xa6, 0xfc, 0x09, 0xbe, 0xf4, 0x8d, 0x34, 0xbe,
  0xd4, 0xa6, 0x1b, 0xbe, 0xc1, 0x0d, 0x05, 0x3e, 0xf2, 0x62, 0x98, 0x3d,
  0x9c, 0x43, 0x0d, 0xbe, 0xc1, 0x47, 0x3c, 0xbe, 0xb7, 0x5e, 0x0a, 0x3e,
  0x6c, 0x95, 0x63, 0x3d, 0x6d, 0xd2, 0x37, 0xbe, 0x90, 0x09, 0x6c, 0xbd,
  0x90, 0x1d, 0x7f, 0xbc, 0xe5, 0x38, 0x53, 0x3e, 0xdb, 0x7a, 0x14, 0xbe,
  0xa7, 0x9e, 0x5b, 0xbe, 0x8a, 0xe4, 0xc8, 0xbd, 0x36, 0xd9, 0xe4, 0xbd,
  0x5c, 0x6f, 0x6e, 0xbd, 0xbc, 0xf6, 0x4e, 0xbd, 0x60, 0x67, 0xc4, 0x3c,
  0x77, 0x3b, 0x4e, 0x3e, 0xfa, 0x5b, 0x5a, 0xbe, 0x5d, 0xf1, 0x11, 0x3e,
  0x0a, 0x93, 0x93, 0x3d, 0x8e, 0xa3, 0x30, 0xbe, 0xc0, 0x70, 0x47, 0xbd,
  0xf5, 0x62, 0x52, 0x3e, 0x50, 0x82, 0x53, 0xbc, 0x7c, 0x41, 0x21, 0x3d,
  0x4e, 0x99, 0xae, 0xbd, 0xeb, 0x5b, 0x51, 0x3e, 0xc5, 0x2e, 0x0a, 0x3e,
  0x52, 0xb7, 0x9a, 0x3d, 0x1a, 0x4c, 0x92, 0x3d, 0x21, 0x7a, 0x3b, 0x3e,
  0x6b, 0x9c, 0x3c, 0x3e, 0x0e, 0x3f, 0x90, 0xbd, 0xe8, 0xe6, 0x36, 0xbd,
  0x79, 0x58, 0x58, 0x3e, 0xa4, 0x56, 0x71, 0x3d, 0x0b, 0xd9, 0x37, 0x3e,
  0xb5, 0x3a, 0x18, 0x3e, 0xd8, 0x1a, 0xb3, 0x3c, 0x74, 0x23, 0x41, 0xbd,
  0xca, 0x8d, 0x1a, 0xbe, 0xf8, 0xbf, 0x88, 0xbd, 0xf8, 0xbd, 0xc9, 0xbc,
  0xee, 0xae, 0x4e, 0xbe, 0x53, 0xc2, 0x4f, 0x3e, 0x83, 0x00, 0x90, 0x3d,
  0x94, 0x30, 0x3a, 0x3e, 0xea, 0x91, 0xa9, 0x3e, 0x1b, 0xe3, 0x54, 0xbf,
  0x79, 0x9b, 0x4a, 0x3f, 0x51, 0x0c, 0x6a, 0xbe, 0xc3, 0xc7, 0xbd, 0x3e,
  0x5d, 0xd0, 0x92, 0x3e, 0x44, 0xe4, 0xa1, 0xbe, 0x0d, 0xaa, 0x08, 0x3f,
  0x10, 0x88, 0x3b, 0xbe, 0x11, 0x74, 0xca, 0x3d, 0xa2, 0xd8, 0x81, 0xbe,
  0x79, 0xd9, 0xe3, 0x3d, 0x56, 0x47, 0x3d, 0x3e, 0xa4, 0x7d, 0x09, 0x3d,
  0xe9, 0x23, 0x2d, 0x3e, 0x7a, 0xe6, 0x53, 0xbe, 0xf4, 0x19, 0x3a, 0xbd,
  0x9c, 0xc9, 0xa8, 0xbd, 0xba, 0xec, 0xb6, 0xbd, 0xb5, 0xe6, 0x3c, 0x3e,
  0xfa, 0xd8, 0x23, 0xbe, 0xd5, 0x6d, 0x5b, 0x3e, 0xfe, 0x04, 0x81, 0xbd,
  0x69, 0x5c, 0x52, 0x3e, 0xa4, 0x9c, 0x2a, 0xbd, 0x72, 0x7d, 0x8e, 0x3d,
  0x12, 0xfe, 0xa3, 0xbd, 0xbc, 0xe0, 0x44, 0x3d, 0xb3, 0x7f, 0x26, 0x3e,
  0x40, 0x57, 0xb6, 0xbb, 0xa1, 0x7a, 0x46, 0x3e, 0xee, 0x1b, 0xd4, 0x3d,
  0xbf, 0x8e, 0x14, 0x3e, 0x8c, 0x26, 0x2f, 0xbe, 0xcf, 0x18, 0x0b, 0x3e,
  0x0e, 0xa4, 0x82, 0x3d, 0x51, 0x02, 0x05, 0x3e, 0x92, 0x9e, 0xe6, 0x3d,
  0x00, 0x78, 0xbb, 0xb9, 0xbc, 0x30, 0x42, 0x3d, 0x28, 0xae, 0xf1, 0xbc,
  0xc2, 0x49, 0xa1, 0x3d, 0x42, 0x2d, 0xc6, 0x3d, 0x0c, 0x92, 0x2e, 0x3d,
  0x5e, 0xaa, 0x39, 0xbe, 0x57, 0x86, 0x1d, 0x3e, 0xfc, 0xa7, 0x2c, 0x3d,
  0x2b, 0x0f, 0x48, 0x3e, 0x44, 0x47, 0x1d, 0x3d, 0x17, 0x31, 0x4c, 0x3e,
  0x54, 0x47, 0x13, 0x3d, 0x18, 0xbd, 0x8f, 0xbc, 0xf7, 0xf9, 0x0b, 0xbe,
  0x7d, 0xb9, 0xee, 0xbd, 0xdb, 0xcc, 0x4d, 0x3e, 0xea, 0x12, 0x9d, 0xbd,
  0xd3, 0x1a, 0x39, 0x3e, 0xe3, 0x9a, 0x1e, 0x3e, 0xaf, 0x1c, 0x54, 0x3e,
  0x70, 0x2b, 0x40, 0xbe, 0x32, 0x4e, 0xd2, 0x3d, 0xd4, 0xf5, 0x82, 0xbe,
  0x2d, 0x57, 0xf7, 0xbd, 0x63, 0xdd, 0x5f, 0xbe, 0x46, 0x16, 0xc1, 0xbe,
  0xe7, 0xd0, 0x57, 0x3e, 0xc6, 0x37, 0xa3, 0xbe, 0xfd, 0xd3, 0x7b, 0x3e,
  0x10, 0x53, 0xd8, 0xbe, 0xe4, 0xb6, 0x0a, 0x3f, 0x1e, 0xa4, 0xa5, 0x3e,
  0x6a, 0xc7, 0xb4, 0x3e, 0xcd, 0x2d, 0x01, 0x3f, 0xe2, 0x47, 0x46, 0x3d,
  0xfa, 0xfb, 0xd1, 0xbe, 0x03, 0x2a, 0x26, 0x3e, 0xa1, 0xe2, 0x6f, 0xbd,
  0xda, 0xa5, 0x81, 0xbd, 0x1b, 0x82, 0x52, 0x3e, 0x82, 0x9d, 0xc6, 0x3d,
  0x3c, 0x81, 0x71, 0x3d, 0x4c, 0xd2, 0x36, 0xbe, 0xc8, 0xcb, 0x9d, 0xbd,
  0xe0, 0x62, 0x81, 0x3b, 0xcf, 0x7c, 0x3e, 0xbe, 0x37, 0x96, 0x11, 0xbe,
  0x2c, 0xc2, 0x6b, 0xbd, 0x4a, 0x07, 0xd5, 0x3d, 0x50, 0x44, 0xd3, 0xbd,
  0x70, 0xb2, 0x5b, 0xbe, 0xfb, 0xb9, 0x55, 0xbe, 0xcc, 0x48, 0x47, 0xbe,
  0xc6, 0xc4, 0x10, 0xbe, 0x05, 0xba, 0x4f, 0x3e, 0x00, 0x22, 0xc4, 0xbb,
  0x5c, 0xcc, 0x51, 0x3d, 0xec, 0x90, 0x23, 0x3d, 0xe3, 0xd7, 0x05, 0x3e,
  0xa2, 0x2e, 0xdd, 0xbd, 0xae, 0x38, 0x9f, 0x3d, 0x6a, 0x04, 0xc3, 0x3d,
  0x4c, 0x59, 0x21, 0xbd, 0x8c, 0xf0, 0x53, 0x3d, 0xab, 0x39, 0xde, 0xbd,
  0xe5, 0x5c, 0x04, 0x3e, 0x92, 0x3f, 0x3d, 0xbe, 0x0f, 0x78, 0x18, 0x3e,
  0xa4, 0xfd, 0x48, 0x3d, 0xc2, 0xe8, 0x01, 0xbe, 0xef, 0x3c, 0x35, 0x3e,
  0xd1, 0x3a, 0x41, 0xbe, 0xd1, 0xb1, 0x25, 0x3e, 0xfc, 0x6a, 0x5a, 0x3d,
  0x2e, 0xc4, 0xa3, 0xbd, 0x79, 0xec, 0x2f, 0x3e, 0xec, 0x19, 0x7a, 0x3d,
  0x24, 0xb3, 0x0f, 0xbd, 0xa7, 0xe1, 0x2d, 0x3e, 0x28, 0xb9, 0x43, 0xbe,
  0x13, 0x86, 0x33, 0xbe, 0xfa, 0x4d, 0xb9, 0xbd, 0x5e, 0x27, 0x21, 0xbe,
  0x84, 0xf3, 0x5f, 0x3d, 0x69, 0x4d, 0x18, 0xbe, 0x4c, 0x7a, 0x0c, 0x3d,
  0xf6, 0x8b, 0x22, 0x3f, 0xc7, 0x81, 0x47, 0x3e, 0x61, 0x1c, 0x0d, 0x3f,
  0x9b, 0x2e, 0x06, 0x3f, 0x0b, 0x78, 0x8c, 0xbe, 0x4b, 0xc8, 0xb6, 0x3e,
  0xa2, 0x96, 0x8b, 0xbe, 0x2f, 0x39, 0x10, 0x3f, 0x64, 0x7e, 0x9e, 0x3f,
  0x3a, 0xc9, 0x03, 0xbe, 0x88, 0xa8, 0xd5, 0x3e, 0x21, 0x49, 0x18, 0xbc,
  0xc3, 0x9a, 0x51, 0x3e, 0x7a, 0x4c, 0xef, 0x3d, 0x2f, 0xf4, 0xd9, 0xbe,
  0xba, 0x09, 0xd1, 0xbd, 0xdf, 0x34, 0x5a, 0xbe, 0x55, 0x7a, 0x39, 0x3e,
  0x66, 0xab, 0x1a, 0xbe, 0x6c, 0x37, 0x36, 0xbd, 0xa0, 0xdf, 0xce, 0x3c,
  0xc8, 0x63, 0x5a, 0xbd, 0x82, 0x15, 0x00, 0xbe, 0xb2, 0x23, 0xa0, 0xbd,
  0x54, 0x09, 0x3d, 0x3d, 0x85, 0xb0, 0x3d, 0xbe, 0xec, 0x82, 0x72, 0xbd,
  0x79, 0x02, 0x06, 0x3e, 0x3a, 0x95, 0x8d, 0x3d, 0xb4, 0xb8, 0x1d, 0x3d,
  0xb6, 0xe7, 0xe4, 0x3d, 0xa4, 0x09, 0x5c, 0x3d, 0x10, 0x21, 0xaa, 0xbc,
  0x2b, 0xb3, 0x47, 0x3e, 0x22, 0xfd, 0xb2, 0xbd, 0x7c, 0xdf, 0x1c, 0x3d,
  0x66, 0x96, 0x15, 0xbe, 0x51, 0x13, 0x2c, 0xbe, 0xb8, 0x2a, 0xd4, 0x3c,
  0xde, 0xca, 0x16, 0xbe, 0xb0, 0xd6, 0xa4, 0xbd, 0x24, 0xa3, 0x08, 0xbd,
  0xe6, 0xf9, 0xb4, 0xbd, 0x5d, 0xcb, 0x16, 0x3e, 0x22, 0xe9, 0xdf, 0x3d,
  0x8a, 0x5f, 0xdd, 0xbd, 0x72, 0x98, 0xac, 0x3d, 0x89, 0x97, 0x27, 0xbe,
  0x52, 0x65, 0x2d, 0xbe, 0xe0, 0x48, 0xd3, 0x3b, 0x1c, 0x03, 0x65, 0xbd,
  0x65, 0x03, 0x1e, 0x3e, 0x3a, 0xea, 0x93, 0x3d, 0x04, 0xa9, 0xea, 0xbd,
  0x7f, 0xad, 0x5b, 0xbe, 0x1c, 0x39, 0x4e, 0xbe, 0x1b, 0x58, 0x40, 0xbe,
  0x6a, 0x94, 0xe8, 0x3d, 0x4a, 0x98, 0xe6, 0x3d, 0x2a, 0x84, 0x2b, 0xbe,
  0x99, 0xa4, 0x3b, 0x3e, 0x55, 0xa9, 0x44, 0xbe, 0x50, 0x38, 0x2f, 0xbe,
  0x0b, 0xbe, 0x10, 0x3e, 0x3d, 0xcd, 0x0c, 0x3f, 0xe6, 0x7d, 0xca, 0xbd,
  0x4e, 0xe8, 0xa1, 0x3e, 0xf4, 0xb9, 0x5f, 0x3e, 0xe2, 0x9b, 0xe3, 0xbe,
  0x71, 0xcb, 0x22, 0x3f, 0x04, 0x73, 0x3e, 0xbf, 0xde, 0x9b, 0x67, 0xbd,
  0x92, 0xcb, 0xa5, 0x3f, 0xa8, 0x97, 0x36, 0xbf, 0xe9, 0xd5, 0x54, 0x3f,
  0xed, 0x48, 0x75, 0x3e, 0xe8, 0x49, 0x5c, 0x3b, 0x36, 0x9e, 0x79, 0xbe,
  0x4d, 0x06, 0x2d, 0xbf, 0x18, 0xed, 0xeb, 0xbd, 0xb0, 0x50, 0xaf, 0xbc,
  0x00, 0x50, 0x50, 0xbb, 0x90, 0x7e, 0x23, 0xbe, 0x26, 0x13, 0x94, 0x3d,
  0xdb, 0xec, 0xeb, 0xbd, 0xb2, 0x0c, 0xa3, 0xbd, 0xfb, 0x2d, 0x4f, 0xbe,
  0xce, 0x10, 0x4c, 0xbe, 0xa0, 0x2f, 0x0d, 0xbe, 0xf6, 0xcf, 0x03, 0xbe,
  0xca, 0x32, 0xa4, 0x3d, 0xca, 0xf1, 0x31, 0xbe, 0x4b, 0xa0, 0x3d, 0x3e,
  0x80, 0xf4, 0x82, 0xbc, 0xd0, 0x50, 0x57, 0x3c, 0x10, 0x7f, 0x2b, 0xbe,
  0xeb, 0xab, 0x45, 0x3e, 0x65, 0x91, 0x0e, 0x3e, 0x12, 0x9f, 0x00, 0xbe,
  0x1c, 0x92, 0x20, 0x3d, 0x78, 0x80, 0x45, 0xbe, 0x4a, 0x63, 0xff, 0x3d,
  0x0e, 0xbb, 0xf6, 0x3d, 0x37, 0xc2, 0x4e, 0x3e, 0x76, 0xc8, 0x88, 0xbd,
  0xaa, 0x22, 0xee, 0x3d, 0x34, 0x0e, 0x03, 0x3d, 0x54, 0x82, 0xbe, 0xbd,
  0xa0, 0xa0, 0x05, 0xbe, 0xe9, 0xdf, 0xc5, 0xbd, 0xe8, 0xf8, 0xd7, 0xbc,
  0x3c, 0x36, 0x24, 0x3d, 0x7d, 0x14, 0x0e, 0x3e, 0x00, 0x70, 0x60, 0xba,
  0x63, 0x75, 0xe9, 0xbd, 0xaa, 0x7a, 0x94, 0x3d, 0x2c, 0xc2, 0x17, 0xbd,
  0xd7, 0x13, 0x50, 0x3e, 0x07, 0x46, 0x0c, 0xbe, 0xaa, 0x84, 0xc7, 0x3d,
  0x40, 0x01, 0x39, 0xbe, 0x0b, 0xb1, 0x08, 0x3e, 0xc0, 0x9f, 0x89, 0xbd,
  0x09, 0x7a, 0xed, 0xbd, 0x22, 0x95, 0xa1, 0xbd, 0x81, 0x7c, 0x4a, 0x3e,
  0xc0, 0x0a, 0x31, 0xbe, 0xc0, 0xf4, 0x5e, 0xbd, 0x58, 0x2a, 0x63, 0x3e,
  0xd0, 0x96, 0xdc, 0x3c, 0xd9, 0x51, 0x9c, 0xbe, 0x1e, 0xa2, 0x86, 0xbe,
  0xb7, 0x9c, 0x82, 0x3e, 0x32, 0x22, 0x33, 0x3b, 0x4b, 0x91, 0xf1, 0x3d,
  0x2f, 0x5a, 0x95, 0xbe, 0xb5, 0xb3, 0x98, 0x3e, 0x18, 0xac, 0xab, 0x3d,
  0xdd, 0x81, 0x09, 0x3f, 0xc8, 0xe3, 0xa8, 0x3e, 0x38, 0x10, 0xb8, 0x3c,
  0xc1, 0x3a, 0x8d, 0xbe, 0xe3, 0x9b, 0x84, 0x3e, 0xec, 0xca, 0x7c, 0xbb,
  0x32, 0xb6, 0x8f, 0xbd, 0x30, 0xdf, 0xf7, 0xbc, 0xf6, 0x0f, 0xa7, 0xbd,
  0xda, 0xe4, 0x88, 0xbd, 0x5a, 0x9a, 0x95, 0x3d, 0xf3, 0xfb, 0x24, 0x3e,
  0xa8, 0xf4, 0x08, 0xbe, 0x9e, 0x6d, 0xed, 0x3d, 0x6e, 0x8c, 0xf4, 0x3d,
  0x2e, 0x45, 0xd7, 0x3d, 0x3c, 0xe4, 0x55, 0x3d, 0xa6, 0x28, 0x57, 0xbe,
  0x20, 0xea, 0x9a, 0x3c, 0xfc, 0x2e, 0x02, 0xbe, 0xb2, 0x0f, 0xbe, 0x3d,
  0x0a, 0xbd, 0xd6, 0x3d, 0x9b, 0x0b, 0x2f, 0xbe, 0xdb, 0xef, 0x1d, 0x3e,
  0x43, 0xfb, 0x0a, 0x3e, 0xb0, 0x2b, 0x2b, 0xbd, 0x4d, 0x39, 0x37, 0x3e,
  0x1d, 0x2a, 0x07, 0x3e, 0x01, 0x01, 0x2b, 0x3e, 0x29, 0x8f, 0x3f, 0x3e,
  0x40, 0x80, 0xf6, 0x3c, 0x81, 0x74, 0x4a, 0x3e, 0xe0, 0x2b, 0xa3, 0xbc,
  0xec, 0x3e, 0x45, 0x3d, 0xde, 0xae, 0x2d, 0xbe, 0xed, 0x75, 0x25, 0x3e,
  0xaa, 0x48, 0xa3, 0x3d, 0xc4, 0xc0, 0x97, 0xbd, 0x04, 0x2a, 0x52, 0xbe,
  0xcd, 0xb2, 0x10, 0x3e, 0xbc, 0x07, 0x34, 0xbe, 0xc8, 0xd7, 0x0c, 0xbd,
  0xd5, 0xe4, 0x2d, 0x3e, 0x50, 0x47, 0xd4, 0x3c, 0x2d, 0xeb, 0x2a, 0xbe,
  0xd9, 0x0d, 0x55, 0x3e, 0x5c, 0x0c, 0x05, 0xbe, 0x0d, 0x7e, 0x48, 0xbe,
  0xcb, 0x32, 0x4f, 0x3e, 0x1d, 0x15, 0x5d, 0xbe, 0x55, 0xc6, 0x25, 0x3e,
  0xf0, 0xd5, 0x63, 0xbd, 0xe1, 0xe7, 0x45, 0xbe, 0x81, 0xcb, 0x45, 0x3e,
  0x9a, 0x5d, 0x80, 0xbe, 0xb3, 0x71, 0xac, 0xbd, 0xd0, 0x50, 0xa9, 0xbd,
  0xc9, 0xf8, 0xb7, 0xbc, 0xa0, 0x2c, 0xbe, 0x3e, 0x79, 0x7b, 0x0d, 0xbe,
  0x08, 0x62, 0xef, 0x3e, 0x87, 0xf4, 0xb8, 0xbc, 0x3f, 0x25, 0x22, 0xbe,
  0xf4, 0x65, 0x1b, 0x3e, 0x4c, 0xc5, 0xc7, 0x3d, 0xe6, 0x6b, 0x04, 0x3f,
  0xd8, 0x8c, 0xc7, 0xbd, 0x30, 0xde, 0x3b, 0xbe, 0x3e, 0x63, 0x49, 0x3f,
  0xb2, 0xde, 0x5b, 0x3e, 0xa8, 0x72, 0x65, 0xbd, 0x0e, 0xaa, 0xfd, 0x3d,
  0xeb, 0x40, 0x10, 0x3e, 0xf0, 0xef, 0xde, 0xbd, 0x24, 0x39, 0x91, 0xbd,
  0x93, 0xb2, 0x0c, 0x3e, 0xe6, 0xcf, 0xee, 0xbd, 0x00, 0x0f, 0x2a, 0xbb,
  0x02, 0x35, 0xf6, 0x3d, 0x84, 0x94, 0x58, 0xbe, 0xf4, 0xbb, 0x7a, 0x3d,
  0xf6, 0x66, 0xe3, 0x3d, 0x19, 0xad, 0x04, 0x3e, 0x60, 0xbb, 0x48, 0xbe,
  0x10, 0x71, 0x0e, 0x3c, 0xe8, 0xbb, 0xbd, 0xbc, 0x8a, 0x52, 0xe8, 0x3d,
  0xaf, 0x1f, 0x58, 0x3e, 0xfd, 0x3c, 0x28, 0x3e, 0xc9, 0x10, 0x46, 0x3e,
  0x2c, 0x96, 0x0c, 0xbd, 0xb0, 0xd8, 0xd4, 0xbc, 0x9c, 0xfe, 0x13, 0xbe,
  0x45, 0x57, 0x4b, 0x3e, 0x68, 0xba, 0xa0, 0xbd, 0xc8, 0x6c, 0xbd, 0xbc,
  0x02, 0x29, 0x2c, 0xbe, 0xca, 0x55, 0x1b, 0xbe, 0x64, 0xba, 0x0c, 0xbd,
  0x58, 0x12, 0x99, 0x3c, 0x43, 0xb6, 0x4b, 0x3e, 0x0e, 0x33, 0x0e, 0xbe,
  0x16, 0x46, 0x97, 0xbd, 0x10, 0x97, 0xfb, 0xbc, 0xfa, 0x18, 0x86, 0xbd,
  0xd8, 0x22, 0xf2, 0x3c, 0x30, 0xb8, 0x87, 0xbc, 0x2b, 0x35, 0x1c, 0x3e,
  0xdc, 0x22, 0x14, 0xbe, 0x36, 0x04, 0x9e, 0xbd, 0xf0, 0x43, 0x2c, 0xbc,
  0x86, 0x04, 0xf4, 0xbd, 0x23, 0x64, 0x07, 0x3e, 0x25, 0xd6, 0xbe, 0xbd,
  0x8c, 0xb0, 0xdc, 0xbd, 0x84, 0x1d, 0x37, 0x3d, 0xa3, 0x76, 0x07, 0x3e,
  0x75, 0xba, 0x0d, 0x3e, 0x3e, 0xc0, 0xff, 0xff, 0x10, 0x00, 0x00, 0x00,
  0x10, 0x00, 0x00, 0x00, 0x1c, 0x00, 0x00, 0x00, 0x3c, 0x00, 0x00, 0x00,
  0x04, 0x00, 0x00, 0x00, 0x10, 0x00, 0x00, 0x00, 0x02, 0x00, 0x00, 0x00,
  0x02, 0x00, 0x00, 0x00, 0x10, 0x00, 0x00, 0x00, 0x1f, 0x00, 0x00, 0x00,
  0x73, 0x65, 0x71, 0x75, 0x65, 0x6e, 0x74, 0x69, 0x61, 0x6c, 0x5f, 0x33,
  0x34, 0x2f, 0x63, 0x6f, 0x6e, 0x76, 0x32, 0x64, 0x5f, 0x32, 0x35, 0x31,
  0x2f, 0x43, 0x6f, 0x6e, 0x76, 0x32, 0x44, 0x00, 0xac, 0xbf, 0xff, 0xff,
  0xc2, 0xc0, 0xff, 0xff, 0x04, 0x00, 0x00, 0x00, 0x00, 0x10, 0x00, 0x00,
  0xfb, 0x97, 0x9b, 0x3e, 0xe4, 0xf8, 0xf2, 0x3e, 0xd5, 0x20, 0x35, 0x3f,
  0x33, 0x75, 0xe5, 0x3e, 0x76, 0x83, 0x87, 0xbd, 0x31, 0x3f, 0x0e, 0xbe,
  0xd5, 0x6c, 0x68, 0xbf, 0x5b, 0xcb, 0x2d, 0x3f, 0xff, 0xcb, 0xe7, 0x3e,
  0x27, 0x5e, 0xaa, 0x3e, 0xbe, 0xe4, 0xa0, 0xbd, 0xbc, 0xa5, 0xfb, 0xbe,
  0x47, 0x8b, 0xb5, 0x3e, 0x07, 0x24, 0x96, 0xbe, 0x26, 0x1d, 0xbe, 0x3c,
  0x16, 0x27, 0x0d, 0x3d, 0xdf, 0x92, 0x33, 0x3e, 0xb8, 0x45, 0xa8, 0xbc,
  0x84, 0xcf, 0x27, 0xbe, 0x6e, 0xc1, 0x9f, 0xbd, 0xfc, 0xf4, 0x6a, 0x3d,
  0x3c, 0xdb, 0x9a, 0xbd, 0x24, 0x0a, 0x3f, 0x3d, 0xca, 0x16, 0x82, 0xbd,
  0x33, 0x6e, 0x33, 0x3e, 0xef, 0x35, 0x56, 0x3e, 0x80, 0xc1, 0x9b, 0xba,
  0x57, 0x55, 0x18, 0x3e, 0xc4, 0x73, 0x78, 0x3d, 0x59, 0x56, 0x4a, 0x3e,
  0x56, 0xd3, 0x8c, 0xbd, 0x76, 0xc0, 0x5a, 0xbe, 0xf6, 0xab, 0xf8, 0x3d,
  0x80, 0xc0, 0x45, 0x3b, 0x1c, 0x44, 0x36, 0xbe, 0x68, 0x9d, 0x8b, 0xbc,
  0x43, 0xd6, 0x54, 0x3e, 0x34, 0xfa, 0x3e, 0x3d, 0x9a, 0x01, 0x29, 0xbe,
  0x60, 0x7e, 0xef, 0xbc, 0x49, 0x7c, 0x4c, 0x3e, 0x42, 0x26, 0xa7, 0x3d,
  0x10, 0x95, 0x04, 0x3c, 0x6c, 0x5f, 0x1c, 0x3d, 0xba, 0x1b, 0xe5, 0x3d,
  0xb2, 0x69, 0x4f, 0xbe, 0x96, 0x2f, 0xa5, 0x3d, 0xe2, 0x41, 0x4c, 0xbe,
  0xe2, 0x02, 0xd2, 0xbd, 0xe0, 0xba, 0xf9, 0x3b, 0xbe, 0x24, 0x40, 0xbe,
  0xb3, 0xfd, 0x51, 0x3e, 0xb4, 0x0c, 0x60, 0xbd, 0x62, 0x11, 0xfd, 0xbd,
  0xe4, 0x25, 0x12, 0xbe, 0x00, 0xda, 0x80, 0x39, 0xc0, 0xc3, 0x9e, 0xbc,
  0x80, 0xe5, 0x9c, 0x3c, 0x83, 0xfa, 0x01, 0x3e, 0xd0, 0xea, 0xf9, 0xbc,
  0xcf, 0xbf, 0x45, 0x3e, 0x80, 0x96, 0x5d, 0xbd, 0xd8, 0xbd, 0x23, 0xbd,
  0xf6, 0x51, 0x33, 0xbe, 0xf1, 0x09, 0xc9, 0xbd, 0x82, 0x28, 0x8e, 0xbd,
  0xf1, 0x82, 0x3d, 0xbe, 0xc1, 0xf7, 0xc0, 0x3c, 0xff, 0x28, 0x1b, 0xbe,
  0x7a, 0x52, 0xa4, 0xbd, 0xbf, 0xe8, 0x2f, 0x3e, 0x7f, 0xd3, 0x18, 0xbe,
  0x73, 0xc9, 0xb9, 0xbd, 0x9f, 0x9f, 0x85, 0x3d, 0x03, 0x9f, 0xd1, 0xbc,
  0x9c, 0xdf, 0x8c, 0xbe, 0x50, 0x70, 0x04, 0x3e, 0xcf, 0x67, 0x97, 0xbd,
  0xb5, 0x49, 0xb6, 0xbb, 0x25, 0x61, 0x06, 0x3e, 0xdf, 0xb5, 0x05, 0x3e,
  0x28, 0xd6, 0x1b, 0xbd, 0xb8, 0x00, 0xb1, 0xbc, 0x5e, 0xa9, 0xb3, 0xbd,
  0x00, 0x1d, 0xdb, 0x3c, 0x5c, 0xc7, 0x7c, 0xbd, 0x98, 0x16, 0x06, 0xbe,
  0x45, 0x94, 0x0a, 0xbe, 0xfa, 0x32, 0x4d, 0xbe, 0x89, 0x48, 0x41, 0x3e,
  0xc0, 0x8f, 0x47, 0x3b, 0x45, 0x68, 0x37, 0x3e, 0x35, 0x90, 0x09, 0x3e,
  0x6e, 0xb5, 0xa3, 0x3d, 0xc4, 0x3c, 0x6c, 0xbd, 0x40, 0x2b, 0xbd, 0xbb,
  0x8c, 0x2c, 0xe4, 0xbd, 0xec, 0x96, 0x5f, 0xbd, 0xce, 0xf0, 0xf9, 0x3d,
  0x85, 0x9d, 0x2d, 0xbe, 0x6c, 0x05, 0x44, 0xbe, 0xbb, 0xce, 0x4e, 0xbe,
  0x1d, 0xec, 0x16, 0xbe, 0x2e, 0x2b, 0x26, 0xbe, 0xec, 0xca, 0x4a, 0x3d,
  0xef, 0x25, 0x3b, 0x3e, 0xc8, 0xa2, 0xdb, 0xbd, 0x94, 0xfd, 0x08, 0xbe,
  0x3b, 0x8b, 0x21, 0x3e, 0x66, 0x06, 0xbf, 0xbd, 0xf3, 0xee, 0x0d, 0x3e,
  0x16, 0xc6, 0xe3, 0xbd, 0x76, 0x48, 0xd2, 0x3d, 0xbc, 0x71, 0x9e, 0xbd,
  0xea, 0x30, 0x01, 0xbe, 0x0e, 0xda, 0xf3, 0x3d, 0xe1, 0x03, 0x23, 0x3e,
  0x8b, 0x48, 0x04, 0x3e, 0x40, 0xfa, 0x08, 0x3b, 0x5d, 0xd0, 0x36, 0x3e,
  0xca, 0xc1, 0xc2, 0x3d, 0x9e, 0x02, 0xb4, 0x3d, 0xc4, 0xae, 0x0a, 0xbe,
  0x2c, 0x2c, 0x47, 0x3d, 0x20, 0x27, 0xfa, 0xbb, 0x6a, 0xfc, 0xd2, 0x3d,
  0xf0, 0x90, 0xf2, 0xbc, 0x57, 0xc0, 0x52, 0xbe, 0x77, 0x54, 0xd0, 0x3d,
  0x08, 0x41, 0xd0, 0x3e, 0x05, 0x4a, 0x22, 0x3f, 0xad, 0x24, 0x01, 0x3f,
  0x75, 0x51, 0xfd, 0x3c, 0x5d, 0x87, 0x0a, 0x3e, 0x7f, 0x8d, 0x4a, 0xbf,
  0x67, 0x48, 0x0a, 0x3f, 0xe5, 0xa9, 0x23, 0x3e, 0xb8, 0x61, 0x0f, 0x3f,
  0x5b, 0xd9, 0xad, 0xbe, 0x3f, 0x2c, 0x03, 0xbf, 0xc3, 0xf0, 0xf0, 0x3e,
  0x24, 0x63, 0x89, 0xbe, 0x23, 0xce, 0xec, 0x3d, 0x46, 0x5c, 0x72, 0x3e,
  0x4c, 0x9f, 0x6a, 0x3d, 0x64, 0x55, 0x3e, 0xbe, 0x78, 0xd3, 0x7e, 0xbd,
  0xa9, 0x51, 0x2d, 0xbe, 0x2f, 0xd5, 0x32, 0x3e, 0xb4, 0x0d, 0x20, 0xbe,
  0xdc, 0x04, 0x40, 0x3d, 0x12, 0xe1, 0xcb, 0x3d, 0xd2, 0xc1, 0xf6, 0x3d,
  0x1a, 0x68, 0xa1, 0x3d, 0x2c, 0x39, 0x16, 0xbe, 0x95, 0xcc, 0x18, 0x3e,
  0xdb, 0xab, 0x43, 0xbe, 0xcd, 0xde, 0x3e, 0x3e, 0x00, 0x52, 0x07, 0x3b,
  0xf4, 0x0e, 0x7f, 0x3d, 0xc0, 0x03, 0xf9, 0xbd, 0x90, 0x83, 0x39, 0x3c,
  0x05, 0x80, 0x0e, 0xbe, 0x00, 0x1e, 0xb7, 0xbb, 0xaa, 0x13, 0x40, 0xbe,
  0x60, 0xe4, 0x69, 0xbc, 0xa5, 0x24, 0x3d, 0xbe, 0x96, 0xc9, 0xf2, 0xbd,
  0x48, 0xc0, 0x43, 0xbd, 0xbb, 0xd2, 0xec, 0xbd, 0xa9, 0x00, 0xf0, 0xbd,
  0xdb, 0x6d, 0x15, 0x3e, 0xdb, 0xd0, 0x2a, 0xbe, 0xfb, 0x79, 0x12, 0x3e,
  0x7a, 0x72, 0x86, 0xbd, 0xa7, 0x54, 0x35, 0xbe, 0xc4, 0x38, 0x04, 0xbe,
  0x5a, 0x59, 0x2b, 0xbe, 0x44, 0x88, 0x50, 0xbe, 0x5b, 0x65, 0xe7, 0xbd,
  0x50, 0x47, 0x21, 0xbc, 0x04, 0x87, 0x03, 0x3d, 0x2e, 0x59, 0x1d, 0xbe,
  0xed, 0x74, 0x11, 0xbe, 0x03, 0x59, 0x0f, 0x3e, 0x3c, 0xc6, 0x74, 0x3d,
  0x6c, 0x0c, 0x07, 0xbe, 0xec, 0x68, 0x6e, 0xbd, 0x0d, 0xdd, 0xc7, 0xbd,
  0xcc, 0x7e, 0x18, 0xbd, 0x34, 0x07, 0x14, 0xbe, 0xed, 0xb6, 0x2e, 0x3e,
  0x8a, 0x7a, 0x6d, 0x3e, 0xbd, 0xe2, 0x22, 0x3f, 0xe7, 0x2e, 0xdf, 0x3e,
  0x59, 0x58, 0xe6, 0x3d, 0xfb, 0x2e, 0x68, 0x3e, 0x1f, 0x61, 0x6e, 0xbd,
  0x4a, 0x2b, 0x69, 0xbf, 0x04, 0x35, 0x1e, 0x3f, 0x78, 0x01, 0x10, 0x3f,
  0x67, 0xc0, 0xfc, 0x3e, 0x9b, 0x5a, 0xa8, 0xbe, 0x0b, 0x8f, 0xdd, 0xbe,
  0x3f, 0xdd, 0x0f, 0x3f, 0x7e, 0x82, 0x70, 0x3d, 0x27, 0xb4, 0x35, 0x3d,
  0x0a, 0xb3, 0xc5, 0x3d, 0x38, 0x67, 0xf1, 0xbd, 0xef, 0x04, 0x44, 0xbe,
  0xac, 0x99, 0xb9, 0xbd, 0x71, 0x6f, 0x44, 0xbe, 0x86, 0x3a, 0x9a, 0x3d,
  0x9c, 0x47, 0x45, 0x3d, 0x7f, 0xae, 0x43, 0x3e, 0x22, 0x79, 0xaa, 0x3d,
  0x5c, 0x5a, 0x20, 0x3d, 0xba, 0x67, 0x05, 0xbe, 0xfa, 0x7b, 0x26, 0xbe,
  0xfa, 0x30, 0xb4, 0xbd, 0x89, 0xe2, 0x16, 0x3e, 0xd0, 0xd4, 0x0a, 0xbc,
  0x80, 0xa5, 0xe7, 0x3b, 0x70, 0x52, 0xd3, 0x3c, 0x43, 0x22, 0x38, 0x3e,
  0xc9, 0xcc, 0x25, 0xbe, 0x4e, 0x3b, 0xa2, 0xbd, 0x60, 0x78, 0xd5, 0xbb,
  0x26, 0x69, 0xaf, 0xbd, 0x90, 0xba, 0x5a, 0xbe, 0x96, 0xf1, 0x94, 0x3d,
  0xfc, 0xe2, 0x5d, 0xbd, 0xc7, 0xcf, 0x1e, 0xbe, 0x55, 0x02, 0xe0, 0xbd,
  0x96, 0xca, 0x3b, 0xbe, 0xe2, 0x57, 0x2f, 0xbe, 0x9c, 0x5a, 0x16, 0xbd,
  0xef, 0x95, 0x52, 0x3e, 0xe5, 0xf2, 0x0c, 0x3e, 0x5e, 0xfd, 0xad, 0xbd,
  0x29, 0x73, 0x2c, 0xbe, 0x7a, 0x9c, 0xb4, 0xbd, 0x61, 0x78, 0xbd, 0xbd,
  0x45, 0x41, 0x4b, 0x3e, 0xe2, 0x46, 0x85, 0x3d, 0xc6, 0xc7, 0x36, 0xbe,
  0xec, 0x12, 0x3a, 0xbd, 0x18, 0x0a, 0x1d, 0xbd, 0xe7, 0xeb, 0x10, 0x3e,
  0x63, 0xea, 0x3e, 0xbe, 0xf7, 0x7b, 0x14, 0x3e, 0x90, 0xa0, 0x98, 0xbc,
  0x22, 0x7d, 0x97, 0xbd, 0xac, 0xa8, 0x00, 0xbd, 0xeb, 0x05, 0xf2, 0xbd,
  0x57, 0x7a, 0x5c, 0xbe, 0x54, 0x9f, 0x06, 0xbe, 0x55, 0xa3, 0xa8, 0xbe,
  0xa7, 0x0d, 0xd0, 0xbe, 0x88, 0xc2, 0x80, 0xbd, 0xbf, 0x87, 0x49, 0xbe,
  0xa1, 0x7e, 0x54, 0xbd, 0x0a, 0x77, 0x6b, 0x3f, 0xaf, 0xa1, 0x1c, 0xbe,
  0x57, 0x70, 0xcb, 0xbe, 0xe3, 0xab, 0xc9, 0xbe, 0x73, 0x74, 0x6d, 0x3e,
  0x35, 0x5b, 0xd8, 0x3e, 0xf4, 0x84, 0xc7, 0xbe, 0xea, 0xe1, 0x9f, 0x3e,
  0x7d, 0xe6, 0x36, 0x3e, 0x47, 0xdb, 0xdc, 0xbe, 0x53, 0xf6, 0xff, 0xbd,
  0xfa, 0x57, 0x86, 0xbd, 0xf0, 0x98, 0x82, 0xbd, 0xf6, 0xf2, 0xfc, 0x3d,
  0x3a, 0xba, 0x85, 0xbd, 0xd9, 0xbb, 0x26, 0xbe, 0x89, 0xbb, 0x1e, 0x3e,
  0x66, 0x4f, 0xd1, 0x3d, 0xdf, 0x47, 0x4e, 0x3e, 0x30, 0x56, 0xdd, 0x3c,
  0xb6, 0x45, 0xce, 0x3d, 0xa5, 0x12, 0x47, 0xbe, 0xb1, 0xa9, 0xf4, 0xbd,
  0x64, 0xfd, 0x68, 0x3d, 0xe5, 0xc5, 0x2f, 0x3e, 0x06, 0xb9, 0x80, 0xbd,
  0x6d, 0x8d, 0x05, 0x3e, 0x8c, 0x2d, 0x42, 0x3d, 0x95, 0x5a, 0x3e, 0x3e,
  0x04, 0x77, 0xe2, 0xbd, 0xb0, 0x9d, 0x0e, 0xbd, 0x70, 0x21, 0xa7, 0xbc,
  0x00, 0x8c, 0xac, 0xbb, 0x58, 0x85, 0xc3, 0x3c, 0xc3, 0xc5, 0x10, 0x3e,
  0x7f, 0xe8, 0xc4, 0xbd, 0x8c, 0xe8, 0x6b, 0xbd, 0x04, 0xc8, 0x4b, 0xbd,
  0x50, 0x8c, 0x2b, 0xbd, 0x82, 0x3e, 0xeb, 0x3d, 0xb6, 0x75, 0x38, 0xbe,
  0xca, 0x29, 0xd6, 0x3d, 0xcd, 0xc7, 0xcb, 0xbd, 0x21, 0x1e, 0x56, 0xbe,
  0xae, 0xcb, 0xfe, 0xbd, 0xba, 0x2a, 0x97, 0xbd, 0x8c, 0xd7, 0x3a, 0x3d,
  0x78, 0x30, 0x1a, 0xbd, 0x5c, 0x47, 0xb7, 0xbd, 0x12, 0x22, 0x93, 0xbd,
  0x96, 0x04, 0x5c, 0xbe, 0xaa, 0xd6, 0x8d, 0x3d, 0x43, 0x3d, 0x02, 0x3e,
  0x15, 0x0e, 0x20, 0xbe, 0x82, 0x8a, 0x82, 0x3d, 0x64, 0x11, 0x23, 0x3d,
  0x36, 0xf1, 0xc7, 0xbd, 0x00, 0x60, 0x6a, 0x3b, 0x2b, 0x52, 0x9f, 0x3e,
  0xe6, 0x09, 0x9e, 0x3e, 0xe8, 0x45, 0x0f, 0xbe, 0x08, 0xfe, 0xee, 0x3e,
  0x45, 0x70, 0x04, 0x3e, 0xfa, 0x5a, 0x51, 0xbe, 0x45, 0x71, 0xbc, 0xbd,
  0xb8, 0xab, 0x9e, 0x3e, 0xd2, 0xf8, 0x81, 0x3e, 0x5a, 0xbe, 0x29, 0x3f,
  0x48, 0x84, 0x19, 0xbf, 0xec, 0xe8, 0x77, 0xbe, 0x28, 0x19, 0x67, 0xbd,
  0xd5, 0xb3, 0xbc, 0xbd, 0xd0, 0xdf, 0x5f, 0xbe, 0x90, 0xf0, 0x18, 0x3e,
  0x0c, 0xf3, 0x1a, 0xbe, 0x13, 0x52, 0x07, 0x3e, 0x95, 0x9c, 0x53, 0xbe,
  0x85, 0x00, 0x07, 0x3e, 0xd4, 0x07, 0x60, 0x3d, 0xa9, 0x69, 0x27, 0xbe,
  0x9e, 0x43, 0xcf, 0xbd, 0xa5, 0xb0, 0x38, 0x3e, 0x78, 0x11, 0x42, 0xbe,
  0xc2, 0xf6, 0xf8, 0x3d, 0x6f, 0xb4, 0x0f, 0xbe, 0x29, 0x68, 0x22, 0x3e,
  0xfd, 0xe9, 0x45, 0x3e, 0x0a, 0x36, 0xfe, 0x3d, 0x63, 0x9c, 0x47, 0x3e,
  0x82, 0x85, 0x8f, 0xbd, 0xb0, 0x25, 0x33, 0xbc, 0x32, 0x38, 0xbe, 0x3d,
  0x8b, 0xc8, 0x48, 0x3e, 0xc5, 0x68, 0x20, 0x3e, 0x14, 0xf0, 0x4a, 0xbe,
  0xb4, 0x1e, 0x35, 0xbe, 0x19, 0xd9, 0x4a, 0x3e, 0x9a, 0x46, 0xf1, 0x3d,
  0x7e, 0x3c, 0x92, 0x3d, 0x64, 0x90, 0xb5, 0xbd, 0xc0, 0x5e, 0x15, 0xbd,
  0x44, 0xf3, 0x7f, 0xbd, 0x60, 0xfd, 0x2a, 0xbe, 0xcc, 0x72, 0x44, 0x3d,
  0x18, 0xfc, 0x00, 0x3d, 0xe0, 0x71, 0x78, 0xbd, 0x20, 0x71, 0x07, 0xbe,
  0xa4, 0x95, 0x1e, 0x3d, 0x61, 0xa2, 0x4a, 0xbe, 0x8e, 0x7a, 0xbf, 0x3d,
  0xcc, 0x84, 0x03, 0xbd, 0x92, 0xd6, 0x91, 0xbd, 0x00, 0x6f, 0x99, 0xbb,
  0x80, 0x46, 0x3b, 0x3c, 0x34, 0xe5, 0x60, 0xbd, 0xba, 0x00, 0xde, 0x3d,
  0x54, 0xa1, 0x31, 0xbe, 0x34, 0xb0, 0x12, 0xbe, 0x1c, 0xbd, 0x36, 0xbe,
  0x9d, 0x83, 0x5b, 0x3e, 0x3a, 0xad, 0xb8, 0x3d, 0x20, 0x67, 0x28, 0xbd,
  0x41, 0xb8, 0x9c, 0x3d, 0xb8, 0xcc, 0xeb, 0xbe, 0x91, 0x66, 0x05, 0xbf,
  0xc5, 0x2a, 0xd9, 0xbd, 0x9c, 0x2d, 0x43, 0xbe, 0x6b, 0xf1, 0xf0, 0x3d,
  0x95, 0xbe, 0x80, 0x3f, 0x5e, 0x1c, 0x84, 0xbe, 0x84, 0xeb, 0x93, 0xbe,
  0xf0, 0x6c, 0xd3, 0xbe, 0x5b, 0xd7, 0x79, 0x3e, 0x6d, 0xf3, 0xc6, 0x3e,
  0xed, 0x12, 0x3c, 0xbe, 0x49, 0x02, 0x3a, 0x3e, 0xd8, 0x09, 0x7d, 0x3e,
  0x7d, 0x5b, 0xfb, 0x3d, 0x96, 0x21, 0x38, 0xbe, 0xc5, 0xe7, 0x42, 0xbe,
  0x50, 0x8b, 0x32, 0xbc, 0xd8, 0x5f, 0x72, 0xbd, 0xd6, 0x52, 0x89, 0xbd,
  0x3a, 0xf5, 0x1a, 0xbe, 0x1d, 0x9b, 0x30, 0xbe, 0x34, 0x45, 0x82, 0xbd,
  0xa5, 0x97, 0x44, 0x3e, 0x3d, 0xcd, 0x43, 0xbe, 0x50, 0xcc, 0xf4, 0x3c,
  0x60, 0xb0, 0xc3, 0xbd, 0x4f, 0xa1, 0x2b, 0x3e, 0xf8, 0x84, 0x4c, 0xbd,
  0x43, 0xbf, 0x2a, 0x3e, 0x62, 0x20, 0x36, 0xbe, 0x81, 0x3c, 0x29, 0xbe,
  0x84, 0x93, 0x3d, 0x3d, 0x3f, 0xa8, 0x51, 0x3e, 0x14, 0x56, 0x73, 0xbd,
  0x8c, 0x8a, 0x9b, 0xbd, 0xd7, 0x7a, 0x5a, 0x3e, 0x02, 0x29, 0xbc, 0x3d,
  0xe0, 0xd9, 0x8a, 0xbd, 0x77, 0x27, 0x1a, 0x3e, 0x92, 0x24, 0x95, 0xbd,
  0xdd, 0xf2, 0x5c, 0x3e, 0x36, 0xe8, 0xe9, 0x3d, 0x14, 0xab, 0x29, 0xbd,
  0xe0, 0x1c, 0x71, 0x3c, 0x1e, 0x38, 0x81, 0x3d, 0x4d, 0x2b, 0x16, 0xbe,
  0x84, 0x10, 0x67, 0xbd, 0x5c, 0xdd, 0x07, 0x3d, 0x00, 0x25, 0x6b, 0x3c,
  0x0c, 0xdd, 0x6a, 0x3d, 0x16, 0xca, 0x89, 0x3d, 0x02, 0x31, 0xa0, 0xbd,
  0xb8, 0x6c, 0x6e, 0xbd, 0x02, 0x88, 0xaf, 0x3d, 0xa4, 0x02, 0xf9, 0xbd,
  0xfc, 0x4e, 0x62, 0xbd, 0xb4, 0xa9, 0x7f, 0xbd, 0x98, 0x3a, 0xe8, 0x3c,
  0x4c, 0xaa, 0x4e, 0x3d, 0x4a, 0xdb, 0x27, 0xbe, 0x5d, 0xcd, 0x0b, 0x3e,
  0x2a, 0xc1, 0x30, 0xbe, 0xc5, 0x33, 0x42, 0x3d, 0x7b, 0xe3, 0x63, 0x3e,
  0xf2, 0xb8, 0xb2, 0x3e, 0xa8, 0xd2, 0x26, 0x3e, 0x3f, 0x05, 0x70, 0xbc,
  0x50, 0x80, 0xd1, 0x3d, 0xa8, 0x82, 0x88, 0xbf, 0x9d, 0x9a, 0x30, 0x3f,
  0xd0, 0x44, 0xd8, 0x3e, 0xf6, 0xec, 0xf4, 0x3e, 0x37, 0x06, 0xce, 0xbe,
  0x28, 0x8a, 0x70, 0xbe, 0x05, 0x9e, 0xb7, 0x3e, 0xa0, 0x55, 0x47, 0xbe,
  0xb3, 0xc1, 0x28, 0xbe, 0x1a, 0x3e, 0x82, 0x3e, 0x92, 0xda, 0xbd, 0x3d,
  0x28, 0x17, 0xfe, 0x3c, 0x42, 0x2b, 0xc5, 0x3d, 0xce, 0xf9, 0x9e, 0xbd,
  0xe0, 0x23, 0x2f, 0xbc, 0x90, 0xcf, 0x70, 0xbc, 0xe1, 0xa1, 0x23, 0xbe,
  0x56, 0x73, 0xf2, 0xbd, 0x4c, 0x61, 0x0c, 0x3d, 0xcd, 0x83, 0x45, 0x3e,
  0x6f, 0xe2, 0x00, 0x3e, 0x0e, 0xc0, 0x01, 0xbe, 0x4f, 0xc3, 0x51, 0x3e,
  0x49, 0x64, 0x3b, 0x3e, 0xb0, 0xac, 0x10, 0x3c, 0x59, 0xbb, 0x09, 0x3e,
  0x30, 0xee, 0x07, 0xbe, 0xc8, 0xda, 0x40, 0xbe, 0x1d, 0x14, 0x50, 0xbe,
  0x36, 0xa6, 0xd2, 0xbd, 0xe9, 0x53, 0x28, 0x3e, 0xb4, 0x66, 0x60, 0x3d,
  0x2e, 0x63, 0x46, 0xbe, 0xe8, 0xdd, 0x7a, 0xbd, 0xe8, 0xff, 0x72, 0xbd,
  0xc8, 0xee, 0xe4, 0xbd, 0x60, 0xce, 0x61, 0xbd, 0xd4, 0xea, 0x48, 0x3d,
  0xa8, 0xee, 0x45, 0xbd, 0x8d, 0xf2, 0x03, 0x3e, 0x3e, 0x4a, 0x94, 0x3d,
  0x82, 0x1a, 0x57, 0xbe, 0x9a, 0xf9, 0xef, 0x3d, 0x3a, 0x24, 0x9b, 0x3d,
  0x46, 0xf3, 0xda, 0xbd, 0x86, 0xc1, 0xb3, 0x3d, 0x93, 0x59, 0x08, 0x3e,
  0xfa, 0x6f, 0xd2, 0xbd, 0x35, 0xeb, 0x2d, 0x3e, 0x18, 0xcb, 0x14, 0xbd,
  0xcc, 0x2a, 0x23, 0x3d, 0x80, 0x82, 0x9e, 0xba, 0xfc, 0xcc, 0x49, 0xbe,
  0x00, 0xb0, 0x22, 0xbc, 0x47, 0x85, 0x1f, 0xbe, 0x9d, 0x4f, 0x2c, 0x3e,
  0x60, 0xb4, 0x5e, 0x3c, 0x80, 0x5f, 0xa7, 0xbb, 0x47, 0x23, 0xbb, 0x3e,
  0x79, 0x52, 0x18, 0x3f, 0xc4, 0x76, 0x4c, 0x3f, 0x13, 0x2e, 0x01, 0x3f,
  0x57, 0xc2, 0x8e, 0x3e, 0xab, 0xa3, 0x4a, 0x3c, 0xc3, 0x4b, 0x46, 0xbf,
  0x91, 0x01, 0xf0, 0x3e, 0x4f, 0xc7, 0xb4, 0x3e, 0xcf, 0x4f, 0xe2, 0x3e,
  0x01, 0x54, 0x37, 0xbd, 0x69, 0x52, 0xf0, 0xbe, 0xfe, 0xce, 0x19, 0x3f,
  0xb6, 0x53, 0x3e, 0xbc, 0x46, 0x04, 0x32, 0x3b, 0x31, 0x73, 0x8a, 0x3d,
  0xf0, 0x79, 0x02, 0xbc, 0xa5, 0x27, 0x2d, 0xbe, 0x30, 0x80, 0xe2, 0x3c,
  0xf3, 0x57, 0x49, 0xbe, 0x3d, 0x6a, 0x42, 0x3e, 0x30, 0xd3, 0x33, 0xbe,
  0x21, 0x85, 0x05, 0x3e, 0xf8, 0x96, 0x7c, 0xbd, 0xff, 0xea, 0x2c, 0xbe,
  0xd8, 0x5a, 0x08, 0xbe, 0x3c, 0xbe, 0x4b, 0xbe, 0xd4, 0x08, 0x28, 0xbd,
  0x98, 0x5f, 0x7b, 0xbd, 0x0f, 0x5e, 0x36, 0x3e, 0x3a, 0xe5, 0xf7, 0x3d,
  0x89, 0x64, 0x03, 0x3e, 0x8c, 0x2f, 0x3d, 0xbd, 0x67, 0xf2, 0x06, 0xbe,
  0x78, 0xfa, 0x1a, 0xbd, 0x17, 0xd5, 0x08, 0x3e, 0x80, 0x3f, 0x93, 0x3b,
  0x9c, 0xe1, 0x61, 0x3d, 0x85, 0x24, 0x42, 0x3e, 0x00, 0xf4, 0x72, 0xbc,
  0xd5, 0x89, 0x09, 0xbe, 0x03, 0x17, 0x15, 0x3e, 0x05, 0x53, 0x21, 0xbe,
  0x24, 0xdc, 0x8b, 0xbd, 0xd4, 0x9c, 0x7a, 0x3d, 0x7a, 0x53, 0xdb, 0x3d,
  0x50, 0xf4, 0xd5, 0xbc, 0xcb, 0xd0, 0x4f, 0xbe, 0xa8, 0x51, 0xb4, 0x3c,
  0xaa, 0x86, 0x3f, 0xbe, 0xff, 0xfd, 0x1d, 0xbe, 0xe8, 0xb5, 0xc1, 0xbc,
  0x1d, 0x03, 0x35, 0x3e, 0xec, 0x1a, 0x2a, 0xbe, 0x14, 0x6b, 0x76, 0xbd,
  0xc9, 0xee, 0x2a, 0x3e, 0x54, 0x64, 0x26, 0xbd, 0x70, 0xf9, 0xae, 0x3c,
  0xf2, 0x8e, 0x09, 0xbe, 0x12, 0xc7, 0x94, 0x3d, 0x44, 0x69, 0x64, 0x3d,
  0x46, 0x85, 0xf6, 0xbd, 0xf1, 0x4a, 0x36, 0x3e, 0x36, 0xe9, 0x41, 0xbe,
  0x9a, 0x13, 0x2f, 0xbe, 0xcb, 0x56, 0xab, 0xbe, 0x4c, 0x4a, 0x1f, 0xbf,
  0x72, 0x5c, 0x70, 0xbe, 0x0e, 0x66, 0xcc, 0x3d, 0x11, 0x4b, 0xfe, 0xbd,
  0x56, 0x88, 0x8a, 0x3f, 0xe1, 0xdf, 0x55, 0xbd, 0x13, 0xec, 0xcd, 0xbe,
  0x1f, 0xac, 0x02, 0xbf, 0x67, 0x7b, 0xa7, 0x3e, 0x80, 0xbb, 0x87, 0x3e,
  0x04, 0x31, 0xc7, 0xbe, 0x05, 0x5a, 0xd2, 0x3e, 0x68, 0x35, 0xcc, 0x3e,
  0x6a, 0x86, 0x73, 0xbe, 0x98, 0x97, 0x9b, 0xbd, 0x6d, 0xc0, 0x4e, 0xbe,
  0x92, 0x7a, 0xa6, 0x3d, 0x9a, 0x70, 0xd4, 0x3d, 0xa9, 0x03, 0x58, 0x3e,
  0x33, 0x2b, 0x55, 0x3e, 0x23, 0x01, 0x59, 0x3e, 0x3d, 0x6c, 0x20, 0x3e,
  0x62, 0x4b, 0x1e, 0xbe, 0x50, 0x7f, 0xe0, 0xbd, 0xcb, 0xb5, 0x49, 0xbe,
  0xed, 0x1b, 0x1a, 0x3e, 0x18, 0x23, 0x5d, 0xbe, 0xae, 0xea, 0x9b, 0x3d,
  0xeb, 0xee, 0x4b, 0x3e, 0x3c, 0x15, 0x14, 0xbe, 0x0a, 0xd1, 0x0c, 0xbe,
  0x40, 0x67, 0x2f, 0xbd, 0x20, 0x18, 0xe5, 0x3b, 0x09, 0x6a, 0x4a, 0xbe,
  0x2c, 0xae, 0x30, 0x3d, 0x05, 0xdd, 0x29, 0x3e, 0x37, 0xff, 0x59, 0x3e,
  0xb1, 0x0a, 0x5a, 0xbe, 0x22, 0x49, 0xdc, 0x3d, 0x00, 0xe6, 0x7d, 0x3c,
  0xde, 0x65, 0xa3, 0x3d, 0xdc, 0x52, 0x43, 0xbe, 0x7b, 0x58, 0x35, 0x3e,
  0xd0, 0xa0, 0x03, 0x3c, 0x56, 0x98, 0xd5, 0x3d, 0xf6, 0x4c, 0x91, 0x3d,
  0xa5, 0x8a, 0x1b, 0x3e, 0x98, 0xd4, 0x7a, 0xbd, 0x4d, 0xd9, 0x11, 0x3e,
  0x1b, 0xce, 0x39, 0x3e, 0x47, 0x54, 0x02, 0xbe, 0x9e, 0x04, 0x00, 0xbe,
  0xd0, 0xdf, 0x1e, 0xbe, 0xd0, 0xeb, 0x6a, 0x3c, 0x03, 0x83, 0x47, 0x3e,
  0xd3, 0x78, 0x3f, 0x3e, 0x65, 0x81, 0x48, 0x3e, 0xa1, 0xea, 0x29, 0x3e,
  0x3e, 0xd0, 0xe8, 0x3d, 0xc2, 0xbd, 0xa5, 0x3d, 0xf8, 0x06, 0xa3, 0x3c,
  0x93, 0xc0, 0x3b, 0x3e, 0x34, 0x91, 0xd3, 0xbd, 0x3f, 0x49, 0xfb, 0xbd,
  0x43, 0x0e, 0x56, 0x3d, 0xa2, 0x24, 0x31, 0x3e, 0x43, 0xbc, 0x99, 0xbe,
  0x22, 0x8e, 0x25, 0x3e, 0x17, 0x96, 0xe3, 0xbe, 0xa2, 0x85, 0xe4, 0x3e,
  0x35, 0xf8, 0x01, 0x3e, 0xe4, 0xe4, 0x25, 0x3e, 0xbd, 0xb3, 0x2f, 0xbe,
  0x2e, 0x7a, 0xf0, 0xbd, 0xd0, 0x66, 0xda, 0x3e, 0xfd, 0x6b, 0x2f, 0xbe,
  0x6b, 0x33, 0xd8, 0xbe, 0x5c, 0xdc, 0x52, 0xbe, 0x32, 0x4f, 0x0b, 0xbe,
  0xe3, 0xe8, 0x36, 0x3e, 0xae, 0x98, 0xb1, 0x3d, 0xdf, 0xf6, 0x35, 0x3e,
  0x06, 0xfb, 0xdd, 0x3d, 0x20, 0x47, 0x3c, 0xbd, 0x5c, 0x50, 0xaf, 0xbd,
  0x30, 0xb4, 0x09, 0xbe, 0x32, 0x4b, 0x16, 0xbe, 0xd8, 0x98, 0xbe, 0xbc,
  0xa0, 0x41, 0xab, 0xbb, 0xb4, 0x35, 0x2e, 0xbd, 0xb0, 0x32, 0x93, 0xbd,
  0x4f, 0x6b, 0x55, 0xbe, 0x60, 0xd5, 0xe0, 0xbb, 0xbc, 0xdd, 0x46, 0x3d,
  0xc0, 0xd9, 0xd3, 0x3c, 0xc6, 0x3a, 0x9a, 0x3d, 0xd0, 0x4d, 0xe6, 0xbc,
  0x3b, 0xb0, 0xde, 0xbd, 0xa6, 0x87, 0xe3, 0x3d, 0x4a, 0x02, 0x91, 0xbd,
  0x6b, 0x61, 0xbe, 0xbd, 0x7b, 0xe6, 0x32, 0xbe, 0xe3, 0x3d, 0x56, 0x3e,
  0x8b, 0xd0, 0x50, 0x3e, 0x52, 0x83, 0x8e, 0x3d, 0xd4, 0x24, 0x10, 0xbe,
  0x88, 0xad, 0xdb, 0x3c, 0x64, 0x9b, 0x44, 0x3d, 0xdf, 0xc6, 0x06, 0xbe,
  0xc8, 0xc3, 0x85, 0xbd, 0x2e, 0xda, 0xb0, 0x3d, 0xd0, 0x9a, 0xc2, 0xbd,
  0xe6, 0x1f, 0x9d, 0xbd, 0x22, 0xa1, 0xa0, 0xbd, 0x35, 0x66, 0x43, 0xbe,
  0x40, 0xd6, 0x68, 0xbd, 0x0c, 0x80, 0x8b, 0xbd, 0x82, 0xb5, 0xdb, 0x3d,
  0x4e, 0xa8, 0x9d, 0xbd, 0x6a, 0xc8, 0xc8, 0x3d, 0xae, 0x34, 0xb2, 0x3d,
  0xdc, 0x5d, 0x08, 0x3d, 0x6f, 0xa7, 0x4e, 0xbe, 0xec, 0x5c, 0x52, 0xbe,
  0xb4, 0x81, 0x79, 0x3d, 0x09, 0x04, 0x0a, 0x3e, 0xab, 0xc1, 0x25, 0xbf,
  0xf2, 0x24, 0xc8, 0xbd, 0x07, 0xcc, 0x76, 0xbe, 0x6e, 0x88, 0x62, 0x3e,
  0x39, 0xfb, 0xac, 0xbe, 0xe8, 0xd7, 0x0e, 0xbc, 0xb9, 0x7d, 0x28, 0x3f,
  0x0c, 0x3b, 0x9b, 0xbe, 0x72, 0xb2, 0xcf, 0xbe, 0x87, 0x56, 0xaa, 0xbe,
  0xe1, 0x1d, 0x6d, 0x3e, 0x3f, 0xec, 0xa9, 0x3e, 0x8b, 0xf0, 0x96, 0xbe,
  0x61, 0x2e, 0x50, 0x3e, 0x9e, 0x7c, 0x86, 0x3e, 0x2b, 0x8a, 0x40, 0xbd,
  0xf0, 0x44, 0xc4, 0x3c, 0xb8, 0x8e, 0xf4, 0x3c, 0x09, 0xa1, 0xc9, 0xbd,
  0xee, 0xd9, 0x21, 0xbe, 0xb9, 0xfc, 0x27, 0x3e, 0xee, 0x6f, 0xee, 0x3d,
  0x7b, 0xe7, 0x39, 0x3e, 0x44, 0xf0, 0x24, 0x3d, 0xd5, 0x53, 0x1c, 0x3e,
  0xde, 0xaf, 0x10, 0xbe, 0x62, 0xff, 0xa8, 0x3d, 0x9c, 0xf9, 0x50, 0xbe,
  0x58, 0x6f, 0x02, 0x3d, 0xbe, 0x24, 0x8a, 0x3d, 0xba, 0xeb, 0x2f, 0xbe,
  0xaf, 0x7c, 0x24, 0xbe, 0x80, 0xba, 0xd3, 0xbd, 0x2c, 0x0c, 0x6c, 0x3d,
  0x0a, 0x8e, 0xe9, 0x3d, 0x19, 0xa1, 0xfc, 0xbd, 0x3d, 0x27, 0xde, 0xbd,
  0xe8, 0x0a, 0xd4, 0x3c, 0x3b, 0xc9, 0x04, 0x3e, 0x0c, 0xc2, 0x00, 0xbe,
  0x24, 0xfb, 0xad, 0xbd, 0x16, 0x80, 0xa0, 0xbd, 0x9e, 0x49, 0x99, 0x3d,
  0x5b, 0xef, 0xd6, 0xbd, 0xec, 0xaa, 0x5a, 0xbe, 0x49, 0x27, 0x46, 0x3e,
  0x67, 0x62, 0x20, 0x3e, 0x8f, 0xc0, 0x17, 0x3e, 0xa1, 0xf5, 0x12, 0x3e,
  0xbf, 0xf7, 0x51, 0x3e, 0x93, 0x0f, 0x4c, 0x3e, 0x5b, 0x41, 0x19, 0x3e,
  0x7a, 0xe9, 0x57, 0xbe, 0xcb, 0x77, 0x44, 0x3e, 0xe4, 0x7f, 0x6a, 0x3d,
  0x46, 0x60, 0xe7, 0x3d, 0x78, 0xd0, 0x21, 0xbe, 0xf7, 0x05, 0x35, 0xbe,
  0xc9, 0x7a, 0x1e, 0x3e, 0x90, 0xd3, 0x8e, 0xbd, 0x0a, 0x3e, 0x3c, 0xbe,
  0xa3, 0xb1, 0x59, 0x3e, 0x20, 0x04, 0x79, 0xbd, 0x13, 0xc9, 0x3f, 0x3e,
  0xad, 0xe0, 0x6f, 0xbd, 0x56, 0x81, 0x20, 0x3e, 0x0f, 0x82, 0xa8, 0x3c,
  0x06, 0x5a, 0x85, 0xbe, 0x90, 0x8d, 0x76, 0x3d, 0x4d, 0xcc, 0x23, 0xbe,
  0xc2, 0xcd, 0x63, 0xbe, 0x07, 0xdc, 0x14, 0x3d, 0xc3, 0x32, 0xf0, 0x3d,
  0xb6, 0x4f, 0x15, 0x3d, 0x92, 0x05, 0x52, 0xbe, 0x25, 0xf0, 0x47, 0xbe,
  0x44, 0xcf, 0xd9, 0xbd, 0xc6, 0xb3, 0x3a, 0xbe, 0x12, 0xbf, 0x8f, 0x3d,
  0x09, 0x59, 0x1b, 0xbe, 0xe4, 0xf5, 0x13, 0x3d, 0x6e, 0x4f, 0x07, 0xbe,
  0xb5, 0x10, 0x53, 0x3e, 0x84, 0xd2, 0x7c, 0xbd, 0x3c, 0x0f, 0x4e, 0xbd,
  0x48, 0x8e, 0xb5, 0xbd, 0x06, 0xfb, 0x47, 0xbe, 0x77, 0x36, 0x4c, 0x3e,
  0x00, 0x29, 0x51, 0xbd, 0x6b, 0xd4, 0x4c, 0x3e, 0x28, 0x52, 0x58, 0xbd,
  0x24, 0x6f, 0x65, 0xbd, 0x34, 0xfd, 0xbd, 0xbd, 0x90, 0x00, 0xe3, 0x3c,
  0xff, 0xe6, 0x4f, 0xbe, 0x20, 0x96, 0x84, 0x3c, 0xfd, 0xf1, 0x04, 0x3e,
  0xc6, 0x82, 0x89, 0x3d, 0xb3, 0xbf, 0x2b, 0x3e, 0x7c, 0x6f, 0x5d, 0xbd,
  0xc0, 0xed, 0xae, 0x3c, 0x2c, 0x24, 0x0c, 0x3d, 0x34, 0xab, 0x0e, 0x3d,
  0x80, 0xb6, 0x7e, 0x3c, 0x16, 0xf8, 0x32, 0xbe, 0x09, 0x17, 0x49, 0x3e,
  0xf7, 0x20, 0xf4, 0xbd, 0x5b, 0xf0, 0x32, 0x3e, 0x2a, 0x3c, 0x89, 0xbd,
  0x1e, 0x00, 0xcd, 0x3d, 0x48, 0x26, 0x00, 0x3d, 0x38, 0xe6, 0xeb, 0xbc,
  0xf3, 0xc8, 0xd0, 0xbd, 0xd6, 0xcb, 0xd1, 0xbd, 0x63, 0x6c, 0x21, 0x3e,
  0xec, 0xb9, 0x1b, 0xbe, 0xca, 0xad, 0xbb, 0x3d, 0x80, 0xeb, 0x99, 0x3c,
  0x50, 0x3c, 0x00, 0xbd, 0x2f, 0xed, 0x48, 0x3e, 0x93, 0x88, 0x5c, 0xbe,
  0xfa, 0x38, 0x9b, 0xbd, 0x40, 0x61, 0x2c, 0xbd, 0x57, 0x3d, 0x04, 0x3e,
  0x3e, 0x4d, 0x3b, 0xbe, 0x34, 0xc8, 0x7a, 0x3d, 0x1d, 0x0d, 0x48, 0xbe,
  0xe4, 0x47, 0x47, 0x3d, 0x79, 0xfe, 0xe2, 0x3e, 0xab, 0x43, 0x2f, 0x3f,
  0xfd, 0x66, 0x1b, 0x3f, 0xe3, 0xfb, 0x67, 0xbc, 0xa8, 0x92, 0x24, 0x3d,
  0xf4, 0x88, 0x03, 0x3e, 0x0e, 0x3e, 0x18, 0xbf, 0x56, 0xf1, 0xcb, 0x3e,
  0x23, 0x9b, 0x0e, 0x3f, 0xe9, 0xf7, 0xca, 0x3e, 0x5f, 0x50, 0x86, 0xbd,
  0x99, 0xe2, 0x29, 0xbd, 0xe1, 0xe3, 0xd5, 0x3e, 0x27, 0xfd, 0x4f, 0xbe,
  0xd3, 0xb4, 0x63, 0x3d, 0x57, 0xf0, 0x30, 0x3e, 0x58, 0x13, 0xfc, 0xbc,
  0xe4, 0x70, 0xf0, 0xbd, 0x00, 0x89, 0x79, 0x3a, 0x16, 0x4c, 0xa8, 0xbd,
  0x00, 0xfe, 0xbe, 0xba, 0x4e, 0xd6, 0xe1, 0x3d, 0xa0, 0xf6, 0xc4, 0xbb,
  0x93, 0x36, 0x2e, 0xbe, 0xcb, 0x86, 0x19, 0x3e, 0x82, 0xa4, 0x0a, 0xbe,
  0xac, 0x6b, 0x62, 0x3d, 0x32, 0xd4, 0x94, 0x3d, 0xfa, 0xc0, 0x5a, 0xbe,
  0xc2, 0xd2, 0x0f, 0xbe, 0x06, 0x4b, 0x00, 0xbe, 0x83, 0x46, 0x20, 0x3e,
  0x78, 0x98, 0xc1, 0x3c, 0xc0, 0x1b, 0x30, 0x3c, 0xea, 0xef, 0x93, 0xbd,
  0x28, 0x2b, 0xa6, 0xbc, 0x02, 0x56, 0x23, 0xbe, 0x98, 0x3c, 0x60, 0xbd,
  0xba, 0x81, 0x91, 0xbd, 0xd7, 0xa7, 0x20, 0x3e, 0x2c, 0x18, 0x43, 0xbd,
  0x4d, 0x1a, 0x3f, 0xbe, 0xea, 0x62, 0xc7, 0x3d, 0x8b, 0x2e, 0x47, 0x3e,
  0xb8, 0x74, 0xba, 0xbc, 0xbb, 0x69, 0x56, 0xbe, 0x36, 0x12, 0x30, 0xbe,
  0x7a, 0x0a, 0xa6, 0xbd, 0x71, 0xfd, 0x24, 0x3e, 0x79, 0x79, 0x51, 0x3e,
  0x24, 0x04, 0x76, 0x3d, 0xef, 0x90, 0x20, 0x3e, 0x64, 0xfe, 0x6f, 0xbd,
  0x67, 0x30, 0xf6, 0xbd, 0xf1, 0xe5, 0x1b, 0xbe, 0x88, 0x2d, 0x0e, 0xbd,
  0x42, 0x21, 0x47, 0xbe, 0x50, 0x92, 0x25, 0xbd, 0xe0, 0x95, 0xec, 0xbb,
  0x3d, 0x09, 0x13, 0x3e, 0xf5, 0xb8, 0x41, 0xbe, 0x00, 0x6d, 0x6d, 0x3a,
  0x44, 0x7a, 0x53, 0x3d, 0x65, 0x42, 0x47, 0x3e, 0xf1, 0x49, 0xcb, 0x3e,
  0x27, 0x42, 0x86, 0xbf, 0x99, 0xf1, 0xfa, 0xbe, 0x79, 0xdf, 0x7a, 0x3e,
  0xa7, 0xe9, 0xb1, 0xbd, 0x8b, 0x2a, 0x40, 0xbc, 0xad, 0x5f, 0x79, 0x3d,
  0x0d, 0x1a, 0xe1, 0xbd, 0x0d, 0xc6, 0x53, 0xbe, 0xd9, 0x9c, 0x03, 0xbf,
  0xcf, 0x00, 0x08, 0x3e, 0xb6, 0x4e, 0x06, 0x3e, 0x7a, 0xa8, 0x7e, 0xbe,
  0x90, 0xdd, 0x79, 0x3e, 0x17, 0x14, 0x7f, 0x3e, 0x02, 0xa3, 0x65, 0x3d,
  0x8e, 0x4c, 0xae, 0xbd, 0x44, 0x5f, 0x0f, 0xbe, 0xb3, 0x4b, 0x45, 0x3e,
  0xba, 0x01, 0x86, 0x3d, 0xb6, 0x05, 0xca, 0xbd, 0x80, 0xcf, 0xa4, 0x3b,
  0x88, 0xbf, 0xd2, 0x3c, 0xdd, 0x25, 0x12, 0x3e, 0xa7, 0xc9, 0x50, 0x3e,
  0xec, 0x8d, 0x24, 0x3d, 0x71, 0x26, 0x2d, 0xbe, 0xdd, 0x9d, 0x33, 0x3e,
  0x00, 0xe4, 0x2f, 0xbe, 0x1a, 0x98, 0x12, 0xbe, 0x5f, 0xed, 0xc7, 0xbd,
  0x5f, 0x0f, 0xc7, 0xbd, 0xbe, 0xe1, 0xb2, 0x3d, 0xd1, 0xf8, 0x3d, 0x3e,
  0x13, 0x9a, 0x2c, 0x3e, 0x41, 0x4f, 0x59, 0x3e, 0xf4, 0xef, 0x2b, 0xbd,
  0x00, 0x8f, 0x57, 0xba, 0xc0, 0x0a, 0x88, 0xbb, 0x64, 0x51, 0x2c, 0x3d,
  0x95, 0xc6, 0x31, 0x3e, 0xec, 0xe7, 0x3e, 0xbd, 0x30, 0x74, 0xdd, 0xbd,
  0x74, 0x84, 0x0a, 0xbe, 0x96, 0x64, 0xa4, 0xbd, 0xc3, 0xe2, 0x1b, 0xbe,
  0x2a, 0x98, 0xe5, 0x3d, 0xed, 0x87, 0x40, 0xbe, 0xaa, 0x99, 0xe4, 0xbd,
  0x55, 0xdd, 0x5b, 0x3e, 0xeb, 0x80, 0x4d, 0x3e, 0x06, 0xfb, 0xcc, 0x3d,
  0x00, 0x16, 0xdb, 0x3b, 0xe4, 0x7d, 0x04, 0x3d, 0x62, 0x21, 0x0f, 0xbe,
  0x9e, 0x60, 0xbc, 0x3d, 0xee, 0x99, 0xdb, 0x3d, 0x8e, 0x30, 0x8c, 0x3d,
  0xc0, 0xb4, 0xac, 0xbc, 0x80, 0x48, 0xd4, 0x3c, 0x8d, 0x5a, 0x1b, 0x3e,
  0xfa, 0x12, 0xda, 0x3d, 0x0c, 0xae, 0x07, 0xbe, 0x21, 0xf6, 0x40, 0x3e,
  0x23, 0x7e, 0x03, 0x3c, 0x1c, 0x43, 0xd6, 0xbe, 0x6f, 0x94, 0xc2, 0x3d,
  0x97, 0x45, 0xb3, 0x3d, 0x63, 0x45, 0x88, 0x3d, 0xa5, 0x9d, 0x26, 0xbe,
  0x46, 0x46, 0xbb, 0x3d, 0x5a, 0x41, 0xb4, 0x3c, 0x74, 0xd9, 0xcd, 0xbd,
  0xd3, 0x66, 0x2c, 0xbe, 0x84, 0x40, 0xc3, 0xbe, 0xc9, 0x18, 0x2c, 0xbe,
  0xf8, 0x3e, 0x48, 0xbc, 0xc1, 0x2c, 0xc7, 0xbd, 0xbf, 0x7c, 0xd0, 0xbe,
  0x94, 0x22, 0x53, 0x3e, 0xc2, 0x76, 0xe7, 0x3d, 0xba, 0x41, 0xff, 0x3d,
  0x6b, 0x94, 0x00, 0x3e, 0x4c, 0xc8, 0x57, 0xbd, 0x80, 0x85, 0xf3, 0xbc,
  0x23, 0x92, 0x4c, 0x3e, 0x00, 0xd8, 0x71, 0x39, 0x57, 0x5b, 0x30, 0x3e,
  0xfe, 0xf9, 0x99, 0x3d, 0x5c, 0xd5, 0x47, 0x3d, 0x24, 0xf4, 0xb6, 0xbd,
  0x9a, 0xb0, 0x40, 0xbe, 0x3f, 0x6e, 0x48, 0x3e, 0x24, 0x6e, 0x1c, 0x3d,
  0xf8, 0x75, 0xce, 0xbc, 0xd6, 0x36, 0xe1, 0x3d, 0x89, 0x21, 0x4d, 0x3e,
  0xc4, 0x38, 0x7d, 0x3d, 0xce, 0xd2, 0xd9, 0xbd, 0x74, 0xf7, 0x5d, 0x3d,
  0x22, 0x78, 0xb6, 0x3d, 0x40, 0xcd, 0x51, 0xbb, 0x20, 0xfd, 0xb5, 0xbc,
  0x55, 0x66, 0xf7, 0xbd, 0xdb, 0x03, 0x3b, 0x3e, 0xda, 0x5b, 0xf7, 0x3d,
  0x83, 0xd0, 0xef, 0xbd, 0x3c, 0x74, 0x7c, 0x3d, 0x64, 0x38, 0x0f, 0x3d,
  0x43, 0x99, 0x02, 0xbe, 0x78, 0xde, 0x81, 0xbd, 0x76, 0x09, 0x31, 0xbe,
  0x96, 0xd3, 0xdd, 0x3d, 0x8a, 0x04, 0xd2, 0x3d, 0xac, 0x35, 0x36, 0xbe,
  0x40, 0x72, 0xbe, 0x3b, 0x24, 0x3e, 0xb3, 0xbd, 0x60, 0x29, 0x22, 0x3c,
  0xea, 0xd5, 0x99, 0x3d, 0xce, 0xac, 0x96, 0x3d, 0x76, 0xa5, 0xb0, 0xbd,
  0x00, 0x7f, 0xfa, 0xbb, 0x0a, 0xdd, 0xae, 0xbd, 0xfe, 0xb9, 0xc2, 0xbd,
  0xe8, 0xd0, 0x5d, 0xbd, 0x92, 0x46, 0xab, 0x3d, 0x46, 0x4a, 0x04, 0xbe,
  0xd0, 0x29, 0x41, 0xbc, 0x9a, 0xd0, 0xff, 0xff, 0x10, 0x00, 0x00, 0x00,
  0x0f, 0x00, 0x00, 0x00, 0x1c, 0x00, 0x00, 0x00, 0x3c, 0x00, 0x00, 0x00,
  0x04, 0x00, 0x00, 0x00, 0x10, 0x00, 0x00, 0x00, 0x02, 0x00, 0x00, 0x00,
  0x02, 0x00, 0x00, 0x00, 0x10, 0x00, 0x00, 0x00, 0x1f, 0x00, 0x00, 0x00,
  0x73, 0x65, 0x71, 0x75, 0x65, 0x6e, 0x74, 0x69, 0x61, 0x6c, 0x5f, 0x33,
  0x34, 0x2f, 0x63, 0x6f, 0x6e, 0x76, 0x32, 0x64, 0x5f, 0x32, 0x35, 0x30,
  0x2f, 0x43, 0x6f, 0x6e, 0x76, 0x32, 0x44, 0x00, 0x08, 0xd0, 0xff, 0xff,
  0x1e, 0xd1, 0xff, 0xff, 0x04, 0x00, 0x00, 0x00, 0x00, 0x10, 0x00, 0x00,
  0x59, 0x13, 0xb3, 0x3c, 0x5e, 0xaa, 0xa2, 0x3e, 0x89, 0x57, 0x11, 0x3e,
  0xe6, 0xdc, 0xbd, 0x3d, 0xa4, 0x69, 0xcf, 0xbd, 0x78, 0x07, 0x54, 0xbe,
  0x69, 0x5f, 0xb7, 0x3d, 0x41, 0x72, 0x09, 0x3e, 0x63, 0xea, 0x3a, 0x3e,
  0x67, 0x93, 0xe2, 0x3d, 0x18, 0xca, 0x81, 0xbf, 0xb4, 0xdf, 0xdd, 0xbe,
  0xc5, 0x48, 0x09, 0xbd, 0xf5, 0xfa, 0xa5, 0x3d, 0x5f, 0xa5, 0x98, 0x3e,
  0xab, 0x3c, 0xb6, 0x3e, 0xdb, 0x80, 0xdc, 0xbe, 0xa7, 0xb1, 0xbe, 0xbc,
  0x62, 0xe4, 0x9c, 0xbe, 0x53, 0x44, 0x38, 0x3e, 0xe7, 0xbf, 0x97, 0xbe,
  0x72, 0xdf, 0xa5, 0x3d, 0xcb, 0xfa, 0x6d, 0xbf, 0x19, 0x1b, 0xab, 0x3d,
  0xc7, 0x1c, 0x2a, 0x3d, 0xb7, 0x23, 0x8d, 0xbd, 0x84, 0x08, 0xcf, 0xbe,
  0x46, 0x83, 0xf3, 0xbe, 0x50, 0x67, 0x24, 0xbe, 0xcc, 0xf0, 0xb6, 0x3d,
  0x28, 0x66, 0x03, 0x3e, 0x14, 0x78, 0xe6, 0x3e, 0xee, 0xfb, 0x17, 0x3e,
  0x29, 0xb9, 0x89, 0xb9, 0x00, 0xfc, 0xcc, 0x3e, 0xf1, 0xd7, 0x95, 0xbd,
  0x83, 0x09, 0x85, 0x3e, 0x3c, 0xcf, 0x42, 0xbe, 0x0c, 0x55, 0x6a, 0xbe,
  0x48, 0x82, 0xe7, 0xbe, 0xac, 0x77, 0x57, 0x39, 0x73, 0xea, 0x9e, 0x3d,
  0xa5, 0xc4, 0x7d, 0xbf, 0xfe, 0x67, 0xe8, 0xbd, 0x80, 0x11, 0x91, 0x3e,
  0xed, 0x24, 0xdc, 0x3d, 0xb9, 0xaf, 0x28, 0x3d, 0x37, 0xb0, 0xb4, 0x3e,
  0xed, 0xc8, 0x03, 0xbe, 0xfb, 0x96, 0xb8, 0x3e, 0xf7, 0x99, 0x96, 0x3e,
  0xa6, 0x4d, 0xa4, 0x3e, 0x15, 0xcb, 0x34, 0xbe, 0x56, 0x6d, 0x83, 0x3d,
  0x64, 0xdb, 0xb2, 0xbe, 0xbb, 0x59, 0x82, 0x3e, 0x82, 0x6d, 0x11, 0x3e,
  0xf6, 0x85, 0xce, 0x3d, 0x46, 0x1a, 0xd3, 0x3c, 0xd3, 0xe5, 0x2a, 0xbe,
  0xda, 0xe2, 0x28, 0xbd, 0x85, 0xf1, 0xac, 0x3e, 0x40, 0x8e, 0x59, 0xbe,
  0xdb, 0x66, 0xdb, 0x3e, 0x2a, 0x78, 0xa4, 0x3e, 0x64, 0xaf, 0x83, 0xbe,
  0x58, 0xf0, 0x94, 0x3e, 0x8b, 0x74, 0x80, 0xbe, 0x24, 0x87, 0x7b, 0x3e,
  0x72, 0xe9, 0xf7, 0x3d, 0xba, 0x2e, 0x16, 0x3f, 0xbe, 0xf0, 0xd6, 0xbe,
  0xcd, 0x89, 0x27, 0xbf, 0x0c, 0xc8, 0x2b, 0xbf, 0x8f, 0xc9, 0x8c, 0x3e,
  0xa9, 0xf7, 0x95, 0x3e, 0x77, 0xf2, 0x2c, 0x3e, 0x53, 0x71, 0x39, 0xbf,
  0xb8, 0xc6, 0x96, 0x3d, 0x93, 0xa1, 0x96, 0xbd, 0x41, 0x64, 0xb6, 0x3e,
  0xc3, 0xd4, 0xff, 0xbc, 0xc1, 0xcb, 0xd9, 0x3e, 0x7e, 0x7d, 0x44, 0xbd,
  0x75, 0xe6, 0x03, 0x3f, 0x7f, 0xa7, 0x43, 0x3e, 0xbf, 0xc3, 0x72, 0xbf,
  0x45, 0x7b, 0xa8, 0xbe, 0x8d, 0xfa, 0x12, 0xbf, 0x2a, 0x3a, 0x01, 0xbe,
  0x20, 0x3b, 0x84, 0xbe, 0xf4, 0x28, 0x56, 0x3d, 0x17, 0xca, 0xc5, 0xbd,
  0x6c, 0x89, 0x22, 0x3f, 0xe0, 0xc2, 0xaf, 0x3e, 0x9f, 0xf4, 0x13, 0x3f,
  0x20, 0xd2, 0xb7, 0xbe, 0xd0, 0x9b, 0x2b, 0xbf, 0x40, 0xaa, 0x87, 0xbe,
  0x49, 0xe8, 0x24, 0xbe, 0x2e, 0x42, 0x59, 0xbf, 0x42, 0x04, 0xd6, 0xbd,
  0x58, 0x9d, 0xc1, 0xbd, 0x6a, 0xec, 0x3d, 0xbe, 0x4d, 0x03, 0xdb, 0x3e,
  0xd6, 0x97, 0xc7, 0xbe, 0x01, 0xed, 0x97, 0x3e, 0xb5, 0xfc, 0x8d, 0xbe,
  0xa2, 0x86, 0x44, 0xbe, 0x8a, 0xe0, 0xfc, 0xbe, 0xea, 0x1d, 0xeb, 0xbe,
  0xd0, 0x1d, 0x89, 0x3e, 0x53, 0xa8, 0x77, 0x3d, 0xb4, 0x23, 0x28, 0xbc,
  0xbb, 0xda, 0x07, 0x3f, 0x2a, 0x5a, 0xd6, 0x3e, 0xd7, 0xb2, 0xeb, 0xbe,
  0xda, 0xd5, 0x93, 0xbd, 0x97, 0x9e, 0xac, 0xbf, 0x12, 0xb1, 0xc2, 0xbe,
  0xbd, 0x81, 0xdd, 0xbe, 0xe6, 0xf3, 0xab, 0x3e, 0x31, 0x56, 0x46, 0xbf,
  0x1a, 0x43, 0x65, 0x3e, 0x95, 0x13, 0x9f, 0xbe, 0x19, 0xfa, 0x0c, 0xbe,
  0xc6, 0x2d, 0x69, 0xbd, 0x51, 0xea, 0x24, 0x3e, 0xcb, 0x35, 0x62, 0x3f,
  0x19, 0x60, 0x49, 0xbf, 0x56, 0x8c, 0x0a, 0x3f, 0x8f, 0xa3, 0x75, 0xbe,
  0x08, 0xfb, 0x17, 0x3f, 0xd6, 0xb1, 0x05, 0xbe, 0x68, 0x0a, 0xe4, 0x3e,
  0xf5, 0xd6, 0x22, 0x3f, 0xd1, 0x60, 0xfd, 0xbe, 0x55, 0xa0, 0x40, 0xbf,
  0x89, 0x82, 0x18, 0x3e, 0x1d, 0x46, 0xed, 0x3e, 0x21, 0xb6, 0x31, 0x3f,
  0xa3, 0x43, 0x9b, 0xbe, 0x47, 0xef, 0x24, 0xbf, 0x31, 0x56, 0xd3, 0xbd,
  0x04, 0xf6, 0x8e, 0x3e, 0x52, 0x1e, 0x80, 0xbe, 0x97, 0x34, 0xa1, 0xbd,
  0x00, 0x19, 0x36, 0x3e, 0x5c, 0x69, 0xb4, 0x3e, 0x5a, 0x03, 0x42, 0xbd,
  0x49, 0x00, 0x2b, 0xbe, 0x36, 0xf9, 0xc8, 0x3e, 0x55, 0x2b, 0xe7, 0xbe,
  0x1a, 0xae, 0xd4, 0x3e, 0x89, 0x3a, 0xbc, 0x3e, 0x16, 0x0a, 0xd4, 0xbd,
  0x7c, 0x79, 0xa0, 0xbe, 0xd1, 0x1c, 0x6e, 0xbc, 0xb8, 0xd9, 0x05, 0xbe,
  0x38, 0x77, 0x0d, 0x3f, 0x88, 0xe5, 0x65, 0xbf, 0xf4, 0x91, 0x07, 0xbf,
  0x27, 0xa7, 0x95, 0xbf, 0xc6, 0xd5, 0x10, 0xbf, 0x4e, 0x0f, 0x94, 0xbf,
  0x86, 0x2d, 0x3b, 0xbe, 0xa2, 0x1f, 0x73, 0xbf, 0x14, 0x75, 0xa6, 0xbe,
  0x74, 0x60, 0x07, 0x3a, 0xa0, 0xf8, 0x66, 0xbf, 0xc0, 0xa2, 0x9f, 0x3d,
  0x6a, 0x95, 0x37, 0xbe, 0xd9, 0xde, 0xcb, 0xbe, 0xfe, 0x97, 0x2a, 0xbf,
  0x2d, 0x67, 0xb8, 0x3e, 0x0e, 0x9d, 0x8c, 0xbf, 0x2b, 0x13, 0x60, 0x3e,
  0x28, 0x5d, 0x84, 0x3e, 0x87, 0x5e, 0xed, 0x3e, 0xb7, 0x66, 0xd3, 0xbe,
  0x63, 0x95, 0xb5, 0x3e, 0x1c, 0xdb, 0xa2, 0xbd, 0x9d, 0xba, 0x55, 0xbc,
  0x6d, 0x26, 0xd6, 0x3d, 0xe9, 0x36, 0xfc, 0x3b, 0x03, 0xd3, 0xfe, 0xbe,
  0xb4, 0x6e, 0xf7, 0x3e, 0x01, 0x4f, 0x09, 0x3f, 0x24, 0xd6, 0x81, 0xbe,
  0x72, 0x25, 0x14, 0xbf, 0x87, 0x08, 0x9c, 0xbf, 0xa5, 0xf8, 0xaf, 0xbf,
  0x5e, 0xc5, 0xa2, 0x3d, 0xf3, 0xd0, 0x37, 0x3e, 0xf2, 0x25, 0x1c, 0x3d,
  0xee, 0xc5, 0xd1, 0x3d, 0x0e, 0xa4, 0x90, 0xbe, 0xc7, 0x11, 0x38, 0x3e,
  0x84, 0x06, 0x61, 0xbd, 0x2b, 0x82, 0x7a, 0x3e, 0xf7, 0x08, 0x52, 0xbf,
  0x92, 0x83, 0xe5, 0x3e, 0xb4, 0x30, 0x28, 0x3f, 0xbc, 0x26, 0x45, 0x3e,
  0x5f, 0xd5, 0xda, 0x3e, 0xc4, 0x4a, 0x1c, 0x3e, 0x2c, 0x71, 0x8a, 0x3e,
  0x14, 0xe3, 0x4a, 0x3f, 0x95, 0x29, 0xb9, 0x3d, 0x81, 0x7c, 0x0b, 0x3d,
  0xb8, 0x37, 0x8d, 0x3e, 0xc9, 0x3d, 0x12, 0x3f, 0x9b, 0xce, 0x10, 0x3e,
  0xa6, 0x79, 0x2b, 0xbe, 0x0d, 0x65, 0xd3, 0x3d, 0x0b, 0x69, 0x3f, 0xbe,
  0x44, 0x1a, 0x12, 0x3c, 0xc7, 0xf8, 0x1d, 0xbc, 0x60, 0xb6, 0xfe, 0x3e,
  0xe1, 0x90, 0xe4, 0xbe, 0xc0, 0x78, 0xbb, 0x3e, 0x8d, 0x92, 0x04, 0x3f,
  0x08, 0x58, 0x3e, 0xbd, 0xf0, 0x93, 0xbb, 0x3e, 0x44, 0x3f, 0x90, 0xbe,
  0x8c, 0x09, 0x58, 0xbe, 0x16, 0xc9, 0xd4, 0xbc, 0x29, 0xb2, 0x22, 0x3f,
  0xe4, 0x36, 0xbb, 0xbe, 0x2a, 0xb1, 0xa9, 0x3d, 0x89, 0xa0, 0x8f, 0x3e,
  0x18, 0x30, 0xdb, 0x3e, 0x09, 0xdf, 0x2e, 0xbf, 0x62, 0xb7, 0x02, 0x3e,
  0xf3, 0x0f, 0x48, 0x3e, 0x3d, 0xcd, 0xb7, 0x3e, 0xf1, 0x2f, 0x0e, 0x3f,
  0xac, 0x64, 0xd2, 0x3e, 0xca, 0x2f, 0x03, 0xbf, 0xbb, 0x8e, 0x4c, 0x3e,
  0x8a, 0x65, 0x62, 0xbe, 0xcc, 0xf0, 0x97, 0xbd, 0x69, 0x28, 0x07, 0xbf,
  0xdb, 0x44, 0x1c, 0xbd, 0x97, 0x80, 0xff, 0xbd, 0x14, 0x06, 0x0b, 0x3e,
  0x35, 0x6b, 0x61, 0x3e, 0xaf, 0x2c, 0x03, 0x3f, 0xc1, 0x62, 0xab, 0x3e,
  0xa9, 0x27, 0x2c, 0x3f, 0x8e, 0xac, 0x2f, 0xbe, 0xbd, 0xd4, 0xf3, 0xbe,
  0x59, 0x7a, 0x92, 0x3e, 0x88, 0xbe, 0x4a, 0x3e, 0x06, 0x75, 0x01, 0xbe,
  0x15, 0x6a, 0xce, 0xbe, 0x7c, 0x8b, 0x01, 0xbf, 0x47, 0x1a, 0x4b, 0xbe,
  0x9f, 0x0b, 0x28, 0xbf, 0x2a, 0xb1, 0x1d, 0xbf, 0x23, 0x67, 0xd4, 0x3c,
  0x42, 0x3e, 0xd5, 0x3d, 0x48, 0x8e, 0xa5, 0x3d, 0x4c, 0xda, 0xce, 0x3e,
  0x91, 0x6b, 0xeb, 0xbc, 0xe2, 0xea, 0x5f, 0x3e, 0x61, 0xd4, 0xc7, 0xbe,
  0xaf, 0x8b, 0xab, 0xbf, 0xcd, 0x3f, 0x36, 0xbf, 0x51, 0x17, 0x0b, 0x3f,
  0x80, 0x52, 0x9e, 0x3e, 0xd1, 0x4e, 0xe9, 0x3c, 0xae, 0x1c, 0x9b, 0xbe,
  0x3a, 0x97, 0x62, 0xbd, 0x23, 0x33, 0x82, 0x3e, 0x51, 0x2b, 0x85, 0x3f,
  0x8b, 0x3f, 0x2c, 0xbe, 0x40, 0xc2, 0xb6, 0x3c, 0xa8, 0xe8, 0xbd, 0xbe,
  0x66, 0x48, 0x67, 0x3d, 0x79, 0x82, 0xc5, 0xbe, 0xa4, 0xd3, 0xbc, 0xbe,
  0x68, 0x8d, 0x6c, 0x3e, 0x21, 0x50, 0x71, 0xbd, 0xef, 0x8b, 0x3b, 0x3d,
  0x44, 0xc1, 0xa6, 0xbe, 0x1e, 0x8d, 0x38, 0xbf, 0xeb, 0x94, 0xed, 0xbd,
  0xa0, 0x64, 0x01, 0xbf, 0x81, 0xe7, 0x41, 0xbe, 0x12, 0x3e, 0x11, 0xbe,
  0x7a, 0x10, 0x38, 0xbf, 0x14, 0xf1, 0xc5, 0x3d, 0x25, 0xe9, 0xe8, 0xbd,
  0x06, 0xa6, 0x9b, 0x3e, 0x22, 0x16, 0x5a, 0x3e, 0xde, 0x9e, 0xb8, 0x3d,
  0x49, 0x08, 0xda, 0xbe, 0x97, 0x4b, 0x91, 0x3d, 0xb7, 0x9c, 0x46, 0xbf,
  0xf4, 0xa2, 0x20, 0xbf, 0x53, 0xc3, 0xc9, 0x3e, 0x34, 0x88, 0xf2, 0xbd,
  0x8b, 0x9c, 0x6c, 0xbe, 0x37, 0xb9, 0x31, 0xbe, 0x7b, 0x48, 0xe0, 0xbe,
  0xf0, 0xda, 0x0f, 0xbf, 0xab, 0x46, 0x00, 0xbf, 0x32, 0x1f, 0x54, 0xbe,
  0xf0, 0xee, 0xaf, 0xbc, 0x35, 0x1d, 0xad, 0x3d, 0x04, 0x40, 0x80, 0x3e,
  0x7d, 0x1c, 0x03, 0x3f, 0x8d, 0x72, 0x56, 0xbf, 0xdc, 0xd8, 0x13, 0x3e,
  0x54, 0xed, 0x86, 0xbd, 0xc7, 0xdd, 0xbe, 0x3e, 0xd2, 0x50, 0x82, 0xba,
  0xa2, 0xb7, 0x67, 0x3d, 0xae, 0x38, 0x1e, 0xbe, 0x0d, 0xa8, 0x42, 0xbe,
  0x0b, 0x2a, 0xce, 0x3c, 0x3a, 0x8e, 0x05, 0x3d, 0x7c, 0xa9, 0x21, 0xbe,
  0x3b, 0x8f, 0x28, 0xbd, 0xe9, 0x54, 0xcf, 0xbd, 0xb9, 0xfe, 0x87, 0x3d,
  0xde, 0x2f, 0x2a, 0xbe, 0x7e, 0x2d, 0xce, 0x3a, 0x52, 0x64, 0x0e, 0xbe,
  0xa8, 0x28, 0x96, 0xbd, 0xe1, 0xab, 0x1f, 0xbe, 0x71, 0xb0, 0xd1, 0xba,
  0x61, 0x35, 0xd7, 0x3c, 0xaf, 0x6e, 0xb2, 0xbc, 0xbe, 0xfc, 0x8f, 0xbd,
  0xc9, 0x77, 0x31, 0xbd, 0xd2, 0xc9, 0xab, 0x3d, 0x02, 0xb8, 0x4f, 0x3e,
  0x6f, 0x3e, 0xbc, 0x3d, 0x9a, 0xc6, 0x6e, 0xbc, 0xa9, 0x0b, 0xe8, 0xbd,
  0x47, 0x62, 0x07, 0x3e, 0x2f, 0xd5, 0x34, 0x3e, 0x64, 0x1e, 0x25, 0xbe,
  0x7b, 0xcd, 0x5a, 0xbe, 0xa6, 0x49, 0xc8, 0xbd, 0x51, 0x50, 0x19, 0xbe,
  0xe1, 0xfc, 0x1f, 0xbe, 0x5e, 0x45, 0x96, 0x3d, 0x77, 0xeb, 0xd5, 0x3d,
  0x67, 0x8d, 0x61, 0xba, 0xcd, 0x25, 0x15, 0x3e, 0xe3, 0xc9, 0xdb, 0xbd,
  0x2c, 0x05, 0x82, 0xbe, 0x69, 0x8d, 0x32, 0x3e, 0x4a, 0xd3, 0x45, 0xbe,
  0xda, 0x5a, 0xf1, 0x3d, 0x95, 0x18, 0x54, 0xbe, 0x97, 0xa3, 0xa5, 0x3d,
  0xdd, 0x3c, 0x5c, 0xbe, 0x2b, 0x78, 0x71, 0xbd, 0x48, 0xfd, 0x0b, 0xbe,
  0xb5, 0x16, 0x0a, 0xbd, 0x1a, 0xcf, 0xa6, 0x3d, 0x67, 0x77, 0xfa, 0xbd,
  0x7f, 0x7e, 0x48, 0xbe, 0x34, 0x50, 0x2d, 0x3c, 0x9a, 0x0f, 0x0e, 0x3d,
  0x0b, 0x9a, 0xee, 0xbd, 0x08, 0x63, 0x66, 0xbe, 0x08, 0xb2, 0xa9, 0xbd,
  0xf7, 0x63, 0x09, 0x3d, 0x36, 0xae, 0xa8, 0x3d, 0x38, 0x8a, 0x41, 0xbd,
  0x55, 0xc4, 0x26, 0xbe, 0xd0, 0xb4, 0xca, 0xbc, 0x3e, 0xb8, 0xb7, 0xbd,
  0x66, 0x05, 0x47, 0xbe, 0x91, 0x35, 0x71, 0x3d, 0x57, 0xaf, 0x21, 0xbc,
  0xc6, 0x8f, 0x17, 0x3e, 0x1b, 0x33, 0xc9, 0x3d, 0xd9, 0x3c, 0x00, 0xbd,
  0x47, 0x48, 0x18, 0xbf, 0x50, 0x3d, 0x00, 0x3f, 0x72, 0xeb, 0x19, 0xbf,
  0x31, 0x78, 0xa9, 0x3e, 0xe2, 0xa5, 0x3d, 0xbe, 0x9e, 0x50, 0xba, 0x3d,
  0x4e, 0xea, 0x85, 0xbf, 0x6b, 0x11, 0x51, 0xbe, 0x74, 0x29, 0x6f, 0xbf,
  0x7d, 0x73, 0xb6, 0x3e, 0x07, 0xf1, 0x43, 0xbf, 0xb7, 0xa3, 0x3b, 0xbf,
  0x1f, 0x9b, 0xc2, 0xbe, 0x9f, 0xc7, 0x31, 0xbf, 0x71, 0x70, 0x17, 0x3e,
  0xb0, 0xe2, 0xc3, 0xbe, 0xed, 0xaf, 0x29, 0xbf, 0xdc, 0x92, 0xe2, 0xbe,
  0x2c, 0x15, 0xde, 0xbd, 0x63, 0x67, 0x76, 0x3e, 0xc1, 0x44, 0x99, 0xbe,
  0xab, 0xae, 0x5a, 0x3e, 0x8e, 0x50, 0xbf, 0x3d, 0xad, 0x04, 0xb1, 0xbe,
  0xc1, 0xd3, 0xd3, 0xbe, 0x82, 0xa6, 0xa8, 0xbe, 0xf1, 0x6e, 0xe6, 0x3e,
  0xf0, 0x4a, 0x13, 0x3f, 0xcc, 0x34, 0x65, 0x3f, 0x6d, 0xda, 0x51, 0x3e,
  0x99, 0x71, 0x19, 0xbf, 0x39, 0x5b, 0x74, 0xbe, 0xbb, 0x6d, 0xf1, 0x3e,
  0x8a, 0x03, 0xab, 0x3e, 0x6f, 0xd9, 0x35, 0x3f, 0x5e, 0x39, 0xdd, 0xbe,
  0xaf, 0xd1, 0x86, 0x3e, 0x66, 0xea, 0x8f, 0x3d, 0xf8, 0xc8, 0x29, 0xbe,
  0x1c, 0x93, 0xe8, 0x3e, 0x1a, 0x64, 0x0e, 0xbf, 0x89, 0x97, 0xc5, 0xbd,
  0xbf, 0xda, 0x08, 0x3e, 0x3e, 0x0e, 0x26, 0x3c, 0xb6, 0xeb, 0x04, 0xbf,
  0x5e, 0x8a, 0xa6, 0x3e, 0xe2, 0xd5, 0x58, 0xbf, 0xdc, 0x62, 0xa9, 0xbf,
  0xfc, 0x82, 0x23, 0xbf, 0x0b, 0xa7, 0x9f, 0x3e, 0xdb, 0xe7, 0x06, 0x3e,
  0xef, 0xb0, 0xc9, 0xbe, 0xfe, 0x6e, 0xae, 0xbc, 0xb4, 0x5a, 0x35, 0x3d,
  0x36, 0x02, 0x81, 0x3c, 0x7b, 0x91, 0x87, 0xbf, 0x90, 0x38, 0x0c, 0x3f,
  0x20, 0x6a, 0xa8, 0x3e, 0x95, 0xb0, 0x90, 0xbf, 0xff, 0x96, 0x29, 0xbf,
  0xcf, 0xfe, 0x3e, 0xbc, 0x04, 0x8f, 0xdf, 0xbe, 0x71, 0x4e, 0x13, 0x3d,
  0xae, 0xa5, 0xd0, 0x3e, 0xfa, 0x75, 0xd6, 0xbe, 0xd0, 0xde, 0x15, 0xbe,
  0xaf, 0xe9, 0x67, 0xbd, 0x84, 0x86, 0x3c, 0x3f, 0x45, 0xf4, 0xac, 0x3e,
  0xad, 0x36, 0xa6, 0xbc, 0xc3, 0xf5, 0x5a, 0xbf, 0xeb, 0x8d, 0xe0, 0x3e,
  0xd6, 0xbc, 0x9f, 0xbe, 0xf1, 0x7f, 0xc8, 0x3d, 0x51, 0x1b, 0xe9, 0x3e,
  0x8f, 0x03, 0xb1, 0x3e, 0x7c, 0x77, 0x0c, 0xbe, 0x4b, 0x1b, 0x68, 0xbf,
  0x5b, 0x04, 0x56, 0xbd, 0xfa, 0xba, 0x04, 0xbf, 0xc8, 0x57, 0x0a, 0x3f,
  0xc8, 0xfc, 0xc9, 0xbe, 0x67, 0x8d, 0xad, 0x3e, 0xac, 0x2d, 0x7b, 0x3e,
  0x35, 0xb9, 0x8a, 0x3e, 0x6c, 0x2b, 0x34, 0xbd, 0x01, 0xe7, 0x6d, 0xbd,
  0x16, 0x04, 0x53, 0x3d, 0xeb, 0xaa, 0x3a, 0xbf, 0xb5, 0xed, 0x22, 0xbf,
  0xf7, 0xaf, 0xac, 0xbc, 0xe9, 0xb8, 0x3f, 0x3f, 0x28, 0x52, 0xe4, 0x3e,
  0x4c, 0x76, 0x86, 0xbf, 0xa7, 0xc2, 0x50, 0xbf, 0xc3, 0xdb, 0x77, 0x3e,
  0xf1, 0xcc, 0x5f, 0x3e, 0x31, 0xc4, 0x91, 0xbe, 0xa3, 0x31, 0x53, 0xbe,
  0xa4, 0xd0, 0x87, 0x3e, 0x50, 0x40, 0x8e, 0x3e, 0xfd, 0xc9, 0xc1, 0x3d,
  0x4d, 0x3e, 0x27, 0x3f, 0x27, 0x6a, 0xb7, 0xbe, 0xfb, 0x16, 0x2e, 0x3f,
  0xbc, 0xaf, 0x6c, 0xbe, 0x37, 0x69, 0x79, 0xbe, 0x05, 0x8c, 0x15, 0xbf,
  0x86, 0xcf, 0x35, 0x3d, 0xab, 0xee, 0xb3, 0xbf, 0xc6, 0xb0, 0x50, 0xbe,
  0x48, 0x7c, 0x71, 0xbf, 0x81, 0x09, 0xec, 0x3d, 0x44, 0xd1, 0x2a, 0xbe,
  0x00, 0x83, 0x3b, 0x3e, 0xe3, 0x3b, 0x37, 0xbf, 0xf3, 0xdd, 0xb9, 0x3d,
  0x49, 0x9b, 0x13, 0x3e, 0xfa, 0x6d, 0x95, 0x3c, 0x54, 0x34, 0x67, 0xbd,
  0x46, 0xa5, 0x85, 0xbd, 0xa7, 0x1b, 0xfc, 0xbe, 0xf5, 0x6b, 0xaa, 0xbe,
  0x7d, 0x62, 0xe8, 0x3d, 0x55, 0xfb, 0x5e, 0xbe, 0x50, 0x86, 0x0c, 0xbe,
  0xd7, 0x68, 0x2c, 0xbe, 0x3e, 0x40, 0x4d, 0x3e, 0x0d, 0x5f, 0x15, 0xbf,
  0x66, 0x83, 0x61, 0x3d, 0x8f, 0x7e, 0x68, 0xbf, 0xe5, 0x7f, 0x29, 0xbe,
  0xfb, 0x15, 0xf6, 0xbd, 0xac, 0x2c, 0xd5, 0xbd, 0x98, 0x4d, 0xe4, 0x3e,
  0x1e, 0xc6, 0x4d, 0xbf, 0x30, 0x87, 0xbd, 0xbd, 0x27, 0x8f, 0x54, 0xbf,
  0x29, 0xba, 0x43, 0xbf, 0xf0, 0xd6, 0x3d, 0xbf, 0x53, 0xe2, 0xea, 0x3e,
  0x8d, 0xc9, 0x30, 0xbe, 0x43, 0x71, 0x11, 0x3f, 0x9b, 0xcf, 0x2c, 0xbe,
  0xff, 0xce, 0x94, 0xbf, 0x15, 0x1a, 0x81, 0xbe, 0x27, 0x55, 0xab, 0xbf,
  0xce, 0x6a, 0x6c, 0xbe, 0x72, 0xa2, 0xbd, 0xbf, 0xd5, 0x85, 0x15, 0x3e,
  0xf9, 0xc4, 0xcd, 0xbf, 0x29, 0xa4, 0xff, 0xbe, 0x78, 0x09, 0x8c, 0xbf,
  0x4d, 0x74, 0x76, 0xbf, 0xcb, 0x4f, 0x48, 0xbf, 0xf4, 0x5e, 0x9f, 0xbf,
  0xb4, 0x20, 0xe3, 0xbe, 0x3a, 0x2b, 0x2e, 0xbf, 0xe2, 0xd7, 0xa8, 0xbf,
  0xb0, 0xd3, 0x5e, 0xbf, 0xcb, 0x2d, 0x8d, 0xbe, 0xa8, 0xcb, 0x4d, 0xbe,
  0x42, 0x5d, 0xe4, 0xbe, 0x55, 0x7e, 0x51, 0xbe, 0x53, 0x0a, 0xe5, 0xbe,
  0xd7, 0xc2, 0xed, 0xbd, 0x98, 0xd2, 0x0c, 0x3e, 0xf9, 0xf2, 0xc1, 0x3e,
  0x01, 0xf8, 0x13, 0x3f, 0xa5, 0x83, 0x17, 0xbf, 0x99, 0xea, 0x6c, 0xbf,
  0x9d, 0x03, 0xc1, 0xbd, 0x70, 0x49, 0xe2, 0xbe, 0x4b, 0x11, 0xb8, 0xbe,
  0x42, 0x4d, 0x77, 0x3e, 0x4a, 0xd4, 0x92, 0x3e, 0x61, 0x4e, 0xaf, 0xbf,
  0x8e, 0xea, 0x16, 0xbc, 0xfe, 0xee, 0xa3, 0xbf, 0x4e, 0x67, 0x5b, 0xbe,
  0xad, 0xd4, 0xc6, 0xbf, 0x53, 0xc9, 0x5a, 0xbe, 0x8b, 0x6b, 0x9e, 0xbf,
  0xe3, 0xc0, 0x55, 0xbf, 0xc3, 0xe5, 0x8d, 0xbf, 0x5d, 0xa6, 0x53, 0xbf,
  0x85, 0x74, 0xa6, 0xbf, 0x8d, 0xbd, 0xaa, 0xbf, 0x1f, 0x41, 0xdf, 0xbe,
  0xfb, 0x00, 0x20, 0xbf, 0xac, 0x14, 0xc6, 0xbf, 0x8d, 0x1f, 0x37, 0xbf,
  0xcb, 0xa8, 0x0f, 0xbf, 0xc9, 0x12, 0xb5, 0xbe, 0xb2, 0x25, 0x14, 0xbf,
  0xe5, 0xe8, 0xd7, 0xbe, 0xad, 0x6c, 0xee, 0xbd, 0xb8, 0x3d, 0xc5, 0x3c,
  0x11, 0x8f, 0x90, 0xbf, 0xb3, 0x84, 0x4f, 0x3e, 0x08, 0x20, 0xdb, 0xbe,
  0x82, 0x4c, 0xdf, 0x3e, 0x85, 0xf9, 0x2a, 0xbf, 0x31, 0xcd, 0x0e, 0xbf,
  0xf5, 0x86, 0x1b, 0xbf, 0xb1, 0x73, 0x76, 0x3f, 0xb4, 0xf7, 0x83, 0xbe,
  0xaa, 0x2e, 0xbe, 0xbe, 0x3a, 0xbe, 0x2e, 0xbe, 0x27, 0x87, 0xb1, 0xbe,
  0x7b, 0x9e, 0xf0, 0x3d, 0xf8, 0x92, 0xfe, 0x3e, 0xed, 0xc5, 0x6b, 0xbe,
  0xc7, 0xdb, 0x54, 0xbe, 0xf2, 0x29, 0x9b, 0x3d, 0x55, 0xe7, 0xea, 0xbd,
  0x83, 0x15, 0x26, 0x3f, 0x11, 0x7b, 0x03, 0xbc, 0x3c, 0x56, 0xf9, 0x3d,
  0x8a, 0x81, 0x8d, 0xbe, 0x28, 0xb3, 0xcf, 0x3e, 0xb2, 0x08, 0x17, 0xbf,
  0xbc, 0x7b, 0x38, 0xbd, 0x90, 0x49, 0x11, 0xbf, 0x63, 0x2a, 0xed, 0xbe,
  0x48, 0x61, 0xae, 0xbc, 0x4b, 0x88, 0x12, 0xbf, 0xd8, 0x96, 0x99, 0xbe,
  0xbc, 0x35, 0x83, 0xbd, 0x66, 0xc1, 0x21, 0xbe, 0xf3, 0xc0, 0x01, 0x3e,
  0xc5, 0x17, 0x06, 0x3d, 0xa0, 0xdf, 0xc1, 0xbe, 0x5e, 0xc4, 0x0e, 0x3e,
  0x44, 0x0a, 0x25, 0x3f, 0x05, 0xf7, 0xdb, 0x3e, 0x5d, 0x78, 0x0c, 0x3f,
  0xc2, 0x5c, 0x06, 0x3f, 0xf6, 0x94, 0xcf, 0x3d, 0xe3, 0x2e, 0xf1, 0xbe,
  0x8a, 0x7f, 0xab, 0xbf, 0x04, 0xe6, 0xd8, 0x3e, 0x83, 0xe6, 0x11, 0x3f,
  0xb7, 0xf3, 0x1b, 0xbe, 0x0a, 0x94, 0x88, 0xbf, 0x9f, 0x9e, 0x48, 0x3e,
  0x07, 0x20, 0x7f, 0xbe, 0x90, 0xb8, 0x33, 0xbe, 0xa5, 0xe0, 0x80, 0x3e,
  0x7a, 0x03, 0x05, 0x3f, 0x1c, 0x13, 0x95, 0xbe, 0x1e, 0xe9, 0xbf, 0xbf,
  0x11, 0x17, 0xd2, 0xbe, 0x92, 0xa1, 0x0b, 0x3f, 0xb7, 0xbf, 0xb9, 0x3e,
  0x3c, 0x72, 0xa0, 0x3d, 0xbc, 0x8f, 0xda, 0xbd, 0xcd, 0x33, 0x02, 0x3f,
  0xe9, 0x3f, 0x15, 0xbe, 0xc5, 0x34, 0x00, 0xbf, 0x46, 0x82, 0x1e, 0x3d,
  0xcd, 0xa7, 0x51, 0xbe, 0x16, 0x02, 0x3a, 0xbd, 0x02, 0x2f, 0x1d, 0x3e,
  0x06, 0x91, 0x30, 0x3d, 0x3e, 0xaa, 0x13, 0x3e, 0xda, 0x37, 0x9e, 0x3e,
  0x79, 0xda, 0xf7, 0xbd, 0x4d, 0xf3, 0x09, 0xbe, 0x87, 0x0d, 0x82, 0xbe,
  0xab, 0x13, 0x88, 0xbe, 0x53, 0xd5, 0x13, 0xbf, 0x23, 0x0b, 0x28, 0xbf,
  0x8d, 0x1a, 0x26, 0x3c, 0x34, 0x0f, 0x19, 0xbd, 0x1a, 0xc5, 0x20, 0xbe,
  0x74, 0x3e, 0x58, 0x3e, 0xba, 0x75, 0xc1, 0x3d, 0xf4, 0x62, 0x14, 0x3f,
  0x56, 0x26, 0x97, 0xbf, 0x3c, 0x4b, 0x46, 0x3e, 0x33, 0x70, 0xaf, 0xbe,
  0x4e, 0xb4, 0x19, 0xbe, 0xac, 0x61, 0x80, 0xbd, 0x0d, 0x7d, 0x04, 0x3f,
  0xb4, 0x0b, 0x7a, 0x3e, 0x5b, 0x76, 0x7d, 0x3d, 0xc0, 0xf8, 0x56, 0xbd,
  0x92, 0x7d, 0x3b, 0xbc, 0x08, 0x0c, 0x7f, 0x3e, 0x98, 0x23, 0xf5, 0xbe,
  0x17, 0xa3, 0x99, 0x3e, 0x38, 0x57, 0xd1, 0xbd, 0x33, 0x60, 0x3e, 0x3e,
  0xab, 0x30, 0x07, 0x3f, 0xdb, 0xdd, 0x57, 0x3d, 0x7c, 0x77, 0x50, 0x3e,
  0x80, 0x8f, 0x7d, 0xbe, 0x65, 0x62, 0x44, 0x3f, 0x40, 0x4f, 0x97, 0xbe,
  0x65, 0xcf, 0x8c, 0x3e, 0xe5, 0x26, 0x64, 0x3f, 0x32, 0xb9, 0x15, 0x3f,
  0xec, 0xfa, 0x3c, 0xbf, 0x6a, 0xb7, 0x24, 0xbd, 0xf7, 0xb9, 0x22, 0xbd,
  0xae, 0x7e, 0x1b, 0xbf, 0x45, 0xc6, 0x61, 0x3f, 0x64, 0x30, 0x25, 0xbf,
  0x4b, 0xa9, 0x0c, 0x3d, 0x67, 0x0d, 0x0a, 0x3f, 0x4f, 0x40, 0x8f, 0xbf,
  0xc6, 0x63, 0x08, 0xbf, 0xce, 0x15, 0xf8, 0x3c, 0x59, 0x75, 0xff, 0x3d,
  0x00, 0x10, 0xa9, 0xbd, 0xd3, 0xe9, 0xaa, 0x3e, 0xa8, 0x84, 0xe9, 0x3e,
  0xd5, 0x9e, 0x8e, 0x3e, 0x7c, 0x48, 0x95, 0xbe, 0x03, 0xbb, 0x04, 0x3d,
  0x92, 0x3d, 0x73, 0x3d, 0x1e, 0x4b, 0xb1, 0xbe, 0x80, 0x28, 0x03, 0xbe,
  0xd8, 0x51, 0xea, 0x3d, 0x04, 0x63, 0x2c, 0xbe, 0xf3, 0xab, 0x0b, 0xbc,
  0xbe, 0x32, 0x48, 0x3f, 0x1e, 0x1b, 0x71, 0xbe, 0x14, 0x38, 0x24, 0x3d,
  0x83, 0xdf, 0xe5, 0x3e, 0x91, 0x80, 0xde, 0x3e, 0x8e, 0x5c, 0x59, 0x3d,
  0xba, 0x37, 0x45, 0xbe, 0xb5, 0x17, 0x65, 0xbf, 0xa7, 0x5e, 0x45, 0xbf,
  0xe6, 0x9e, 0x62, 0xbe, 0x76, 0x5d, 0xf8, 0xbd, 0xbe, 0x19, 0xa1, 0xbe,
  0x67, 0x0d, 0x45, 0xbf, 0x21, 0x80, 0xa8, 0xbe, 0x1b, 0xf2, 0xbf, 0xbd,
  0x02, 0xe0, 0xf9, 0xbe, 0x65, 0x9d, 0x90, 0xbf, 0x3b, 0xe3, 0xf9, 0x3c,
  0xc0, 0x45, 0xd8, 0x3e, 0x44, 0xfa, 0x85, 0xbf, 0x22, 0x01, 0x33, 0xbe,
  0xef, 0x88, 0x97, 0xbb, 0xfe, 0x00, 0xc6, 0xbd, 0xaf, 0xca, 0xc3, 0x3d,
  0x63, 0x69, 0xf9, 0x3e, 0xbb, 0x86, 0x92, 0x3e, 0x1e, 0x2d, 0x76, 0x3e,
  0xcb, 0x22, 0x75, 0x3e, 0xb0, 0xac, 0xba, 0xbe, 0x0e, 0xe1, 0xd3, 0x3d,
  0x04, 0x5d, 0x68, 0xbd, 0x07, 0xdd, 0xac, 0x3e, 0x11, 0xe0, 0x10, 0x3e,
  0x6d, 0x16, 0x73, 0x3f, 0x41, 0x93, 0x12, 0xbf, 0x00, 0x89, 0x00, 0x3f,
  0xe7, 0x31, 0xda, 0x3d, 0xa7, 0x4b, 0x07, 0x3f, 0x1f, 0x27, 0x82, 0x3e,
  0xab, 0x85, 0x6c, 0x3e, 0x19, 0xfc, 0x85, 0xbd, 0x95, 0x65, 0xb1, 0xbe,
  0x8e, 0x82, 0x9a, 0x3e, 0x34, 0x24, 0x0b, 0xbf, 0xea, 0x25, 0x0c, 0x3f,
  0xc5, 0xaa, 0x3a, 0xbe, 0x04, 0xf1, 0xeb, 0x3c, 0x28, 0xaa, 0x22, 0x3f,
  0xe0, 0xf9, 0x90, 0xbf, 0xae, 0xc7, 0x00, 0x3f, 0x6b, 0x89, 0xa5, 0x3e,
  0x94, 0x19, 0xc8, 0x3e, 0x61, 0x3c, 0x41, 0xbd, 0x1d, 0xad, 0x84, 0x3e,
  0x47, 0x97, 0x08, 0x3f, 0x10, 0x82, 0x25, 0x3f, 0x9e, 0xed, 0x18, 0x3f,
  0xfe, 0xa1, 0xc8, 0xbe, 0xd1, 0x01, 0xf2, 0xbe, 0xc2, 0x55, 0x08, 0xbf,
  0x98, 0x7c, 0xc5, 0xbe, 0xe5, 0xda, 0x18, 0xbd, 0x11, 0x02, 0x56, 0x3e,
  0x65, 0x6a, 0xf3, 0x3e, 0xd7, 0x69, 0x81, 0xbf, 0x30, 0x64, 0x1f, 0x3e,
  0x4e, 0xa3, 0xa1, 0xbf, 0xf2, 0x83, 0x9d, 0xbf, 0xff, 0xca, 0x86, 0xbe,
  0x3d, 0x0b, 0x23, 0xbe, 0xf2, 0xb1, 0xc7, 0xbe, 0xea, 0xae, 0x23, 0x3f,
  0x5d, 0x2e, 0x87, 0x3c, 0xba, 0xaf, 0x79, 0xbf, 0x3d, 0x17, 0x78, 0x3d,
  0xd1, 0x82, 0xa7, 0xbf, 0x0f, 0xb4, 0xc5, 0xbe, 0xbe, 0x9c, 0xcb, 0xbf,
  0x29, 0x7e, 0x17, 0x3e, 0x4f, 0xd5, 0xc0, 0xbf, 0xf9, 0xed, 0xa7, 0xbe,
  0x39, 0xf1, 0xec, 0xbf, 0x48, 0xf3, 0x71, 0xbf, 0xe9, 0x4b, 0x96, 0xbf,
  0x57, 0x24, 0xb9, 0xbf, 0xdf, 0x95, 0x12, 0xbf, 0x15, 0xec, 0x7a, 0xbf,
  0xb0, 0xb6, 0xe6, 0xbf, 0x0e, 0x71, 0x68, 0xbf, 0x77, 0xdc, 0x28, 0xbe,
  0xad, 0x6c, 0xc2, 0xbe, 0x04, 0x10, 0x1b, 0x3e, 0x15, 0xc0, 0xb1, 0xbe,
  0xb3, 0xda, 0x8b, 0xbe, 0x7f, 0x0e, 0x1e, 0x3e, 0x2a, 0x98, 0x97, 0x3d,
  0x40, 0x11, 0x61, 0xbe, 0x69, 0x0e, 0xe9, 0x3e, 0xdc, 0x7a, 0x0e, 0xbf,
  0xeb, 0xb5, 0x89, 0xbf, 0x58, 0x37, 0x38, 0x3e, 0xf2, 0x52, 0x23, 0xbf,
  0x70, 0x52, 0xc7, 0xbe, 0x46, 0xf3, 0xbb, 0x3e, 0x3d, 0xf0, 0xbe, 0x3e,
  0x15, 0x6e, 0xbd, 0xbf, 0x1a, 0x9d, 0x1e, 0x3c, 0x6e, 0x29, 0xba, 0xbf,
  0x84, 0xe9, 0xa3, 0xbd, 0xcb, 0x8e, 0xca, 0xbf, 0x66, 0x16, 0xb5, 0x3d,
  0xf9, 0xff, 0xc0, 0xbf, 0x76, 0xfc, 0x9f, 0xbf, 0xcc, 0x80, 0xad, 0xbf,
  0x16, 0x38, 0x24, 0xbf, 0xd9, 0xe9, 0x97, 0xbf, 0x3a, 0x81, 0xc3, 0xbf,
  0xd3, 0x03, 0x4a, 0xbf, 0xe7, 0xfd, 0x24, 0xbf, 0xac, 0xf6, 0xe2, 0xbf,
  0x90, 0x8b, 0x19, 0xbf, 0x50, 0x67, 0x40, 0x3e, 0x81, 0xb6, 0x3a, 0x3e,
  0xde, 0xd5, 0x9f, 0x3c, 0x1c, 0xd6, 0x2f, 0xbe, 0xf4, 0xc2, 0x85, 0xbe,
  0xcb, 0xd2, 0x0b, 0x3e, 0x20, 0x6c, 0x43, 0xbd, 0xb3, 0x6c, 0xcb, 0x3e,
  0x24, 0x1b, 0x47, 0xbf, 0xa2, 0x12, 0x7c, 0x3d, 0xcb, 0x00, 0x0e, 0x3f,
  0x18, 0xf7, 0xcb, 0x3e, 0x90, 0x20, 0xe9, 0xbd, 0x4d, 0xa8, 0xcb, 0x3d,
  0x2b, 0x53, 0x4c, 0xbf, 0x0a, 0x57, 0x9d, 0xbf, 0x04, 0xc3, 0x2c, 0xbc,
  0x6b, 0xb3, 0x15, 0x3e, 0x9f, 0xca, 0x92, 0xbd, 0xaa, 0x01, 0x1b, 0xbe,
  0x83, 0x59, 0x5a, 0xbe, 0xce, 0x4a, 0xc0, 0x3d, 0x8f, 0x65, 0xd3, 0xbe,
  0x83, 0x48, 0x48, 0xbf, 0xd7, 0xbb, 0x42, 0x3e, 0xef, 0xff, 0x4a, 0x3d,
  0x00, 0xed, 0x3e, 0xbf, 0xf6, 0xd7, 0x85, 0x3e, 0xb7, 0xfb, 0xa8, 0xbe,
  0xb2, 0x23, 0xc0, 0x3d, 0x56, 0x01, 0x5f, 0xbd, 0xd9, 0xbf, 0x76, 0x3e,
  0xce, 0xb4, 0xcd, 0x3d, 0xad, 0x63, 0x3d, 0xbe, 0x70, 0x92, 0x95, 0x3e,
  0xfa, 0x3e, 0x19, 0xbf, 0xe8, 0x92, 0x93, 0x3e, 0x77, 0xf7, 0xd7, 0xbd,
  0xa9, 0x90, 0x14, 0x3e, 0x30, 0xa0, 0x7a, 0x3e, 0xb6, 0x15, 0x2f, 0x3f,
  0x77, 0x57, 0x2f, 0xbf, 0xe9, 0xee, 0xce, 0x3e, 0x49, 0xc0, 0x0b, 0xbd,
  0x20, 0xfd, 0x0c, 0x3e, 0xf5, 0xd2, 0xd5, 0x3e, 0xf2, 0x94, 0x16, 0x3d,
  0xe7, 0xf6, 0xe0, 0xbd, 0x5d, 0xce, 0x89, 0xbc, 0x4d, 0xe6, 0xcc, 0x3e,
  0xb4, 0x99, 0xd1, 0xbc, 0xf4, 0xb6, 0x39, 0x3e, 0x10, 0xac, 0xac, 0xbe,
  0x88, 0x73, 0x54, 0xbd, 0xb7, 0xbf, 0x48, 0x3e, 0x99, 0x8f, 0x37, 0xbf,
  0x81, 0x5a, 0x1e, 0x3e, 0xad, 0x3c, 0xa8, 0x3d, 0xa6, 0xdf, 0xa9, 0x3e,
  0x2f, 0xcf, 0x31, 0x3e, 0xaf, 0x27, 0x52, 0x3e, 0xee, 0xff, 0x82, 0x3e,
  0x9c, 0x62, 0xa6, 0x3e, 0x3d, 0xa8, 0xb1, 0x3e, 0x59, 0x11, 0x7b, 0xbd,
  0x83, 0x72, 0x20, 0x3f, 0xb2, 0x5b, 0x27, 0xbe, 0x02, 0xb3, 0x05, 0x3e,
  0x0f, 0xb2, 0x15, 0xbe, 0xb4, 0x5b, 0xf6, 0xbd, 0xe1, 0x74, 0x4f, 0xbe,
  0xf9, 0x69, 0xcd, 0x3e, 0xdb, 0xc8, 0xf4, 0xbd, 0xad, 0x16, 0x93, 0xbe,
  0x8e, 0x55, 0x0f, 0x3e, 0xd3, 0xda, 0x8f, 0x3e, 0x2a, 0x4d, 0xb2, 0xbe,
  0xec, 0xac, 0x85, 0xbe, 0xca, 0x5b, 0x26, 0xbf, 0x85, 0x1d, 0x60, 0xbe,
  0x8e, 0xa0, 0x55, 0xbe, 0x2e, 0xe9, 0x82, 0xbe, 0x12, 0xb1, 0x42, 0x3e,
  0xf4, 0x79, 0x4c, 0xbf, 0x9e, 0x49, 0x09, 0x3f, 0x02, 0xa8, 0x57, 0xbe,
  0x6e, 0xa8, 0x34, 0xbe, 0x2c, 0x92, 0x58, 0xbf, 0x5a, 0xe5, 0x9f, 0x3e,
  0x01, 0xad, 0x1f, 0xbe, 0x45, 0xa9, 0xe5, 0xbe, 0x8f, 0x0a, 0xb6, 0x3e,
  0x7e, 0xb9, 0x11, 0x3d, 0x3e, 0x96, 0x4e, 0x3d, 0xdd, 0x07, 0x3f, 0x3d,
  0x01, 0x61, 0xf5, 0xbd, 0x24, 0xa0, 0x8c, 0xbe, 0x1e, 0xce, 0x99, 0x3e,
  0xda, 0x54, 0x90, 0xbe, 0x2b, 0x14, 0x4b, 0x3d, 0x82, 0x80, 0xdd, 0xbd,
  0xb1, 0x45, 0x0d, 0x3e, 0xff, 0x53, 0xc1, 0x3e, 0xe0, 0x68, 0x2b, 0xbe,
  0x11, 0x9e, 0x6d, 0x3f, 0xaf, 0xb0, 0x8f, 0xbe, 0x88, 0x60, 0x04, 0x3f,
  0x3e, 0xea, 0x92, 0x3d, 0x51, 0x47, 0x9c, 0x3e, 0x93, 0xf6, 0xd9, 0x3e,
  0x37, 0xda, 0x1d, 0x3f, 0x1c, 0x35, 0x86, 0xbe, 0x05, 0x3a, 0x33, 0x3d,
  0xd0, 0x7e, 0x3d, 0x3e, 0x85, 0x72, 0x1f, 0xbe, 0x2a, 0xd1, 0x48, 0x3f,
  0xee, 0x2c, 0xdc, 0x3d, 0x1f, 0x24, 0x5d, 0x3e, 0xfc, 0xb4, 0xae, 0x3e,
  0xf4, 0xef, 0x3c, 0xbf, 0x59, 0x98, 0xd3, 0x3d, 0x00, 0x5a, 0xcb, 0x3d,
  0x93, 0x07, 0x66, 0x3e, 0x35, 0x58, 0x59, 0x3e, 0xdb, 0x09, 0xba, 0xbd,
  0x4b, 0xac, 0xb7, 0x3e, 0x1d, 0xf5, 0x18, 0x3e, 0x0c, 0xc8, 0x0e, 0x3e,
  0x0c, 0x0d, 0x18, 0xbc, 0x4a, 0x03, 0x57, 0x3e, 0xab, 0x64, 0x3c, 0xbe,
  0xb5, 0xe8, 0xad, 0xbb, 0xa4, 0x50, 0x5b, 0x3e, 0xc6, 0x7e, 0x88, 0x3d,
  0x65, 0xd0, 0x9a, 0x3e, 0x69, 0x2c, 0xbf, 0x3e, 0x21, 0x5e, 0x8b, 0x3e,
  0x4b, 0x4c, 0xab, 0xbe, 0xfa, 0x7b, 0x1b, 0x3e, 0x43, 0x66, 0xf1, 0xbc,
  0x00, 0xf3, 0x06, 0x3f, 0x49, 0x88, 0xbb, 0xbd, 0xd5, 0xe6, 0x85, 0xbe,
  0xbe, 0x0a, 0x3d, 0xbe, 0x00, 0xb0, 0x4b, 0xbe, 0x6b, 0xbe, 0x71, 0xbe,
  0xc7, 0xe4, 0xf4, 0xbe, 0x14, 0x6c, 0x48, 0xbd, 0x8c, 0x86, 0x1d, 0xbf,
  0xfc, 0x76, 0x6a, 0x3d, 0xbf, 0x6d, 0xbb, 0x3e, 0xbe, 0x22, 0xae, 0xbe,
  0x47, 0xed, 0x5c, 0x3b, 0xe2, 0x09, 0x78, 0xbe, 0x28, 0x49, 0x04, 0xbe,
  0x8f, 0xf2, 0xd0, 0xbe, 0x28, 0xad, 0x56, 0x3d, 0xb6, 0x21, 0x2e, 0xbf,
  0x5d, 0x36, 0x16, 0xbe, 0x3f, 0x9f, 0x02, 0xbf, 0x1f, 0xf0, 0x45, 0xbe,
  0xe0, 0x8b, 0xea, 0xbd, 0x93, 0x23, 0xf7, 0xbe, 0x4f, 0x2b, 0x42, 0xbe,
  0x27, 0x2d, 0x80, 0x3e, 0x5d, 0x76, 0x3d, 0x3e, 0xbe, 0x55, 0x8b, 0xbe,
  0xb2, 0xfe, 0xc0, 0x3c, 0xa8, 0x16, 0x2c, 0x3e, 0x1e, 0xac, 0x71, 0x3c,
  0xef, 0x01, 0x1b, 0xbf, 0x3d, 0x46, 0x18, 0xbf, 0x5b, 0x20, 0x0f, 0x3e,
  0xd1, 0x02, 0xe1, 0xbe, 0x4e, 0xe6, 0x5e, 0xbd, 0x18, 0xb6, 0x12, 0x3c,
  0x20, 0x5b, 0xa7, 0xbd, 0x1e, 0xe0, 0xa4, 0x3d, 0x05, 0x57, 0x8c, 0x3e,
  0x23, 0xfb, 0x40, 0xbe, 0x17, 0x07, 0x12, 0xbc, 0xf4, 0x94, 0x06, 0xbe,
  0x68, 0x8f, 0xdb, 0xbd, 0x39, 0x05, 0xaa, 0xbe, 0x60, 0xc0, 0x24, 0xbe,
  0xfa, 0xaa, 0x94, 0xbe, 0x4e, 0xfd, 0xb4, 0xbe, 0x8f, 0x34, 0x95, 0x3c,
  0xa4, 0xba, 0xba, 0x3d, 0xf4, 0x68, 0x05, 0xbe, 0xd1, 0x5b, 0x07, 0x3e,
  0xfa, 0xc9, 0xd0, 0xbe, 0xf6, 0xe0, 0xff, 0xff, 0x10, 0x00, 0x00, 0x00,
  0x0e, 0x00, 0x00, 0x00, 0x1c, 0x00, 0x00, 0x00, 0x3c, 0x00, 0x00, 0x00,
  0x04, 0x00, 0x00, 0x00, 0x10, 0x00, 0x00, 0x00, 0x02, 0x00, 0x00, 0x00,
  0x02, 0x00, 0x00, 0x00, 0x10, 0x00, 0x00, 0x00, 0x1f, 0x00, 0x00, 0x00,
  0x73, 0x65, 0x71, 0x75, 0x65, 0x6e, 0x74, 0x69, 0x61, 0x6c, 0x5f, 0x33,
  0x34, 0x2f, 0x63, 0x6f, 0x6e, 0x76, 0x32, 0x64, 0x5f, 0x32, 0x34, 0x39,
  0x2f, 0x43, 0x6f, 0x6e, 0x76, 0x32, 0x44, 0x00, 0x64, 0xe0, 0xff, 0xff,
  0x7a, 0xe1, 0xff, 0xff, 0x04, 0x00, 0x00, 0x00, 0x00, 0x10, 0x00, 0x00,
  0xae, 0x2c, 0x19, 0x3e, 0xb4, 0x7d, 0x4e, 0xbd, 0xdb, 0x97, 0xd1, 0x3e,
  0xe2, 0x2a, 0x1b, 0xbe, 0xbe, 0x60, 0xbb, 0xbd, 0x74, 0xfb, 0x84, 0x3e,
  0xf6, 0xb0, 0x45, 0xbf, 0x6f, 0x0d, 0x99, 0x3d, 0x57, 0xd7, 0x8a, 0xbe,
  0xef, 0x23, 0x2f, 0xbe, 0x20, 0xaf, 0xcd, 0xbd, 0x1d, 0xdb, 0x55, 0xbe,
  0xfc, 0x23, 0x71, 0xbe, 0x1e, 0x2d, 0xbf, 0xbd, 0x64, 0xba, 0xfa, 0xbd,
  0xa7, 0x24, 0x80, 0xbe, 0x33, 0xf2, 0x28, 0x3e, 0x72, 0x0c, 0x8c, 0x3e,
  0xaf, 0x0d, 0x01, 0x3f, 0x34, 0x74, 0xe1, 0x3d, 0x88, 0x2a, 0x7b, 0xbf,
  0x22, 0x8a, 0xda, 0x3d, 0xc3, 0xc6, 0x71, 0xbd, 0x31, 0xf7, 0xaa, 0xbe,
  0x4c, 0x24, 0x90, 0x3d, 0x1f, 0xa5, 0x30, 0x3f, 0x51, 0x32, 0x17, 0x3f,
  0xc0, 0x88, 0x79, 0x3e, 0x82, 0x7b, 0xb7, 0x3d, 0xf0, 0x91, 0x1b, 0x3f,
  0xa5, 0x52, 0x9f, 0xbf, 0xe6, 0x6a, 0x30, 0xbf, 0x72, 0x58, 0x29, 0xbe,
  0xaa, 0x5c, 0x9b, 0x3d, 0x75, 0xc9, 0x1e, 0xbd, 0x9a, 0xad, 0x2d, 0x3d,
  0x2b, 0x68, 0xac, 0x3e, 0x69, 0xfa, 0xea, 0x3d, 0xa1, 0xb8, 0x92, 0x3e,
  0x40, 0xa2, 0xa4, 0x3e, 0x96, 0x76, 0xeb, 0x3e, 0xda, 0x16, 0x35, 0x3e,
  0x9d, 0xb0, 0x1e, 0xbe, 0xea, 0x27, 0xe5, 0xbe, 0x35, 0x6b, 0x34, 0xbf,
  0x4b, 0x7e, 0xa5, 0x3d, 0x4a, 0xe0, 0xad, 0x3e, 0x1d, 0x56, 0x18, 0x3e,
  0xe1, 0xc1, 0x4f, 0x3e, 0xa9, 0xc1, 0x0c, 0x3f, 0xb3, 0x7f, 0x1d, 0x3f,
  0xc6, 0x4d, 0xd9, 0x3e, 0x5b, 0x77, 0xb6, 0x3e, 0xe5, 0x75, 0xe2, 0x3d,
  0x78, 0xe4, 0x5c, 0x3f, 0x48, 0xa2, 0x9a, 0x3e, 0x7e, 0xf7, 0xf8, 0x3e,
  0x05, 0x5f, 0x11, 0xbe, 0xf9, 0xf6, 0x9a, 0x3e, 0x59, 0x1a, 0x72, 0xbe,
  0xc0, 0x8b, 0x29, 0x3f, 0x95, 0x93, 0x88, 0x3f, 0x8c, 0x06, 0x3a, 0x3c,
  0x75, 0x56, 0x0a, 0x3f, 0xfe, 0x83, 0xa4, 0x3d, 0xd2, 0xc6, 0xbf, 0xbe,
  0xa2, 0xef, 0xbd, 0x3b, 0x26, 0xa6, 0xd8, 0xbc, 0x50, 0x1f, 0xc5, 0x3d,
  0xe3, 0xce, 0x72, 0x3e, 0xa3, 0x09, 0x53, 0x3f, 0x99, 0x8f, 0x8c, 0x3e,
  0x7c, 0x1e, 0x02, 0x3f, 0x7b, 0x9b, 0x2a, 0x3e, 0xbb, 0x54, 0x50, 0x3e,
  0x86, 0xbe, 0x67, 0xbe, 0xef, 0xde, 0x80, 0xbe, 0xf6, 0x17, 0xb2, 0x3c,
  0x75, 0x92, 0x02, 0x3e, 0x85, 0xa3, 0xa8, 0xbe, 0xd6, 0x63, 0xa0, 0x3d,
  0x95, 0x12, 0x31, 0x3e, 0xb8, 0x6d, 0x4f, 0x3f, 0x05, 0x98, 0xa2, 0x3e,
  0xf3, 0xb1, 0xd2, 0x3c, 0x09, 0xfb, 0x05, 0x3e, 0x0e, 0x26, 0x76, 0x3e,
