const unsigned char model[] __attribute__((aligned(4))) = {
  0x1c, 0x00, 0x00, 0x00, 0x54, 0x46, 0x4c, 0x33, 0x00, 0x00, 0x12, 0x00,
  0x1c, 0x00, 0x04, 0x00, 0x08, 0x00, 0x0c, 0x00, 0x10, 0x00, 0x14, 0x00,
  0x00, 0x00, 0x18, 0x00, 0x12, 0x00, 0x00, 0x00, 0x03, 0x00, 0x00, 0x00,
  0x14, 0x00, 0x00, 0x00, 0x28, 0x00, 0x00, 0x00, 0xc4, 0x00, 0x00, 0x00,
  0x28, 0x00, 0x00, 0x00, 0x6c, 0x00, 0x00, 0x00, 0x05, 0x00, 0x00, 0x00,
  0x38, 0x06, 0x00, 0x00, 0x54, 0x05, 0x00, 0x00, 0xbc, 0x02, 0x00, 0x00,
  0x24, 0x02, 0x00, 0x00, 0x8c, 0x01, 0x00, 0x00, 0x01, 0x00, 0x00, 0x00,
  0xc0, 0x00, 0x00, 0x00, 0x11, 0x00, 0x00, 0x00, 0xac, 0x58, 0x00, 0x00,
  0xa8, 0x58, 0x00, 0x00, 0x9c, 0x57, 0x00, 0x00, 0xe4, 0x56, 0x00, 0x00,
  0x44, 0x56, 0x00, 0x00, 0xd4, 0x55, 0x00, 0x00, 0xfc, 0x0d, 0x00, 0x00,
  0x3c, 0x0d, 0x00, 0x00, 0xdc, 0x06, 0x00, 0x00, 0x88, 0x58, 0x00, 0x00,
  0x84, 0x58, 0x00, 0x00, 0x80, 0x58, 0x00, 0x00, 0x7c, 0x58, 0x00, 0x00,
  0x78, 0x58, 0x00, 0x00, 0x74, 0x58, 0x00, 0x00, 0x70, 0x58, 0x00, 0x00,
  0x38, 0x00, 0x00, 0x00, 0x01, 0x00, 0x00, 0x00, 0x0c, 0x00, 0x00, 0x00,
  0x08, 0x00, 0x0c, 0x00, 0x04, 0x00, 0x08, 0x00, 0x08, 0x00, 0x00, 0x00,
  0x08, 0x00, 0x00, 0x00, 0x10, 0x00, 0x00, 0x00, 0x13, 0x00, 0x00, 0x00,
  0x6d, 0x69, 0x6e, 0x5f, 0x72, 0x75, 0x6e, 0x74, 0x69, 0x6d, 0x65, 0x5f,
  0x76, 0x65, 0x72, 0x73, 0x69, 0x6f, 0x6e, 0x00, 0xda, 0xa8, 0xff, 0xff,
  0x04, 0x00, 0x00, 0x00, 0x10, 0x00, 0x00, 0x00, 0x31, 0x2e, 0x35, 0x2e,
  0x30, 0x00, 0x00, 0x00, 0x00, 0x00, 0x00, 0x00, 0x00, 0x00, 0x00, 0x00,
  0x0f, 0x00, 0x00, 0x00, 0x4d, 0x4c, 0x49, 0x52, 0x20, 0x43, 0x6f, 0x6e,
  0x76, 0x65, 0x72, 0x74, 0x65, 0x64, 0x2e, 0x00, 0x00, 0x00, 0x0e, 0x00,
  0x18, 0x00, 0x04, 0x00, 0x08, 0x00, 0x0c, 0x00, 0x10, 0x00, 0x14, 0x00,
  0x0e, 0x00, 0x00, 0x00, 0x14, 0x00, 0x00, 0x00, 0x50, 0x00, 0x00, 0x00,
  0x54, 0x00, 0x00, 0x00, 0x58, 0x00, 0x00, 0x00, 0x74, 0x00, 0x00, 0x00,
  0x0f, 0x00, 0x00, 0x00, 0x7c, 0x57, 0x00, 0x00, 0x08, 0x57, 0x00, 0x00,
  0x60, 0x56, 0x00, 0x00, 0xb4, 0x55, 0x00, 0x00, 0x28, 0x55, 0x00, 0x00,
  0xb8, 0x54, 0x00, 0x00, 0xd8, 0x0c, 0x00, 0x00, 0x18, 0x0c, 0x00, 0x00,
  0x30, 0x05, 0x00, 0x00, 0x4c, 0x04, 0x00, 0x00, 0x04, 0x03, 0x00, 0x00,
  0x54, 0x02, 0x00, 0x00, 0xac, 0x01, 0x00, 0x00, 0x14, 0x01, 0x00, 0x00,
  0x7c, 0x00, 0x00, 0x00, 0x01, 0x00, 0x00, 0x00, 0x00, 0x00, 0x00, 0x00,
  0x01, 0x00, 0x00, 0x00, 0x0e, 0x00, 0x00, 0x00, 0x07, 0x00, 0x00, 0x00,
  0xa0, 0x04, 0x00, 0x00, 0xc0, 0x03, 0x00, 0x00, 0x98, 0x02, 0x00, 0x00,
  0xd8, 0x01, 0x00, 0x00, 0x4c, 0x01, 0x00, 0x00, 0xa4, 0x00, 0x00, 0x00,
  0x10, 0x00, 0x00, 0x00, 0x04, 0x00, 0x00, 0x00, 0x6d, 0x61, 0x69, 0x6e,
  0x00, 0x00, 0x00, 0x00, 0x7e, 0xff, 0xff, 0xff, 0x00, 0x00, 0x00, 0x09,
  0x04, 0x00, 0x00, 0x00, 0x1c, 0x00, 0x00, 0x00, 0x10, 0x00, 0x00, 0x00,
  0x04, 0x00, 0x00, 0x00, 0xc6, 0xa9, 0xff, 0xff, 0x00, 0x00, 0x80, 0x3f,
  0x01, 0x00, 0x00, 0x00, 0x0e, 0x00, 0x00, 0x00, 0x01, 0x00, 0x00, 0x00,
  0x0d, 0x00, 0x00, 0x00, 0x6e, 0xfb, 0xff, 0xff, 0x00, 0x00, 0x00, 0x19,
  0x01, 0x00, 0x00, 0x00, 0x4c, 0xa9, 0xff, 0xff, 0x14, 0x00, 0x00, 0x00,
  0x0f, 0x00, 0x00, 0x00, 0x18, 0x00, 0x00, 0x00, 0x30, 0x00, 0x00, 0x00,
  0x20, 0x00, 0x00, 0x00, 0x02, 0x00, 0x00, 0x00, 0x01, 0x00, 0x00, 0x00,
  0x0d, 0x00, 0x00, 0x00, 0x08, 0x00, 0x00, 0x00, 0x49, 0x64, 0x65, 0x6e,
  0x74, 0x69, 0x74, 0x79, 0x00, 0x00, 0x00, 0x00, 0x02, 0x00, 0x00, 0x00,
  0xff, 0xff, 0xff, 0xff, 0x0d, 0x00, 0x00, 0x00, 0x34, 0xaa, 0xff, 0xff,
  0x00, 0x00, 0x0e, 0x00, 0x18, 0x00, 0x08, 0x00, 0x0c, 0x00, 0x10, 0x00,
  0x07, 0x00, 0x14, 0x00, 0x0e, 0x00, 0x00, 0x00, 0x00, 0x00, 0x00, 0x08,
  0x03, 0x00, 0x00, 0x00, 0x18, 0x00, 0x00, 0x00, 0x0c, 0x00, 0x00, 0x00,
  0x04, 0x00, 0x00, 0x00, 0x4c, 0xa9, 0xff, 0xff, 0x01, 0x00, 0x00, 0x00,
  0x0d, 0x00, 0x00, 0x00, 0x03, 0x00, 0x00, 0x00, 0x0c, 0x00, 0x00, 0x00,
  0x05, 0x00, 0x00, 0x00, 0x03, 0x00, 0x00, 0x00, 0x02, 0xfc, 0xff, 0xff,
  0x00, 0x00, 0x00, 0x09, 0x01, 0x00, 0x00, 0x00, 0xe0, 0xa9, 0xff, 0xff,
  0x14, 0x00, 0x00, 0x00, 0x0e, 0x00, 0x00, 0x00, 0x18, 0x00, 0x00, 0x00,
  0x44, 0x00, 0x00, 0x00, 0x34, 0x00, 0x00, 0x00, 0x02, 0x00, 0x00, 0x00,
  0x01, 0x00, 0x00, 0x00, 0x0d, 0x00, 0x00, 0x00, 0x1d, 0x00, 0x00, 0x00,
  0x73, 0x65, 0x71, 0x75, 0x65, 0x6e, 0x74, 0x69, 0x61, 0x6c, 0x5f, 0x36,
  0x2f, 0x64, 0x65, 0x6e, 0x73, 0x65, 0x5f, 0x31, 0x31, 0x2f, 0x42, 0x69,
  0x61, 0x73, 0x41, 0x64, 0x64, 0x00, 0x00, 0x00, 0x02, 0x00, 0x00, 0x00,
  0xff, 0xff, 0xff, 0xff, 0x0d, 0x00, 0x00, 0x00, 0xdc, 0xaa, 0xff, 0xff,
  0x00, 0x00, 0x0a, 0x00, 0x10, 0x00, 0x04, 0x00, 0x08, 0x00, 0x0c, 0x00,
  0x0a, 0x00, 0x00, 0x00, 0x02, 0x00, 0x00, 0x00, 0x10, 0x00, 0x00, 0x00,
  0x04, 0x00, 0x00, 0x00, 0x01, 0x00, 0x00, 0x00, 0x0c, 0x00, 0x00, 0x00,
  0x02, 0x00, 0x00, 0x00, 0x0b, 0x00, 0x00, 0x00, 0x04, 0x00, 0x00, 0x00,
  0x96, 0xfc, 0xff, 0xff, 0x00, 0x00, 0x00, 0x16, 0x01, 0x00, 0x00, 0x00,
  0x74, 0xaa, 0xff, 0xff, 0x14, 0x00, 0x00, 0x00, 0x0d, 0x00, 0x00, 0x00,
  0x18, 0x00, 0x00, 0x00, 0x44, 0x00, 0x00, 0x00, 0x34, 0x00, 0x00, 0x00,
  0x02, 0x00, 0x00, 0x00, 0x01, 0x00, 0x00, 0x00, 0x60, 0x01, 0x00, 0x00,
  0x1e, 0x00, 0x00, 0x00, 0x73, 0x65, 0x71, 0x75, 0x65, 0x6e, 0x74, 0x69,
  0x61, 0x6c, 0x5f, 0x36, 0x2f, 0x66, 0x6c, 0x61, 0x74, 0x74, 0x65, 0x6e,
  0x5f, 0x36, 0x2f, 0x52, 0x65, 0x73, 0x68, 0x61, 0x70, 0x65, 0x00, 0x00,
  0x02, 0x00, 0x00, 0x00, 0xff, 0xff, 0xff, 0xff, 0x60, 0x01, 0x00, 0x00,
  0x5c, 0xaa, 0xff, 0xff, 0x2e, 0xfe, 0xff, 0xff, 0x00, 0x00, 0x00, 0x05,
  0x01, 0x00, 0x00, 0x00, 0x38, 0x00, 0x00, 0x00, 0x2c, 0x00, 0x00, 0x00,
  0x14, 0x00, 0x00, 0x00, 0x00, 0x00, 0x0e, 0x00, 0x14, 0x00, 0x00, 0x00,
  0x10, 0x00, 0x0c, 0x00, 0x08, 0x00, 0x04, 0x00, 0x0e, 0x00, 0x00, 0x00,
  0x03, 0x00, 0x00, 0x00, 0x01, 0x00, 0x00, 0x00, 0x03, 0x00, 0x00, 0x00,
  0x01, 0x00, 0x00, 0x00, 0x01, 0x00, 0x00, 0x00, 0x0b, 0x00, 0x00, 0x00,
  0x01, 0x00, 0x00, 0x00, 0x0a, 0x00, 0x00, 0x00, 0x18, 0xab, 0xff, 0xff,
  0x14, 0x00, 0x00, 0x00, 0x0c, 0x00, 0x00, 0x00, 0x20, 0x00, 0x00, 0x00,
  0x5c, 0x00, 0x00, 0x00, 0x44, 0x00, 0x00, 0x00, 0x04, 0x00, 0x00, 0x00,
  0x01, 0x00, 0x00, 0x00, 0x16, 0x00, 0x00, 0x00, 0x01, 0x00, 0x00, 0x00,
  0x10, 0x00, 0x00, 0x00, 0x25, 0x00, 0x00, 0x00, 0x73, 0x65, 0x71, 0x75,
  0x65, 0x6e, 0x74, 0x69, 0x61, 0x6c, 0x5f, 0x36, 0x2f, 0x6d, 0x61, 0x78,
  0x5f, 0x70, 0x6f, 0x6f, 0x6c, 0x69, 0x6e, 0x67, 0x32, 0x64, 0x5f, 0x31,
  0x33, 0x2f, 0x4d, 0x61, 0x78, 0x50, 0x6f, 0x6f, 0x6c, 0x00, 0x00, 0x00,
  0x04, 0x00, 0x00, 0x00, 0xff, 0xff, 0xff, 0xff, 0x16, 0x00, 0x00, 0x00,
  0x01, 0x00, 0x00, 0x00, 0x10, 0x00, 0x00, 0x00, 0x18, 0xab, 0xff, 0xff,
  0x0e, 0xfe, 0xff, 0xff, 0x00, 0x00, 0x00, 0x01, 0x24, 0x00, 0x00, 0x00,
  0x18, 0x00, 0x00, 0x00, 0x04, 0x00, 0x00, 0x00, 0x00, 0xfe, 0xff, 0xff,
  0x01, 0x00, 0x00, 0x00, 0x01, 0x00, 0x00, 0x00, 0x00, 0x00, 0x00, 0x01,
  0x01, 0x00, 0x00, 0x00, 0x0a, 0x00, 0x00, 0x00, 0x03, 0x00, 0x00, 0x00,
  0x09, 0x00, 0x00, 0x00, 0x07, 0x00, 0x00, 0x00, 0x02, 0x00, 0x00, 0x00,
  0xc4, 0xab, 0xff, 0xff, 0x14, 0x00, 0x00, 0x00, 0x0b, 0x00, 0x00, 0x00,
  0x20, 0x00, 0x00, 0x00, 0xc4, 0x00, 0x00, 0x00, 0xac, 0x00, 0x00, 0x00,
  0x04, 0x00, 0x00, 0x00, 0x01, 0x00, 0x00, 0x00, 0x42, 0x00, 0x00, 0x00,
  0x01, 0x00, 0x00, 0x00, 0x10, 0x00, 0x00, 0x00, 0x8f, 0x00, 0x00, 0x00,
  0x73, 0x65, 0x71, 0x75, 0x65, 0x6e, 0x74, 0x69, 0x61, 0x6c, 0x5f, 0x36,
  0x2f, 0x63, 0x6f, 0x6e, 0x76, 0x32, 0x64, 0x5f, 0x31, 0x37, 0x2f, 0x52,
  0x65, 0x6c, 0x75, 0x3b, 0x73, 0x65, 0x71, 0x75, 0x65, 0x6e, 0x74, 0x69,
  0x61, 0x6c, 0x5f, 0x36, 0x2f, 0x63, 0x6f, 0x6e, 0x76, 0x32, 0x64, 0x5f,
  0x31, 0x37, 0x2f, 0x42, 0x69, 0x61, 0x73, 0x41, 0x64, 0x64, 0x3b, 0x73,
  0x65, 0x71, 0x75, 0x65, 0x6e, 0x74, 0x69, 0x61, 0x6c, 0x5f, 0x36, 0x2f,
  0x63, 0x6f, 0x6e, 0x76, 0x32, 0x64, 0x5f, 0x31, 0x37, 0x2f, 0x43, 0x6f,
  0x6e, 0x76, 0x32, 0x44, 0x3b, 0x73, 0x65, 0x71, 0x75, 0x65, 0x6e, 0x74,
  0x69, 0x61, 0x6c, 0x5f, 0x36, 0x2f, 0x63, 0x6f, 0x6e, 0x76, 0x32, 0x64,
  0x5f, 0x31, 0x37, 0x2f, 0x42, 0x69, 0x61, 0x73, 0x41, 0x64, 0x64, 0x2f,
  0x52, 0x65, 0x61, 0x64, 0x56, 0x61, 0x72, 0x69, 0x61, 0x62, 0x6c, 0x65,
  0x4f, 0x70, 0x2f, 0x72, 0x65, 0x73, 0x6f, 0x75, 0x72, 0x63, 0x65, 0x00,
  0x04, 0x00, 0x00, 0x00, 0xff, 0xff, 0xff, 0xff, 0x42, 0x00, 0x00, 0x00,
  0x01, 0x00, 0x00, 0x00, 0x10, 0x00, 0x00, 0x00, 0x40, 0xad, 0xff, 0xff,
  0x00, 0x00, 0x0e, 0x00, 0x1a, 0x00, 0x08, 0x00, 0x0c, 0x00, 0x10, 0x00,
  0x07, 0x00, 0x14, 0x00, 0x0e, 0x00, 0x00, 0x00, 0x00, 0x00, 0x00, 0x05,
  0x01, 0x00, 0x00, 0x00, 0x3c, 0x00, 0x00, 0x00, 0x30, 0x00, 0x00, 0x00,
  0x14, 0x00, 0x00, 0x00, 0x00, 0x00, 0x0e, 0x00, 0x18, 0x00, 0x17, 0x00,
  0x10, 0x00, 0x0c, 0x00, 0x08, 0x00, 0x04, 0x00, 0x0e, 0x00, 0x00, 0x00,
  0x03, 0x00, 0x00, 0x00, 0x03, 0x00, 0x00, 0x00, 0x03, 0x00, 0x00, 0x00,
  0x03, 0x00, 0x00, 0x00, 0x00, 0x00, 0x00, 0x01, 0x01, 0x00, 0x00, 0x00,
  0x09, 0x00, 0x00, 0x00, 0x01, 0x00, 0x00, 0x00, 0x08, 0x00, 0x00, 0x00,
  0x2a, 0xff, 0xff, 0xff, 0x00, 0x00, 0x00, 0x11, 0x01, 0x00, 0x00, 0x00,
  0x08, 0xad, 0xff, 0xff, 0x14, 0x00, 0x00, 0x00, 0x0a, 0x00, 0x00, 0x00,
  0x20, 0x00, 0x00, 0x00, 0x5c, 0x00, 0x00, 0x00, 0x44, 0x00, 0x00, 0x00,
  0x04, 0x00, 0x00, 0x00, 0x01, 0x00, 0x00, 0x00, 0x42, 0x00, 0x00, 0x00,
  0x01, 0x00, 0x00, 0x00, 0x08, 0x00, 0x00, 0x00, 0x25, 0x00, 0x00, 0x00,
  0x73, 0x65, 0x71, 0x75, 0x65, 0x6e, 0x74, 0x69, 0x61, 0x6c, 0x5f, 0x36,
  0x2f, 0x6d, 0x61, 0x78, 0x5f, 0x70, 0x6f, 0x6f, 0x6c, 0x69, 0x6e, 0x67,
  0x32, 0x64, 0x5f, 0x31, 0x32, 0x2f, 0x4d, 0x61, 0x78, 0x50, 0x6f, 0x6f,
  0x6c, 0x00, 0x00, 0x00, 0x04, 0x00, 0x00, 0x00, 0xff, 0xff, 0xff, 0xff,
  0x42, 0x00, 0x00, 0x00, 0x01, 0x00, 0x00, 0x00, 0x08, 0x00, 0x00, 0x00,
  0x1c, 0xae, 0xff, 0xff, 0x00, 0x00, 0x0e, 0x00, 0x14, 0x00, 0x00, 0x00,
  0x08, 0x00, 0x0c, 0x00, 0x07, 0x00, 0x10, 0x00, 0x0e, 0x00, 0x00, 0x00,
  0x00, 0x00, 0x00, 0x01, 0x30, 0x00, 0x00, 0x00, 0x24, 0x00, 0x00, 0x00,
  0x10, 0x00, 0x00, 0x00, 0x0c, 0x00, 0x10, 0x00, 0x00, 0x00, 0x04, 0x00,
  0x08, 0x00, 0x0f, 0x00, 0x0c, 0x00, 0x00, 0x00, 0x01, 0x00, 0x00, 0x00,
  0x01, 0x00, 0x00, 0x00, 0x00, 0x00, 0x00, 0x01, 0x01, 0x00, 0x00, 0x00,
  0x08, 0x00, 0x00, 0x00, 0x03, 0x00, 0x00, 0x00, 0x00, 0x00, 0x00, 0x00,
  0x06, 0x00, 0x00, 0x00, 0x01, 0x00, 0x00, 0x00, 0x00, 0x00, 0x0a, 0x00,
  0x0c, 0x00, 0x07, 0x00, 0x00, 0x00, 0x08, 0x00, 0x0a, 0x00, 0x00, 0x00,
  0x00, 0x00, 0x00, 0x03, 0x01, 0x00, 0x00, 0x00, 0xe8, 0xad, 0xff, 0xff,
  0x14, 0x00, 0x00, 0x00, 0x09, 0x00, 0x00, 0x00, 0x20, 0x00, 0x00, 0x00,
  0xc4, 0x00, 0x00, 0x00, 0xac, 0x00, 0x00, 0x00, 0x04, 0x00, 0x00, 0x00,
  0x01, 0x00, 0x00, 0x00, 0xc8, 0x00, 0x00, 0x00, 0x04, 0x00, 0x00, 0x00,
  0x08, 0x00, 0x00, 0x00, 0x8f, 0x00, 0x00, 0x00, 0x73, 0x65, 0x71, 0x75,
  0x65, 0x6e, 0x74, 0x69, 0x61, 0x6c, 0x5f, 0x36, 0x2f, 0x63, 0x6f, 0x6e,
  0x76, 0x32, 0x64, 0x5f, 0x31, 0x36, 0x2f, 0x52, 0x65, 0x6c, 0x75, 0x3b,
  0x73, 0x65, 0x71, 0x75, 0x65, 0x6e, 0x74, 0x69, 0x61, 0x6c, 0x5f, 0x36,
  0x2f, 0x63, 0x6f, 0x6e, 0x76, 0x32, 0x64, 0x5f, 0x31, 0x36, 0x2f, 0x42,
  0x69, 0x61, 0x73, 0x41, 0x64, 0x64, 0x3b, 0x73, 0x65, 0x71, 0x75, 0x65,
  0x6e, 0x74, 0x69, 0x61, 0x6c, 0x5f, 0x36, 0x2f, 0x63, 0x6f, 0x6e, 0x76,
  0x32, 0x64, 0x5f, 0x31, 0x36, 0x2f, 0x43, 0x6f, 0x6e, 0x76, 0x32, 0x44,
  0x3b, 0x73, 0x65, 0x71, 0x75, 0x65, 0x6e, 0x74, 0x69, 0x61, 0x6c, 0x5f,
  0x36, 0x2f, 0x63, 0x6f, 0x6e, 0x76, 0x32, 0x64, 0x5f, 0x31, 0x36, 0x2f,
  0x42, 0x69, 0x61, 0x73, 0x41, 0x64, 0x64, 0x2f, 0x52, 0x65, 0x61, 0x64,
  0x56, 0x61, 0x72, 0x69, 0x61, 0x62, 0x6c, 0x65, 0x4f, 0x70, 0x2f, 0x72,
  0x65, 0x73, 0x6f, 0x75, 0x72, 0x63, 0x65, 0x00, 0x04, 0x00, 0x00, 0x00,
  0xff, 0xff, 0xff, 0xff, 0xc8, 0x00, 0x00, 0x00, 0x04, 0x00, 0x00, 0x00,
  0x08, 0x00, 0x00, 0x00, 0x50, 0xae, 0xff, 0xff, 0x5e, 0xaf, 0xff, 0xff,
  0x04, 0x00, 0x00, 0x00, 0x00, 0x06, 0x00, 0x00, 0xc8, 0xcd, 0x3a, 0xbd,
  0x00, 0xf3, 0x79, 0x3e, 0x65, 0xe6, 0x45, 0xbe, 0x92, 0x81, 0x53, 0x3e,
  0xdd, 0xc8, 0x00, 0xbe, 0x90, 0x4e, 0x56, 0x3e, 0x74, 0x6d, 0x0d, 0x3e,
  0xc8, 0xb0, 0x17, 0x3d, 0xa8, 0xc5, 0x35, 0x3f, 0x9e, 0x73, 0x90, 0xbe,
  0x05, 0xdf, 0xe1, 0xbe, 0x98, 0x66, 0x3f, 0xbf, 0x3a, 0x8b, 0x52, 0xbe,
  0x15, 0x55, 0x8a, 0xc0, 0x61, 0x69, 0xff, 0xbf, 0xcf, 0x85, 0xed, 0x3e,
  0x40, 0xba, 0x51, 0xbd, 0xa4, 0xc2, 0xd4, 0x3d, 0x08, 0x6d, 0xe8, 0xbd,
  0x38, 0x1b, 0x5e, 0x3e, 0x3e, 0x62, 0x02, 0x3e, 0x58, 0xd4, 0x3a, 0x3d,
  0xa8, 0xe2, 0x75, 0x3e, 0xd4, 0x5b, 0x41, 0x3e, 0xe1, 0x55, 0x13, 0xbe,
  0xbd, 0x22, 0x55, 0xbe, 0x70, 0xaa, 0xe7, 0xbc, 0x80, 0x0f, 0xbf, 0xbb,
  0x32, 0xc1, 0x4d, 0x3e, 0xe0, 0x41, 0x8c, 0x3d, 0xdc, 0xc0, 0x20, 0xbe,
  0xe2, 0x2a, 0x17, 0x3e, 0x59, 0x7d, 0xc9, 0xbd, 0xb2, 0x8d, 0x3f, 0xbe,
  0xbc, 0x63, 0x17, 0x3e, 0xe1, 0x23, 0xdc, 0x3f, 0x86, 0xa4, 0x8d, 0x3d,
  0x5e, 0xb0, 0x00, 0xbf, 0x7f, 0xeb, 0x3f, 0xbf, 0x57, 0xe4, 0x6f, 0x3f,
  0x20, 0x22, 0x8c, 0xbd, 0xec, 0x96, 0x36, 0xbd, 0x0e, 0x60, 0x2f, 0xbe,
  0xaa, 0x6f, 0xff, 0xbd, 0xef, 0xd9, 0x66, 0xbe, 0xc0, 0x2c, 0x8c, 0x3b,
  0xda, 0x9b, 0x04, 0xbe, 0x4d, 0xcc, 0x3f, 0xbe, 0x2a, 0xaf, 0x0e, 0x3e,
  0xb0, 0xef, 0xee, 0xbc, 0x8a, 0x64, 0x41, 0x3e, 0xc4, 0xca, 0x0c, 0x3e,
  0xba, 0x5f, 0xc4, 0xbd, 0x66, 0x5c, 0x1b, 0x3e, 0xe4, 0x41, 0x7e, 0x3e,
  0x92, 0xb1, 0x47, 0xbe, 0xa5, 0x15, 0x9c, 0x3e, 0x46, 0xfa, 0x80, 0x3e,
  0xf9, 0xcd, 0xbb, 0x3e, 0xb4, 0x78, 0xda, 0xbf, 0xe1, 0x2c, 0x3f, 0xbf,
  0xf8, 0x2f, 0xf8, 0x3d, 0xc5, 0x4e, 0xf0, 0xbe, 0xc6, 0x52, 0x44, 0x3f,
  0x6e, 0x42, 0x2b, 0xbe, 0x68, 0x82, 0x85, 0x3e, 0xf8, 0x4d, 0x39, 0x3e,
  0xb6, 0x85, 0x65, 0xbe, 0xac, 0x81, 0x4b, 0xbe, 0xac, 0x5e, 0xff, 0xbd,
  0xe3, 0x3d, 0x02, 0xbe, 0x20, 0xdc, 0x6a, 0x3c, 0x5c, 0x4a, 0x5d, 0x3e,
  0x3c, 0x78, 0x62, 0x3e, 0xa4, 0x2a, 0x6d, 0x3e, 0x8e, 0xbc, 0x78, 0xbe,
  0x0e, 0x1f, 0x38, 0x3e, 0x00, 0x05, 0x33, 0xbe, 0xe1, 0xba, 0x93, 0xbe,
  0xf2, 0xab, 0x66, 0xbe, 0x56, 0x20, 0xd1, 0xbe, 0x26, 0x73, 0x39, 0x3e,
  0xd4, 0x0d, 0x0f, 0xbe, 0xea, 0xcb, 0x43, 0xbd, 0xa6, 0x79, 0x10, 0xbf,
  0xb5, 0x89, 0xd7, 0xbe, 0x8d, 0xdf, 0x55, 0xc0, 0x1b, 0xa9, 0x3b, 0xbf,
  0x2c, 0xf2, 0xf5, 0x3d, 0x2a, 0xfa, 0x6e, 0xbe, 0x10, 0x6a, 0x3c, 0xbe,
  0x30, 0x48, 0xb3, 0x3c, 0xbc, 0xd4, 0x5c, 0x3e, 0x58, 0x43, 0x43, 0xbd,
  0xec, 0x98, 0xf8, 0xbd, 0x94, 0xb4, 0x37, 0xbd, 0x6e, 0x54, 0x29, 0xbe,
  0x68, 0xee, 0x35, 0x3d, 0xe0, 0x85, 0x1c, 0xbc, 0xbc, 0xb1, 0x82, 0x3d,
  0x3a, 0x9d, 0x09, 0xbe, 0x80, 0x3d, 0x8e, 0x3b, 0xf8, 0xac, 0x2f, 0x3e,
  0x80, 0xa3, 0x00, 0x3e, 0xae, 0x6b, 0xb3, 0x3e, 0x20, 0x84, 0xeb, 0xbc,
  0xf5, 0x18, 0x71, 0x3f, 0xc8, 0xca, 0xff, 0xbe, 0x2b, 0x86, 0x9d, 0x3e,
  0xc6, 0x3c, 0x33, 0xbf, 0xe5, 0x16, 0xe9, 0xbe, 0x85, 0xc3, 0x28, 0xbe,
  0xff, 0xfd, 0x2e, 0xbe, 0xcc, 0x1e, 0x80, 0x3d, 0xaa, 0x88, 0x2a, 0x3e,
  0x1c, 0x29, 0xa6, 0xbd, 0x1c, 0x57, 0x06, 0x3e, 0x1c, 0xc0, 0x59, 0x3e,
  0x19, 0x08, 0x87, 0xbe, 0xa0, 0x92, 0x2e, 0xbc, 0x24, 0x34, 0x64, 0xbe,
  0x40, 0xca, 0xc1, 0xbc, 0xc8, 0xba, 0x88, 0x3e, 0x54, 0x15, 0xdf, 0x3d,
  0x34, 0xd1, 0x02, 0x3e, 0x00, 0xbc, 0x8e, 0xbe, 0x0b, 0x1e, 0x90, 0xbe,
  0x5e, 0x82, 0x43, 0x3e, 0x97, 0xac, 0x55, 0x3f, 0x83, 0x55, 0x81, 0xbe,
  0x20, 0xac, 0x44, 0xbe, 0xba, 0x57, 0x06, 0xbf, 0xaf, 0xe6, 0x42, 0xbf,
  0xf0, 0x87, 0x39, 0x3f, 0x41, 0x0a, 0x6c, 0x3f, 0x1e, 0x98, 0x8a, 0x3f,
  0x70, 0x92, 0xa4, 0x3d, 0xe8, 0xd6, 0x69, 0xbe, 0x42, 0x20, 0xfa, 0xbd,
  0x8c, 0x97, 0x23, 0x3e, 0x2e, 0xca, 0x8c, 0x3e, 0x74, 0x7f, 0x9c, 0x3d,
  0xfe, 0x48, 0x2a, 0xbe, 0xca, 0xbb, 0x1e, 0xbe, 0xa8, 0xa6, 0x16, 0x3e,
  0x10, 0x70, 0xbc, 0xbc, 0x6a, 0x69, 0x3c, 0x3e, 0x80, 0x2e, 0x82, 0x3e,
  0x13, 0x63, 0x37, 0xbe, 0xae, 0xd5, 0x8b, 0x3e, 0x70, 0x0c, 0x69, 0x3e,
  0x76, 0xd0, 0xe1, 0xbd, 0x5e, 0x5d, 0x24, 0x3f, 0xc8, 0x4e, 0xb9, 0x3d,
  0xef, 0xd4, 0x93, 0x3e, 0xd7, 0xc7, 0x04, 0x40, 0x93, 0xe0, 0x3a, 0x3f,
  0xd0, 0x8e, 0x44, 0xbf, 0xfd, 0x00, 0xc2, 0x3d, 0x76, 0xb9, 0xb8, 0xbe,
  0x90, 0x2a, 0xc8, 0x3c, 0xb0, 0x76, 0xeb, 0xbc, 0x19, 0x61, 0x91, 0xbe,
  0xc5, 0x07, 0x40, 0xbe, 0x0c, 0x77, 0xe1, 0x3d, 0x70, 0xce, 0x03, 0xbd,
  0x90, 0xfa, 0x0c, 0x3e, 0x02, 0x39, 0x0d, 0x3e, 0xc0, 0x51, 0x62, 0x3e,
  0x1c, 0x12, 0x55, 0xbd, 0x72, 0x66, 0x05, 0x3e, 0x10, 0xa8, 0xe6, 0x3c,
  0xd8, 0xd6, 0x66, 0x3e, 0x33, 0xd7, 0x8a, 0xbe, 0x82, 0x94, 0x8c, 0xbe,
  0xbc, 0xaf, 0xb3, 0xbd, 0x72, 0x36, 0xd5, 0x3e, 0xf8, 0x12, 0x2b, 0xbd,
  0x3e, 0xab, 0x83, 0xbd, 0xa3, 0xfe, 0xbc, 0x3f, 0x8f, 0x70, 0x0a, 0x3e,
  0x0c, 0xa1, 0x7d, 0xbf, 0x6a, 0xe7, 0x9e, 0xbf, 0x22, 0xf6, 0x9f, 0x3f,
  0x0e, 0x80, 0x10, 0x3e, 0x48, 0x74, 0x26, 0x3d, 0x30, 0xbe, 0x3a, 0x3d,
  0x3a, 0x4c, 0x8e, 0x3e, 0xc8, 0x74, 0x90, 0x3e, 0x68, 0xa7, 0x51, 0x3d,
  0x88, 0xac, 0x97, 0x3d, 0x5a, 0x2f, 0x24, 0x3e, 0x68, 0x45, 0x0a, 0xbd,
  0x2c, 0xb3, 0x20, 0xbd, 0x50, 0xc3, 0xc9, 0xbc, 0x6e, 0x01, 0x38, 0xbe,
  0xec, 0x9f, 0xce, 0x3d, 0x64, 0xc8, 0xf5, 0xbd, 0x68, 0x9d, 0x74, 0x3e,
  0xa8, 0xf6, 0x4a, 0xbe, 0x5a, 0x3d, 0x27, 0x3f, 0xb8, 0x42, 0x4c, 0x3e,
  0xf0, 0xb9, 0xd4, 0xbd, 0x23, 0x98, 0xe3, 0x3f, 0xec, 0x48, 0x95, 0x3e,
  0x9a, 0x4f, 0x57, 0xbf, 0xbc, 0xa7, 0x7b, 0xbf, 0xd9, 0x97, 0xcf, 0x3e,
  0x3c, 0xb4, 0xaf, 0x3d, 0xe6, 0x1e, 0x56, 0x3e, 0x36, 0x9e, 0x5f, 0xbe,
  0x40, 0x6f, 0xf2, 0x3c, 0x35, 0xb5, 0x8c, 0xbe, 0x28, 0x5d, 0xe0, 0x3d,
  0x0c, 0x4b, 0xdd, 0xbd, 0x44, 0xc2, 0x8e, 0x3d, 0x00, 0xf7, 0x1e, 0x3e,
  0x94, 0x23, 0x5e, 0x3e, 0x66, 0x60, 0x44, 0x3e, 0xa0, 0xac, 0xf6, 0x3d,
  0x59, 0x7b, 0x81, 0xbe, 0xbe, 0x33, 0x92, 0x3e, 0xc0, 0x86, 0x37, 0x3c,
  0x12, 0x6d, 0x93, 0xbe, 0x7c, 0x78, 0x65, 0xbf, 0xd0, 0x64, 0xe8, 0x3d,
  0x8c, 0x97, 0x85, 0xbd, 0x0e, 0x99, 0xac, 0x3f, 0x58, 0x35, 0x1a, 0x3f,
  0xfa, 0x23, 0xb0, 0xbe, 0xb9, 0x9c, 0x78, 0x3f, 0xa8, 0xd9, 0x75, 0x3f,
  0xe4, 0xc5, 0x04, 0x3e, 0x80, 0x0e, 0x15, 0x3c, 0xba, 0x6b, 0xc7, 0xbd,
  0xde, 0x04, 0x48, 0xbe, 0xbe, 0xf6, 0x2a, 0xbe, 0x9e, 0xe9, 0x51, 0x3e,
  0xd0, 0x8f, 0x92, 0x3c, 0xf2, 0x75, 0x1b, 0x3e, 0xdc, 0x8c, 0x34, 0xbe,
  0x98, 0xf2, 0x7d, 0xbe, 0xac, 0xa7, 0x1e, 0x3e, 0x2c, 0x4b, 0x71, 0xbe,
  0x54, 0xdc, 0x90, 0x3d, 0x42, 0x27, 0x8b, 0xbe, 0xe0, 0xa6, 0x46, 0x3d,
  0xc8, 0xf5, 0x0d, 0x3e, 0x3d, 0x9b, 0x8c, 0x3d, 0x08, 0xf0, 0x33, 0x3e,
  0xee, 0x69, 0xdf, 0xbe, 0x8b, 0x91, 0xaf, 0xbf, 0xf6, 0x6a, 0x7a, 0x3e,
  0x16, 0xff, 0x4c, 0xbf, 0x15, 0xa8, 0x63, 0x3f, 0x60, 0x20, 0xb7, 0x3f,
  0x6b, 0x3a, 0x15, 0xbe, 0x40, 0x2a, 0xd7, 0x3d, 0x4a, 0x1a, 0x33, 0x3e,
  0x20, 0xef, 0x8e, 0x3e, 0xf0, 0x7a, 0xdc, 0xbc, 0x2c, 0x4c, 0x77, 0x3e,
  0x64, 0x90, 0xaa, 0x3d, 0x18, 0x3c, 0x93, 0xbe, 0x3c, 0x55, 0x22, 0xbd,
  0x92, 0xe3, 0x84, 0xbd, 0x00, 0xf2, 0x17, 0x3e, 0xce, 0x53, 0x88, 0xbe,
  0xd6, 0xf2, 0x08, 0xbe, 0x0c, 0x27, 0x6d, 0xbd, 0xa0, 0x64, 0x04, 0xbe,
  0x48, 0xe8, 0x85, 0x3d, 0xe8, 0xfd, 0x21, 0x3f, 0x80, 0x8b, 0x01, 0x3d,
  0x39, 0x36, 0xae, 0x3f, 0x53, 0xfb, 0xff, 0xbe, 0xbf, 0x2a, 0xf4, 0xbe,
  0x3f, 0xaf, 0xa0, 0x3f, 0x8f, 0x0b, 0x11, 0xbf, 0xef, 0x2a, 0x08, 0xbe,
  0x42, 0xf7, 0xeb, 0xbd, 0x9c, 0x84, 0x9a, 0xbd, 0xa0, 0x3e, 0x56, 0x3d,
  0xd8, 0xe1, 0x23, 0x3e, 0xd8, 0x66, 0x01, 0x3e, 0xf4, 0xec, 0x90, 0x3e,
  0x64, 0xf2, 0x6f, 0xbd, 0x9a, 0x2c, 0x8d, 0x3e, 0x18, 0x62, 0x7d, 0xbd,
  0x68, 0x1d, 0x87, 0xbe, 0x70, 0x5f, 0x6b, 0x3e, 0xbf, 0x58, 0x46, 0xbe,
  0x24, 0xd2, 0x85, 0x3e, 0x8c, 0x83, 0x6a, 0x3e, 0xa0, 0xe5, 0x60, 0x3e,
  0xc8, 0xab, 0xe8, 0x3d, 0x40, 0x90, 0x2d, 0x3e, 0x7c, 0x57, 0x13, 0x3e,
  0x8c, 0x25, 0xc2, 0x3e, 0xe9, 0x1c, 0x0d, 0xbf, 0xe5, 0xdc, 0xb3, 0x3f,
  0xa3, 0x50, 0x5d, 0x3f, 0xc8, 0x5f, 0xe9, 0x3f, 0x74, 0x01, 0xdf, 0xbf,
  0x15, 0xe8, 0x92, 0xbe, 0x4a, 0xde, 0x0a, 0xbe, 0x5c, 0x7a, 0xfe, 0xbd,
  0x16, 0x60, 0x92, 0xbd, 0x7e, 0x00, 0x24, 0x3e, 0x2c, 0x4e, 0xbd, 0x3d,
  0xea, 0xd8, 0xbd, 0xbd, 0x9a, 0xa2, 0x50, 0x3e, 0x7a, 0x01, 0x96, 0xbd,
  0x40, 0xd4, 0x92, 0xbc, 0x54, 0xde, 0x75, 0x3e, 0x76, 0x2a, 0x53, 0xbe,
  0x7c, 0x76, 0xb2, 0xbd, 0xd6, 0x73, 0xcc, 0xbd, 0x30, 0xf2, 0x63, 0x3e,
  0x5c, 0x56, 0xbd, 0x3d, 0xae, 0x49, 0xca, 0x3f, 0xf4, 0x33, 0x8b, 0x3e,
  0xad, 0x38, 0xe4, 0xbd, 0x54, 0xad, 0x66, 0xbf, 0x72, 0x6d, 0xb7, 0xbc,
  0xd2, 0x89, 0x36, 0xbf, 0xfb, 0xdc, 0xc3, 0xbe, 0xe3, 0x03, 0xee, 0xbf,
  0xbc, 0x0a, 0x89, 0xbe, 0xbe, 0x32, 0x87, 0xbe, 0x8c, 0x2c, 0x80, 0x3d,
  0x94, 0x32, 0xd3, 0x3d, 0x70, 0x61, 0x81, 0xbc, 0xb4, 0x20, 0x25, 0xbe,
  0xb6, 0xde, 0x83, 0x3e, 0x3a, 0x07, 0x57, 0x3e, 0xc4, 0x30, 0x34, 0xbd,
  0xc8, 0x9d, 0x80, 0xbe, 0x3c, 0x77, 0x69, 0x3e, 0x34, 0xe1, 0x7b, 0x3e,
  0x40, 0x7e, 0xa2, 0x3c, 0x84, 0x9c, 0x8a, 0xbe, 0x42, 0x4b, 0x9d, 0xbd,
  0xb0, 0x19, 0x74, 0x3e, 0x01, 0xab, 0x48, 0x3f, 0xcc, 0x5d, 0x84, 0xbe,
  0x90, 0xbf, 0xaf, 0xbe, 0xfc, 0xab, 0x3d, 0xbf, 0x10, 0x40, 0x3f, 0x3e,
  0xab, 0x7e, 0x85, 0x3f, 0xae, 0xfb, 0x1c, 0x40, 0x72, 0x24, 0x89, 0xbf,
  0x60, 0x90, 0x29, 0xbd, 0xb8, 0x62, 0xa3, 0xbd, 0xab, 0x2c, 0x91, 0xbe,
  0x98, 0x6c, 0xc3, 0x3d, 0xf8, 0x7d, 0xad, 0x3d, 0x94, 0xfe, 0x1a, 0x3e,
  0x48, 0x79, 0x35, 0xbe, 0xb0, 0xa4, 0x4a, 0xbe, 0x7e, 0xd1, 0x6d, 0xbe,
  0x88, 0x16, 0x17, 0x3e, 0x10, 0x5c, 0x73, 0xbd, 0xf8, 0xf6, 0x83, 0x3d,
  0xc0, 0x17, 0xe3, 0x3d, 0xab, 0xe6, 0x15, 0xbe, 0xd0, 0xdb, 0x66, 0xbd,
  0x70, 0xc8, 0xe9, 0xbc, 0x45, 0x13, 0xff, 0x3e, 0xbc, 0x97, 0xe9, 0x3d,
  0x5d, 0x49, 0xce, 0x3e, 0xaf, 0xbe, 0x02, 0x40, 0xbf, 0x9b, 0x75, 0xbe,
  0x85, 0x34, 0x2a, 0x3f, 0x57, 0x7e, 0x19, 0xbf, 0x8b, 0x47, 0x23, 0xbf,
  0xc0, 0xe8, 0x61, 0x3e, 0x69, 0xaa, 0x7e, 0xbe, 0x65, 0x16, 0x4f, 0xbe,
  0x30, 0x5b, 0xe3, 0xbd, 0x06, 0x11, 0x55, 0xbe, 0x74, 0xea, 0x5c, 0x3e,
  0x32, 0xb7, 0x2a, 0x3e, 0xb6, 0x0e, 0x8a, 0xbe, 0x36, 0xb5, 0xff, 0xff,
  0x10, 0x00, 0x00, 0x00, 0x08, 0x00, 0x00, 0x00, 0x1c, 0x00, 0x00, 0x00,
  0x3c, 0x00, 0x00, 0x00, 0x04, 0x00, 0x00, 0x00, 0x10, 0x00, 0x00, 0x00,
  0x01, 0x00, 0x00, 0x00, 0x03, 0x00, 0x00, 0x00, 0x08, 0x00, 0x00, 0x00,
  0x1d, 0x00, 0x00, 0x00, 0x73, 0x65, 0x71, 0x75, 0x65, 0x6e, 0x74, 0x69,
  0x61, 0x6c, 0x5f, 0x36, 0x2f, 0x63, 0x6f, 0x6e, 0x76, 0x32, 0x64, 0x5f,
  0x31, 0x37, 0x2f, 0x43, 0x6f, 0x6e, 0x76, 0x32, 0x44, 0x00, 0x00, 0x00,
  0xac, 0xb4, 0xff, 0xff, 0xba, 0xb5, 0xff, 0xff, 0x04, 0x00, 0x00, 0x00,
  0x60, 0x00, 0x00, 0x00, 0xcd, 0x64, 0x96, 0xbf, 0xec, 0x49, 0x26, 0x3f,
  0xbe, 0xdc, 0x7d, 0x3f, 0x46, 0xa2, 0x22, 0xbe, 0x4c, 0x5e, 0x9d, 0xbd,
  0x80, 0x83, 0xa5, 0xbc, 0xa2, 0xbb, 0xa1, 0x3f, 0x17, 0x07, 0x72, 0x3e,
  0x34, 0x9d, 0xa1, 0xbf, 0xd9, 0xf7, 0x2c, 0xc0, 0xcf, 0x6e, 0x92, 0x3f,
  0xb5, 0x8b, 0x75, 0xbe, 0x79, 0x57, 0x15, 0x3f, 0x90, 0xed, 0x26, 0xc0,
  0x0c, 0xab, 0x1d, 0x3f, 0xa8, 0x2b, 0x10, 0x3f, 0xea, 0x2c, 0x1d, 0xbf,
  0x08, 0x5f, 0xf6, 0xbf, 0x0d, 0xd7, 0x1d, 0x3e, 0xab, 0xb8, 0x4d, 0xc0,
  0xb8, 0x68, 0xaf, 0xbe, 0x35, 0x2b, 0xb5, 0xbe, 0x45, 0xae, 0xe7, 0xbe,
  0x53, 0x3d, 0x8c, 0x3f, 0xf2, 0xb5, 0xff, 0xff, 0x10, 0x00, 0x00, 0x00,
  0x07, 0x00, 0x00, 0x00, 0x1c, 0x00, 0x00, 0x00, 0x3c, 0x00, 0x00, 0x00,
  0x04, 0x00, 0x00, 0x00, 0x08, 0x00, 0x00, 0x00, 0x01, 0x00, 0x00, 0x00,
  0x03, 0x00, 0x00, 0x00, 0x01, 0x00, 0x00, 0x00, 0x1d, 0x00, 0x00, 0x00,
  0x73, 0x65, 0x71, 0x75, 0x65, 0x6e, 0x74, 0x69, 0x61, 0x6c, 0x5f, 0x36,
  0x2f, 0x63, 0x6f, 0x6e, 0x76, 0x32, 0x64, 0x5f, 0x31, 0x36, 0x2f, 0x43,
  0x6f, 0x6e, 0x76, 0x32, 0x44, 0x00, 0x00, 0x00, 0x68, 0xb5, 0xff, 0xff,
  0x76, 0xb6, 0xff, 0xff, 0x04, 0x00, 0x00, 0x00, 0x80, 0x47, 0x00, 0x00,
  0xa1, 0x5a, 0x06, 0x3f, 0x93, 0x46, 0x91, 0xbf, 0xcd, 0x4c, 0x83, 0x3e,
  0xd9, 0x42, 0x80, 0xbe, 0x42, 0x7c, 0x17, 0xbc, 0x4c, 0x2b, 0x20, 0x3e,
  0x2b, 0x7a, 0xab, 0x3e, 0x0a, 0x4e, 0x11, 0x3e, 0xfa, 0x85, 0x95, 0x3e,
  0xde, 0x72, 0xf0, 0xbf, 0xe6, 0xd6, 0x93, 0xc0, 0x54, 0x78, 0x1c, 0x3f,
  0x33, 0xda, 0x98, 0xc0, 0x98, 0x38, 0x04, 0x3e, 0xb0, 0x56, 0xb4, 0xbf,
  0x12, 0x72, 0x31, 0x3e, 0x0f, 0x11, 0xcf, 0x3d, 0x97, 0x79, 0xcb, 0xbf,
  0x52, 0x6c, 0x94, 0x3d, 0xa4, 0x8b, 0xe9, 0xbe, 0xcd, 0x71, 0xcd, 0x3e,
  0x68, 0xda, 0x5f, 0x3e, 0x13, 0x78, 0x18, 0x3f, 0x8d, 0xca, 0x91, 0x3e,
  0x55, 0x32, 0x94, 0x3e, 0x11, 0x92, 0xb5, 0xbf, 0xb8, 0x41, 0x68, 0xc0,
  0x99, 0x4e, 0x12, 0x3f, 0x39, 0x9f, 0x80, 0xc0, 0x63, 0x16, 0x1d, 0x3e,
  0xa7, 0x1e, 0xa6, 0xbf, 0xb0, 0xc3, 0x4d, 0x3e, 0xf6, 0x42, 0x18, 0x3f,
  0xc6, 0x75, 0xee, 0xbf, 0x7a, 0xc1, 0xe0, 0x3e, 0xa5, 0xdc, 0xdb, 0xbe,
  0x0a, 0xce, 0x8a, 0x3e, 0x50, 0x10, 0xa3, 0xbd, 0xb7, 0xc0, 0x55, 0x3f,
  0x02, 0x89, 0x8c, 0x3e, 0x0f, 0x41, 0x39, 0x3f, 0xc2, 0x80, 0xc5, 0xbf,
  0x41, 0x6e, 0x94, 0xc0, 0x29, 0xab, 0x05, 0x3f, 0x6e, 0xbb, 0x88, 0xc0,
  0x5d, 0xb6, 0xca, 0x3c, 0x15, 0x5e, 0xa1, 0xbf, 0xb2, 0x99, 0x9b, 0x3e,
  0x23, 0x47, 0xd4, 0x3e, 0x37, 0xd9, 0xf7, 0xbf, 0x63, 0x9d, 0x02, 0x3f,
  0x94, 0x25, 0x33, 0xbf, 0xa9, 0x43, 0x42, 0xbb, 0x23, 0x19, 0xce, 0x3d,
  0x00, 0xb4, 0x38, 0x3f, 0x85, 0xf1, 0xc4, 0xbe, 0x35, 0xf1, 0x86, 0x3e,
  0x3f, 0x80, 0xcc, 0xbf, 0x70, 0x2b, 0x9a, 0xc0, 0x7e, 0xc3, 0x12, 0x3f,
  0xa4, 0x73, 0x86, 0xc0, 0x67, 0x70, 0x85, 0x3c, 0xfd, 0xf6, 0xa8, 0xbf,
  0x03, 0xf2, 0x06, 0x3e, 0xde, 0xcb, 0xbd, 0x3e, 0x57, 0xe1, 0x09, 0xc0,
  0x16, 0x9f, 0x10, 0x3f, 0x1d, 0xb0, 0x86, 0xbe, 0xb0, 0xa1, 0xe3, 0x3e,
  0x25, 0x62, 0xa9, 0xbd, 0x7c, 0x5d, 0x05, 0x3f, 0x7a, 0xb5, 0xc4, 0x3e,
  0xd7, 0x9b, 0x1b, 0x3f, 0x0b, 0x18, 0xdc, 0xbf, 0x19, 0xcd, 0x94, 0xc0,
  0x8e, 0xcc, 0x10, 0x3f, 0xb1, 0xae, 0x90, 0xc0, 0x9f, 0xdd, 0x72, 0x3e,
  0xfd, 0x78, 0x51, 0xbf, 0x3c, 0xe9, 0x89, 0x3d, 0x39, 0x99, 0x05, 0x3f,
  0xb0, 0x93, 0x01, 0xc0, 0x1f, 0xc9, 0x34, 0x3f, 0x51, 0x37, 0x61, 0xbf,
  0xac, 0x9c, 0xbb, 0x3e, 0x6c, 0x2a, 0x33, 0xbe, 0x0e, 0xb1, 0x7e, 0x3f,
  0x7d, 0x4c, 0xa0, 0x3e, 0xba, 0x31, 0x0f, 0x3f, 0xc5, 0xfc, 0x99, 0xbf,
  0xd4, 0x96, 0x9b, 0xc0, 0x25, 0xca, 0x4c, 0x3f, 0xe1, 0x5d, 0x8a, 0xc0,
  0x1b, 0x27, 0xc1, 0xbd, 0xb5, 0xce, 0x9c, 0xbf, 0x58, 0x96, 0x09, 0x3e,
  0x5c, 0xb8, 0x00, 0x3f, 0x6f, 0x3a, 0xd5, 0xbf, 0x72, 0x29, 0x01, 0xbd,
  0xa4, 0x36, 0x95, 0xbd, 0x08, 0x35, 0x4e, 0xbe, 0x8c, 0x08, 0xb2, 0xbe,
  0xe3, 0x68, 0x69, 0x3f, 0x30, 0x8e, 0x83, 0x3e, 0x4a, 0xd9, 0x65, 0x3e,
  0x3a, 0x3b, 0xe2, 0xbf, 0xe0, 0x65, 0x8d, 0xc0, 0x94, 0x49, 0x9b, 0x3f,
  0x0c, 0xd0, 0x87, 0xc0, 0x00, 0x6d, 0xa1, 0x3e, 0x70, 0xdc, 0x82, 0xbf,
  0x49, 0xc0, 0xa5, 0x3e, 0x5b, 0x28, 0xd3, 0x3e, 0xd1, 0xe3, 0xeb, 0xbf,
  0x9e, 0x9a, 0x2a, 0x3f, 0x96, 0x63, 0x02, 0xbf, 0x38, 0x38, 0x74, 0xbd,
  0xe5, 0x47, 0x39, 0x3e, 0x71, 0xbe, 0x54, 0x3f, 0xd9, 0xd4, 0xbf, 0x3d,
  0x7e, 0xe0, 0xcb, 0x3d, 0x95, 0x37, 0xb5, 0xbf, 0xde, 0x23, 0x84, 0xc0,
  0x28, 0x1e, 0x49, 0x3f, 0x0b, 0x28, 0x8a, 0xc0, 0x52, 0x06, 0x0c, 0x3e,
  0xa3, 0x21, 0xbd, 0xbf, 0x14, 0x40, 0x13, 0x3f, 0x1f, 0x60, 0xf1, 0x3e,
  0x94, 0xa9, 0xce, 0xbf, 0x60, 0xf1, 0x51, 0x3e, 0x1b, 0xae, 0x15, 0xbf,
  0x0d, 0x52, 0x91, 0x3e, 0x4f, 0x7f, 0x3e, 0xbd, 0x50, 0xc4, 0x11, 0x3f,
  0x74, 0x58, 0x8d, 0x3d, 0x5f, 0x4b, 0x89, 0x3e, 0x7b, 0x0f, 0xb4, 0xbf,
  0xcd, 0x0e, 0x85, 0xc0, 0xb7, 0x42, 0x33, 0x3f, 0x7d, 0x3a, 0x84, 0xc0,
  0xcc, 0x49, 0xbc, 0x3e, 0xbf, 0xdc, 0x88, 0xbf, 0xae, 0x02, 0x15, 0x3e,
  0x5c, 0x11, 0x35, 0x3f, 0x81, 0x2f, 0xde, 0xbf, 0x6f, 0x29, 0x5b, 0x3e,
  0xc4, 0xf9, 0x2e, 0xbe, 0x8e, 0x82, 0x66, 0xbe, 0x93, 0x36, 0x53, 0x3e,
  0x6e, 0x15, 0x0f, 0x3f, 0xfc, 0xa2, 0x5f, 0x3e, 0x4d, 0x21, 0xf1, 0x3e,
  0x4c, 0xd3, 0x9b, 0xbf, 0x89, 0x52, 0x80, 0xc0, 0x10, 0x61, 0x0a, 0x3f,
  0x7a, 0xd4, 0x7c, 0xc0, 0x11, 0xca, 0x0a, 0xbc, 0x78, 0x9f, 0x66, 0xbf,
  0x22, 0x23, 0x01, 0x3e, 0x51, 0x22, 0xbc, 0x3e, 0xd3, 0xa6, 0xcd, 0xbf,
  0x46, 0x96, 0x32, 0x3f, 0x78, 0x98, 0x1c, 0x3e, 0x56, 0x2b, 0x26, 0xbd,
  0xb2, 0x59, 0x0f, 0x3f, 0xe8, 0x0f, 0x67, 0x3f, 0x96, 0x5f, 0xa1, 0x3e,
  0x1e, 0xa9, 0xee, 0x3e, 0xa6, 0xbe, 0xd3, 0xbf, 0xcd, 0x7a, 0x9a, 0xc0,
  0x32, 0xa1, 0xc2, 0x3e, 0x87, 0x4e, 0x87, 0xc0, 0x0b, 0x6e, 0xda, 0xbd,
  0x44, 0x7f, 0x66, 0xbf, 0xce, 0x57, 0xea, 0x3e, 0x78, 0x9d, 0x0d, 0x3f,
  0x4c, 0x53, 0xc1, 0xbf, 0xd9, 0x30, 0xea, 0x3c, 0x67, 0x4b, 0x41, 0xbf,
  0x11, 0x3c, 0x0f, 0x3d, 0xb4, 0x9c, 0xcc, 0x3d, 0xfa, 0x38, 0x6e, 0x3f,
  0x57, 0xf9, 0xba, 0x3e, 0xba, 0xa2, 0x01, 0x3f, 0x90, 0x47, 0xb9, 0xbf,
  0xb5, 0x93, 0x93, 0xc0, 0x52, 0x5c, 0xfb, 0x3e, 0x26, 0x8d, 0x83, 0xc0,
  0x74, 0xb5, 0x1f, 0x3e, 0xa9, 0x73, 0x14, 0xbf, 0x94, 0xe2, 0xa6, 0x3e,
  0x3e, 0x92, 0x14, 0x3f, 0xfb, 0xee, 0xb7, 0xbf, 0x66, 0xdc, 0x34, 0x3f,
  0x7e, 0xdb, 0xd5, 0xbe, 0x49, 0x7e, 0x62, 0xbe, 0xa1, 0x94, 0x16, 0x3e,
  0x5f, 0x4c, 0x34, 0x3f, 0xc6, 0x03, 0x33, 0x3e, 0x99, 0xd0, 0x58, 0x3e,
  0x9c, 0xef, 0xb1, 0xbf, 0x49, 0x99, 0x93, 0xc0, 0xb3, 0x1a, 0x45, 0x3f,
  0x44, 0x04, 0x8b, 0xc0, 0x34, 0x67, 0xd0, 0x3b, 0x9e, 0x3d, 0x95, 0xbf,
  0x81, 0xf0, 0x3d, 0x3e, 0x50, 0xcf, 0x7d, 0x3e, 0xa5, 0xba, 0xcb, 0xbf,
  0xda, 0x10, 0xe1, 0x3e, 0xa6, 0x4a, 0xe2, 0xbe, 0x8d, 0xaa, 0x59, 0xbb,
  0x78, 0x69, 0x29, 0x3d, 0xdd, 0x4a, 0x0a, 0x3f, 0x1c, 0x3d, 0x43, 0x3f,
  0x5a, 0x95, 0xc0, 0x3e, 0x85, 0x83, 0xbd, 0xbf, 0xa7, 0x15, 0x7a, 0xc0,
  0x3b, 0xab, 0xcd, 0x3e, 0x1f, 0xaf, 0x8b, 0xc0, 0x03, 0x8b, 0x04, 0x3e,
  0x61, 0x72, 0x8b, 0xbf, 0xca, 0x5d, 0xc2, 0xbd, 0xc9, 0x96, 0xb5, 0x3e,
  0xdd, 0x57, 0x2e, 0xbf, 0x4f, 0x75, 0x00, 0x3e, 0xa8, 0xdc, 0xd4, 0xbe,
  0xb0, 0x61, 0x47, 0x3d, 0xb8, 0x83, 0x71, 0xbe, 0xf9, 0x44, 0x9c, 0x3e,
  0xcc, 0xf3, 0x44, 0x3f, 0xa3, 0x2e, 0x85, 0x3e, 0x6f, 0x5f, 0xb2, 0xbf,
  0x5b, 0x4b, 0x9c, 0xc0, 0xc8, 0xf9, 0xb6, 0x3e, 0xba, 0x9e, 0x89, 0xc0,
  0xb6, 0x14, 0xdb, 0x3d, 0x40, 0x2e, 0x97, 0xbf, 0xaf, 0xeb, 0x8f, 0x3c,
  0x5c, 0x63, 0xef, 0x3e, 0x90, 0x29, 0x8e, 0xbf, 0xb6, 0x42, 0x7c, 0x3e,
  0xf2, 0xea, 0x26, 0xbf, 0x36, 0x99, 0x4a, 0x3e, 0xa9, 0x3a, 0x46, 0x3f,
  0xf3, 0x11, 0x10, 0x3f, 0xb4, 0xf1, 0x94, 0x3e, 0x7f, 0x32, 0x02, 0x3f,
  0x8c, 0xca, 0xbb, 0xbf, 0x7a, 0xc3, 0x80, 0xc0, 0x5c, 0x15, 0x2f, 0x3f,
  0x3d, 0x01, 0x8f, 0xc0, 0x34, 0xe5, 0x35, 0x3e, 0xe7, 0xd2, 0xb5, 0xbf,
  0x1d, 0x1f, 0x05, 0x3f, 0x8c, 0xb7, 0x3e, 0x3f, 0xd6, 0xda, 0xbe, 0xbf,
  0x95, 0x2d, 0x58, 0x3f, 0xda, 0x7c, 0x19, 0xbf, 0x83, 0x3e, 0x01, 0xbe,
  0xf8, 0xb3, 0xc7, 0x3e, 0xab, 0xc3, 0x78, 0x3f, 0x83, 0xa0, 0xb3, 0x3e,
  0x2e, 0xdb, 0x25, 0x3f, 0xe9, 0xc2, 0xae, 0xbf, 0x39, 0xf8, 0x9a, 0xc0,
  0xca, 0xb4, 0x21, 0x3f, 0x0d, 0x6e, 0x8a, 0xc0, 0xf6, 0xa1, 0x84, 0xbc,
  0x41, 0x25, 0xb3, 0xbf, 0xf7, 0x22, 0x16, 0x3e, 0x2d, 0xb4, 0x99, 0x3e,
  0x9a, 0xb5, 0x97, 0xbf, 0x58, 0x98, 0xbe, 0x3e, 0x5f, 0xb3, 0x47, 0xbf,
  0x26, 0x5e, 0x06, 0xbe, 0x9e, 0x9f, 0x41, 0xbe, 0xe1, 0x7c, 0x3f, 0x3f,
  0xa4, 0x2f, 0x41, 0x3f, 0x44, 0xd0, 0xef, 0x3e, 0xf6, 0x61, 0xa3, 0xbf,
  0xb4, 0xef, 0x8a, 0xc0, 0x3b, 0x67, 0xd1, 0x3e, 0x8b, 0x64, 0x8a, 0xc0,
  0x5a, 0x72, 0xfb, 0x3d, 0xed, 0x89, 0xcb, 0xbf, 0xd1, 0x1c, 0x22, 0x3e,
  0xca, 0xbf, 0xcb, 0x3e, 0x50, 0x59, 0xa7, 0xbf, 0x84, 0xc0, 0x80, 0x3e,
  0x87, 0xd9, 0x07, 0xbf, 0xcb, 0xe6, 0x88, 0x3e, 0x20, 0x10, 0xaa, 0x3e,
  0x87, 0x54, 0xe8, 0x3e, 0x88, 0xab, 0x2d, 0x3f, 0x83, 0x02, 0x7e, 0x3f,
  0x0a, 0xd4, 0xbc, 0xbf, 0x39, 0xe5, 0x96, 0xc0, 0x4a, 0xd3, 0xb1, 0x3e,
  0xe3, 0x1b, 0x95, 0xc0, 0xb9, 0x1a, 0x96, 0x3e, 0xb6, 0x16, 0x9e, 0xbf,
  0x27, 0xa9, 0x3b, 0x3e, 0x4e, 0xb4, 0xa7, 0x3e, 0x23, 0x6a, 0x91, 0xbf,
  0x4e, 0xd8, 0x07, 0x3f, 0xb9, 0xb7, 0x3b, 0xbf, 0xa9, 0x34, 0x6f, 0xbd,
  0xa4, 0x3e, 0x08, 0x3f, 0x49, 0x66, 0x21, 0x3e, 0x92, 0x23, 0xce, 0x3e,
  0x8d, 0xe9, 0x25, 0x3f, 0x7a, 0x59, 0xca, 0xbf, 0x66, 0xb4, 0x91, 0xc0,
  0x52, 0x3c, 0xe1, 0x3e, 0xd1, 0x4f, 0x94, 0xc0, 0xa5, 0x61, 0xfa, 0x3d,
  0x9f, 0xff, 0x1d, 0xbf, 0x33, 0xbb, 0xf4, 0x3e, 0x72, 0x46, 0x17, 0x3f,
  0xd5, 0x23, 0xc2, 0xbf, 0x48, 0x0b, 0x9d, 0x3e, 0x1f, 0x12, 0xa9, 0xbe,
  0xb0, 0x90, 0x81, 0xbd, 0x85, 0x88, 0x59, 0xbd, 0x11, 0xc1, 0x35, 0x3f,
  0xc0, 0xae, 0x0d, 0x3f, 0x51, 0x4e, 0x62, 0x3e, 0xed, 0xf6, 0xce, 0xbf,
  0xba, 0x86, 0x86, 0xc0, 0x79, 0xe5, 0xfd, 0x3d, 0x91, 0x07, 0x99, 0xc0,
  0x34, 0xc1, 0xed, 0x3c, 0x88, 0xe3, 0x87, 0xbf, 0x37, 0xae, 0xd2, 0x3e,
  0x34, 0x45, 0xeb, 0x3e, 0xf8, 0x93, 0x9d, 0xbf, 0xec, 0x64, 0x82, 0x3e,
  0x21, 0x2a, 0x77, 0xbf, 0x8e, 0x05, 0xee, 0xbd, 0x3b, 0x38, 0xa8, 0x3e,
  0xd2, 0xd5, 0xec, 0x3e, 0x5a, 0x4d, 0x30, 0x3f, 0x13, 0xf3, 0x9e, 0xbd,
  0xc7, 0x11, 0xd8, 0xbf, 0xe3, 0xb9, 0x88, 0xc0, 0x58, 0x5c, 0x06, 0x3f,
  0xf9, 0xb1, 0xa2, 0xc0, 0x37, 0x1e, 0xdb, 0xbd, 0x99, 0xe0, 0x8f, 0xbf,
  0x11, 0x5e, 0x9a, 0x3e, 0xa8, 0xdd, 0x2e, 0x3f, 0x0e, 0x3d, 0x40, 0x3d,
  0xe4, 0xb6, 0x8c, 0x3f, 0x72, 0x41, 0x25, 0x3f, 0x6d, 0xb2, 0x5c, 0x3e,
  0x61, 0xd8, 0x0f, 0xbe, 0x4f, 0xf0, 0x69, 0xbf, 0x3c, 0xbe, 0xe4, 0xbe,
  0x0c, 0x4f, 0x1a, 0xc0, 0x83, 0xcf, 0x97, 0xbf, 0xaf, 0xad, 0x16, 0xbf,
  0xfa, 0x40, 0x69, 0x3f, 0x17, 0xc7, 0x6b, 0xc0, 0xf9, 0xe7, 0xbe, 0xbd,
  0x49, 0xdc, 0xba, 0xbf, 0x4f, 0x87, 0x07, 0xbe, 0x20, 0xd9, 0x02, 0x3f,
  0x66, 0x96, 0xa7, 0x3e, 0xad, 0x36, 0x9a, 0x3f, 0x08, 0x6d, 0x1d, 0x3f,
  0x65, 0xee, 0x6d, 0x3e, 0x21, 0x9d, 0x31, 0xbe, 0x88, 0x4b, 0xa1, 0xbf,
  0x7c, 0x77, 0x42, 0xbf, 0xee, 0x6a, 0x1b, 0xc0, 0x25, 0xb8, 0xf3, 0xbf,
  0x78, 0x73, 0x00, 0xbf, 0x28, 0x06, 0x0f, 0x3f, 0x19, 0xef, 0x6f, 0xc0,
  0x5a, 0x2b, 0x05, 0x3f, 0xdd, 0x0a, 0x97, 0xbf, 0x3a, 0xae, 0xe5, 0xbe,
  0x19, 0xc2, 0xb2, 0x3e, 0xe4, 0xbc, 0x28, 0x3e, 0x39, 0x8d, 0xa0, 0x3f,
  0x42, 0xd4, 0x8c, 0x3f, 0x1a, 0xc6, 0x61, 0x3f, 0xc4, 0x9c, 0x78, 0x3e,
  0xa3, 0xad, 0xa8, 0xbf, 0x74, 0xed, 0x24, 0xbf, 0x31, 0xce, 0x1b, 0xc0,
  0x9c, 0xff, 0xdd, 0xbf, 0xb2, 0x21, 0x90, 0xbf, 0xcf, 0x87, 0x42, 0x3f,
  0xf2, 0xd4, 0x5a, 0xc0, 0xc5, 0xa5, 0xf4, 0x3e, 0x0c, 0x29, 0x8b, 0xbf,
  0xcd, 0x99, 0x93, 0xbd, 0xe0, 0x2f, 0x36, 0x3f, 0x44, 0x56, 0x27, 0x3e,
  0x87, 0x7c, 0xb6, 0x3f, 0xa6, 0x12, 0x83, 0x3f, 0x61, 0x4a, 0x54, 0xbe,
  0x35, 0xf0, 0x17, 0xbe, 0xc7, 0x0c, 0xae, 0xbf, 0xbd, 0x1f, 0x86, 0xbe,
  0x6b, 0x78, 0x1a, 0xc0, 0xb0, 0x9e, 0xdf, 0xbf, 0x53, 0x90, 0x00, 0x3b,
  0xbf, 0x26, 0x77, 0x3f, 0x0a, 0xc3, 0x52, 0xc0, 0x2e, 0xa6, 0xf4, 0x3c,
  0xc4, 0x4f, 0xfb, 0xbf, 0x28, 0x03, 0x02, 0xbf, 0x9c, 0x7e, 0x04, 0x3f,
  0xe2, 0x27, 0x37, 0xbe, 0x72, 0x59, 0xae, 0x3f, 0x9f, 0x80, 0xfe, 0x3e,
  0x96, 0x5f, 0xea, 0x3e, 0xe9, 0xb1, 0xea, 0x3e, 0x23, 0xdd, 0xa0, 0xbf,
  0xea, 0x3a, 0xa2, 0xbe, 0xdb, 0xb3, 0x1d, 0xc0, 0x08, 0xb6, 0xee, 0xbf,
  0xed, 0xc2, 0xca, 0xbe, 0x4f, 0xaf, 0x08, 0x3f, 0x58, 0x56, 0x36, 0xc0,
  0x1b, 0xe4, 0xe7, 0x3e, 0x62, 0x01, 0xb6, 0xbf, 0xc9, 0x3d, 0x39, 0xbd,
  0x3f, 0x56, 0x0d, 0x3f, 0xaa, 0x34, 0x90, 0x3c, 0x23, 0xe3, 0x6f, 0x3f,
  0xe1, 0x25, 0x92, 0x3f, 0x3b, 0x73, 0x06, 0x3e, 0x1f, 0xac, 0xae, 0xbc,
  0x23, 0x93, 0x92, 0xbf, 0x60, 0xf2, 0x7a, 0xbe, 0xd6, 0x7e, 0x33, 0xc0,
  0x48, 0x26, 0xf3, 0xbf, 0xde, 0x06, 0xf9, 0xbe, 0xad, 0xc2, 0x2d, 0x3f,
  0x2c, 0x73, 0x53, 0xc0, 0x41, 0x7e, 0x8f, 0x3e, 0x39, 0x18, 0xa8, 0xbf,
  0xf1, 0xd4, 0x90, 0xbc, 0x50, 0x20, 0x47, 0x3f, 0x73, 0xd2, 0x9f, 0x3d,
  0xbb, 0xa5, 0x8e, 0x3f, 0x8f, 0x1a, 0xb1, 0x3f, 0x7f, 0xd4, 0x1c, 0x3f,
  0xc9, 0x71, 0x71, 0x3d, 0x07, 0xc0, 0xc4, 0xbf, 0x4d, 0x34, 0xa4, 0xbe,
  0x86, 0x4b, 0x16, 0xc0, 0x16, 0xf3, 0xc6, 0xbf, 0x84, 0x87, 0xad, 0xbe,
  0x49, 0xa8, 0xa6, 0x3e, 0x4a, 0x3d, 0x5b, 0xc0, 0x93, 0x9d, 0xa3, 0x3e,
  0x03, 0x4c, 0xa5, 0xbf, 0x60, 0x68, 0x46, 0xbf, 0xfa, 0xfa, 0x41, 0x3f,
  0xdc, 0x9e, 0x8b, 0x3e, 0x7f, 0x47, 0xb7, 0x3f, 0xe2, 0x2a, 0x5b, 0x3f,
  0x4e, 0x17, 0x87, 0x3e, 0x09, 0x7f, 0x54, 0x3e, 0x2f, 0xbb, 0xbd, 0xbf,
  0x61, 0x4b, 0x32, 0xbf, 0x15, 0x24, 0x02, 0xc0, 0xc1, 0x6d, 0xd7, 0xbf,
  0x87, 0x23, 0x3c, 0xbf, 0x8d, 0xcb, 0x42, 0x3f, 0x5e, 0xc5, 0x51, 0xc0,
  0x79, 0xc4, 0xdf, 0x3e, 0x0d, 0x7e, 0xbb, 0xbf, 0x75, 0x73, 0xc8, 0xbe,
  0x43, 0x70, 0xf7, 0x3e, 0x87, 0xab, 0xe8, 0x3e, 0xb6, 0xc6, 0x9f, 0x3f,
  0x3a, 0x2f, 0x8d, 0x3f, 0x1c, 0xa8, 0x95, 0x3e, 0x8e, 0x21, 0x65, 0xbd,
  0x57, 0xcb, 0x7c, 0xbf, 0x26, 0xc1, 0x4e, 0xbf, 0xab, 0xd5, 0x14, 0xc0,
  0x00, 0x8d, 0xe6, 0xbf, 0xfe, 0x19, 0xb1, 0xbd, 0xe1, 0x51, 0xa0, 0x3e,
  0x3c, 0x87, 0x70, 0xc0, 0x25, 0x34, 0xda, 0x3e, 0x12, 0x9b, 0xea, 0xbf,
  0x9d, 0x53, 0x73, 0xbe, 0xdf, 0x76, 0x05, 0x3f, 0x7a, 0x93, 0x8a, 0x3d,
  0xb8, 0xe6, 0x99, 0x3f, 0xe3, 0x61, 0x38, 0x3f, 0x02, 0x77, 0x4f, 0x3f,
  0x4b, 0xc6, 0x04, 0x3e, 0xf6, 0x8c, 0xc3, 0xbf, 0xfa, 0x08, 0x6a, 0x3e,
  0x93, 0xdd, 0x1f, 0xc0, 0x41, 0x37, 0xfc, 0xbf, 0xd9, 0x00, 0xab, 0xbd,
  0xa4, 0xec, 0x23, 0x3f, 0xb0, 0xaf, 0x82, 0xc0, 0xfe, 0xf8, 0x1a, 0x3f,
  0x1e, 0x27, 0xa2, 0xbf, 0x91, 0xea, 0xb5, 0x3e, 0x9c, 0x2f, 0x99, 0x3e,
  0x10, 0x42, 0x29, 0xbe, 0xa6, 0xee, 0x6e, 0x3f, 0x17, 0x61, 0x08, 0x3f,
  0xca, 0x7b, 0x29, 0x3d, 0xe4, 0x2f, 0xeb, 0x3d, 0x3e, 0xdc, 0x9f, 0xbf,
  0x56, 0xc6, 0x8d, 0xbe, 0xef, 0xec, 0x18, 0xc0, 0x74, 0x3c, 0x02, 0xc0,
  0x3c, 0x32, 0xf7, 0xbe, 0x4d, 0x60, 0x71, 0x3f, 0x17, 0x0f, 0x7f, 0xc0,
  0xb7, 0x61, 0xf9, 0x3e, 0xcb, 0x5b, 0x98, 0xbf, 0x95, 0x93, 0xcd, 0xbd,
  0xe6, 0xac, 0x10, 0x3f, 0xd8, 0xcf, 0x61, 0x3d, 0x5f, 0xfe, 0xbe, 0x3f,
  0x49, 0x1e, 0xa6, 0x3f, 0x50, 0x43, 0xc2, 0xbd, 0x16, 0xb9, 0xce, 0x3d,
  0x93, 0x93, 0xce, 0xbf, 0x5b, 0x17, 0x88, 0xbd, 0xf5, 0x04, 0x22, 0xc0,
  0xd7, 0xc5, 0xf8, 0xbf, 0x0e, 0x25, 0x2c, 0xbe, 0x10, 0x33, 0xfb, 0x3e,
  0x35, 0x3f, 0x74, 0xc0, 0xfd, 0xe4, 0x68, 0x3e, 0xe5, 0x13, 0x8d, 0xbf,
  0xa7, 0x51, 0xf5, 0xbe, 0xeb, 0xe4, 0xca, 0x3e, 0xbc, 0xa2, 0xb5, 0xbe,
  0x67, 0x9d, 0xd7, 0x3f, 0x5a, 0x5e, 0x32, 0x3f, 0xdf, 0x85, 0x17, 0x3f,
  0x2d, 0x58, 0x05, 0xbe, 0xfe, 0x58, 0xec, 0xbf, 0x06, 0xfb, 0xd9, 0xbd,
  0x29, 0x6f, 0x13, 0xc0, 0x2e, 0x70, 0xd5, 0xbf, 0x0b, 0x30, 0x03, 0xbf,
  0xe1, 0xe7, 0x81, 0x3f, 0x27, 0x08, 0x7b, 0xc0, 0x34, 0x5b, 0xc4, 0x3e,
  0x85, 0x8c, 0x81, 0xbf, 0x70, 0x8f, 0x73, 0xbe, 0x30, 0x95, 0x1d, 0x3f,
  0x2a, 0x95, 0x46, 0x3e, 0x81, 0x55, 0xa3, 0x3f, 0xa2, 0x49, 0x41, 0x3f,
  0xbc, 0x8c, 0xa5, 0x3e, 0x22, 0x3f, 0x2a, 0x3e, 0x24, 0x01, 0xcb, 0xbf,
  0xff, 0xf4, 0xb3, 0xbe, 0xb2, 0xd7, 0x2f, 0xc0, 0x92, 0xcd, 0xff, 0xbf,
  0xfb, 0xc3, 0x9d, 0xbe, 0x19, 0x42, 0x30, 0x3f, 0xef, 0x4d, 0x83, 0xc0,
  0xcc, 0x49, 0xab, 0x3e, 0x25, 0x85, 0x92, 0xbf, 0x37, 0x4d, 0x3b, 0xbf,
  0x92, 0xfd, 0x0f, 0x3f, 0x24, 0x06, 0xe7, 0x3d, 0xd3, 0xa0, 0xc8, 0x3f,
  0x9b, 0xfa, 0x31, 0x3f, 0x20, 0xdd, 0xb0, 0x3e, 0x7c, 0xb8, 0x8d, 0x3e,
  0x01, 0xfd, 0xd3, 0xbf, 0x9e, 0x65, 0xeb, 0xbe, 0x27, 0xb0, 0x3c, 0xc0,
  0x9f, 0xa9, 0xc6, 0xbf, 0xf3, 0xa3, 0x33, 0xbf, 0x4b, 0x5e, 0x57, 0x3f,
  0x55, 0x1f, 0x96, 0xc0, 0xad, 0x9f, 0x57, 0x3e, 0xc2, 0xb7, 0xb6, 0xbf,
  0xc0, 0x8d, 0x6d, 0x3c, 0x06, 0xbe, 0x19, 0x3f, 0xc0, 0x6d, 0x29, 0xbe,
  0xfa, 0x6c, 0xd4, 0x3f, 0x01, 0x4a, 0x40, 0x3f, 0xf2, 0x19, 0x15, 0x3f,
  0xc0, 0x20, 0xa0, 0xbc, 0x2b, 0xe4, 0x84, 0xbf, 0xa3, 0x05, 0x39, 0xbe,
  0xe3, 0xc9, 0x30, 0xc0, 0x33, 0x1c, 0xdb, 0xbf, 0x0c, 0xf2, 0xdf, 0xbe,
  0x07, 0x7b, 0x59, 0x3f, 0x19, 0x54, 0x86, 0xc0, 0x4d, 0x6c, 0x77, 0x3e,
  0x52, 0xe5, 0x91, 0xbf, 0x56, 0x5c, 0xe3, 0xbe, 0x77, 0xda, 0xf8, 0x3e,
  0xbb, 0xf9, 0x40, 0x3e, 0x21, 0x2d, 0x9c, 0x3f, 0xcd, 0xd4, 0xad, 0x3f,
  0x71, 0x3f, 0x4a, 0x3e, 0x30, 0xab, 0x27, 0xbe, 0x06, 0x0e, 0x83, 0xbf,
  0x2e, 0xea, 0x4d, 0xbe, 0x15, 0xa1, 0x28, 0xc0, 0xfa, 0x51, 0xf2, 0xbf,
  0xb4, 0xfc, 0x21, 0xbf, 0x4c, 0x40, 0x3b, 0x3f, 0xc6, 0x59, 0x86, 0xc0,
  0x42, 0xd7, 0x39, 0x3f, 0x1d, 0xac, 0x6a, 0xbf, 0x16, 0xe0, 0xbd, 0xbd,
  0xf2, 0xf4, 0x0f, 0x3e, 0x09, 0x11, 0xe6, 0x3e, 0x8e, 0x0a, 0x55, 0x3f,
  0x94, 0xa2, 0x73, 0x3f, 0xab, 0xbb, 0x9f, 0x3e, 0x75, 0x20, 0x41, 0xbe,
  0xbf, 0x5d, 0x62, 0xbf, 0xb9, 0x1e, 0x78, 0x3d, 0xe3, 0x5d, 0x27, 0xc0,
  0x26, 0xe5, 0xcc, 0xbf, 0x1a, 0x39, 0x55, 0xbe, 0xd3, 0x0d, 0x44, 0x3f,
  0x19, 0xb0, 0x7e, 0xc0, 0x7b, 0x2e, 0x2e, 0x3f, 0x62, 0xe5, 0xd6, 0xbf,
  0xf7, 0x3e, 0x01, 0xbf, 0xf6, 0x5a, 0x04, 0x3f, 0x2d, 0x3b, 0x36, 0xbd,
  0x19, 0x4e, 0x98, 0x3f, 0x42, 0xbd, 0x99, 0x3f, 0xf4, 0x8a, 0x98, 0x3e,
  0xa0, 0x66, 0xcd, 0xbd, 0xe1, 0xfe, 0xd5, 0xbf, 0xa5, 0x69, 0xe9, 0xbe,
  0x0e, 0x59, 0x16, 0xc0, 0x7e, 0xf1, 0xee, 0xbf, 0xdd, 0x2e, 0xd9, 0xbc,
  0x86, 0x77, 0x4b, 0x3f, 0x1a, 0xea, 0x80, 0xc0, 0xef, 0xf6, 0x5e, 0xbd,
  0xe6, 0x89, 0x9e, 0xbf, 0x4d, 0xcc, 0x7e, 0xbe, 0xdc, 0xfe, 0x3a, 0x3f,
  0x40, 0xe0, 0x17, 0x3e, 0x58, 0x58, 0xba, 0x3f, 0x48, 0xc0, 0x64, 0x3f,
  0xdd, 0x15, 0xa5, 0x3e, 0x1f, 0xb9, 0x21, 0x3e, 0x26, 0x4c, 0xe4, 0xbf,
  0xab, 0x31, 0x3d, 0xbf, 0x43, 0x81, 0x09, 0xc0, 0x70, 0x59, 0x07, 0xc0,
  0xf2, 0x27, 0x0f, 0xbf, 0x34, 0x38, 0x26, 0x3f, 0x42, 0x4a, 0x86, 0xc0,
  0x36, 0x3c, 0xde, 0x3c, 0x7f, 0xcb, 0xb4, 0xbf, 0xf2, 0x1b, 0xd8, 0xbe,
  0x83, 0x99, 0x6a, 0x3d, 0xa8, 0x91, 0xae, 0x3e, 0xcb, 0xb5, 0xbe, 0x3f,
  0x4a, 0xb5, 0x8b, 0x3f, 0xd7, 0xee, 0xaf, 0x3d, 0x34, 0xf4, 0x91, 0x3e,
  0xe6, 0x77, 0xfe, 0xbf, 0x44, 0xef, 0xda, 0xbe, 0x8a, 0x6c, 0x07, 0xc0,
  0xe9, 0x8c, 0xff, 0xbf, 0xb2, 0xff, 0xb8, 0xbe, 0x9e, 0xd3, 0x2b, 0x3f,
  0x94, 0xe3, 0x7a, 0xc0, 0xb9, 0x44, 0x02, 0x3f, 0x59, 0xcd, 0xcb, 0xbf,
  0xc8, 0x2c, 0x33, 0x3e, 0xf5, 0x36, 0xc0, 0x3e, 0x35, 0xd2, 0xbd, 0x3e,
  0xfd, 0xf2, 0xd9, 0x3f, 0xd9, 0xb4, 0x91, 0x3f, 0x8b, 0x70, 0xa5, 0xbd,
  0x1f, 0xea, 0xc2, 0x3e, 0x7f, 0x92, 0x8a, 0xbf, 0x6d, 0x20, 0x13, 0xbe,
  0xe7, 0xb6, 0x20, 0xc0, 0x86, 0x94, 0xf2, 0xbf, 0x00, 0x5d, 0xb4, 0x3d,
  0xe7, 0x2e, 0xc1, 0x3e, 0x6e, 0x5b, 0x89, 0xc0, 0x34, 0x09, 0x1f, 0x3f,
  0x33, 0xb9, 0x9a, 0xbf, 0xaf, 0x16, 0xec, 0xbe, 0x41, 0xaf, 0x62, 0x3f,
  0x72, 0xcd, 0x0e, 0xc0, 0x22, 0x23, 0xea, 0x3d, 0x96, 0xab, 0x29, 0x3f,
  0xfa, 0xb3, 0x49, 0xc0, 0x47, 0xab, 0xf3, 0xbd, 0x27, 0x23, 0x2a, 0xc0,
  0xd4, 0xdb, 0x66, 0xbe, 0x58, 0x19, 0x80, 0xbf, 0x7d, 0xb0, 0x4b, 0xc0,
  0x62, 0x1d, 0x50, 0x3f, 0x43, 0x1c, 0xf1, 0xc0, 0x71, 0x49, 0x85, 0xbf,
  0x1a, 0xd1, 0xae, 0x3e, 0x95, 0xfc, 0x4e, 0x3f, 0x98, 0xb5, 0x88, 0xc0,
  0x02, 0x26, 0x5c, 0x3f, 0x72, 0x08, 0xbc, 0xbf, 0x5a, 0xa3, 0xcd, 0x3d,
  0xee, 0x23, 0x64, 0x3f, 0xec, 0xb0, 0x68, 0xc0, 0x2c, 0xc9, 0xe7, 0x3d,
  0xb9, 0x35, 0x2f, 0xc0, 0x34, 0x54, 0x78, 0xbe, 0x10, 0xcf, 0x74, 0xbf,
  0x17, 0x26, 0x5c, 0xc0, 0xaa, 0x30, 0xdd, 0x3f, 0xf6, 0x91, 0x04, 0xc1,
  0x69, 0x67, 0x49, 0xbf, 0x07, 0x42, 0x25, 0x3f, 0x14, 0x34, 0x51, 0x3f,
  0x1a, 0x3e, 0x84, 0xc0, 0xb2, 0x72, 0x81, 0x3f, 0x5a, 0x02, 0xf3, 0xbf,
  0xba, 0x34, 0x03, 0x3f, 0x7a, 0x09, 0xb1, 0x3f, 0x12, 0x99, 0x5f, 0xc0,
  0xe3, 0x78, 0x0c, 0x3f, 0xeb, 0x96, 0x34, 0xc0, 0xe1, 0xda, 0x44, 0x3e,
  0x62, 0xeb, 0x7f, 0xbf, 0xc2, 0x27, 0x50, 0xc0, 0x0f, 0x4f, 0x33, 0x3f,
  0x1b, 0x57, 0xf8, 0xc0, 0xe9, 0x11, 0x9b, 0xbf, 0x9f, 0x23, 0x2d, 0x3f,
  0x65, 0xb0, 0x58, 0x3f, 0x18, 0x50, 0x68, 0xc0, 0xe4, 0x35, 0x93, 0x3f,
  0xe0, 0x88, 0xf8, 0xbf, 0xaa, 0xc4, 0x75, 0x3f, 0x5f, 0xf5, 0x8f, 0x3f,
  0x45, 0x52, 0x4d, 0xc0, 0xb0, 0x8b, 0xe9, 0x3e, 0x32, 0xdb, 0x1f, 0xc0,
  0xdf, 0x34, 0x95, 0x3e, 0x0d, 0xa6, 0x58, 0xbf, 0x9e, 0x77, 0x27, 0xc0,
  0xfc, 0x15, 0xbb, 0x3f, 0x25, 0xb7, 0xeb, 0xc0, 0x43, 0x84, 0xa2, 0xbf,
  0xe8, 0x64, 0x7a, 0x3f, 0xf3, 0xfd, 0xe5, 0x3e, 0x3f, 0x67, 0x7c, 0xc0,
  0x3c, 0x82, 0x44, 0x3f, 0x02, 0x82, 0xe3, 0xbf, 0x42, 0xf2, 0x17, 0x3e,
  0xdb, 0xb1, 0x84, 0x3f, 0x4d, 0xa0, 0x61, 0xc0, 0x09, 0x75, 0x3e, 0x3e,
  0x3f, 0xea, 0x3f, 0xc0, 0xfa, 0xca, 0x5c, 0x3e, 0xa9, 0x4a, 0x9c, 0xbf,
  0x10, 0x83, 0x0c, 0xc0, 0xc3, 0xb0, 0xd4, 0x3f, 0x54, 0x2c, 0xdd, 0xc0,
  0x02, 0xc6, 0x74, 0xbf, 0xe0, 0xd6, 0xe0, 0x3e, 0x96, 0xc1, 0x86, 0x3f,
  0xad, 0xdf, 0x69, 0xc0, 0x6d, 0x1a, 0x2d, 0x3f, 0x4e, 0x06, 0xe9, 0xbf,
  0xb4, 0x37, 0xfa, 0xbd, 0xe9, 0xad, 0x1d, 0x3f, 0x1c, 0x62, 0x84, 0xc0,
  0x5a, 0xd9, 0x8c, 0x3e, 0x2e, 0x3f, 0x5d, 0xc0, 0xab, 0xc4, 0x2f, 0x3e,
  0xda, 0xb6, 0x5d, 0xbf, 0xda, 0x1e, 0x37, 0xc0, 0xea, 0x85, 0xa7, 0x3f,
  0xb0, 0x21, 0xed, 0xc0, 0x1d, 0x4b, 0x7d, 0xbf, 0xa8, 0xe0, 0x45, 0x3f,
  0xac, 0x01, 0x23, 0x3f, 0x0a, 0xf4, 0x63, 0xc0, 0xa4, 0x24, 0x4d, 0x3f,
  0x8c, 0xe9, 0x05, 0xc0, 0x53, 0xcf, 0x0f, 0x3e, 0xe8, 0xcc, 0x77, 0x3f,
  0xe9, 0xa8, 0x73, 0xc0, 0x68, 0x56, 0x9b, 0xbe, 0x2d, 0x7f, 0x5e, 0xc0,
  0x17, 0x45, 0x99, 0x3c, 0x3a, 0x39, 0x92, 0xbf, 0x37, 0x8f, 0x2d, 0xc0,
  0xe9, 0x11, 0x9f, 0x3f, 0x34, 0x7b, 0xe6, 0xc0, 0xe5, 0xf0, 0xb5, 0xbf,
  0x1c, 0xdb, 0xec, 0x3e, 0xaa, 0x7e, 0x43, 0x3f, 0x6f, 0x74, 0x80, 0xc0,
  0x60, 0xde, 0xc4, 0x3e, 0xba, 0xb6, 0x0f, 0xc0, 0x8d, 0xdf, 0xaa, 0x3e,
  0x27, 0xea, 0x71, 0x3f, 0x26, 0xae, 0x66, 0xc0, 0xf5, 0x7e, 0xdc, 0xbe,
  0xa6, 0x8f, 0x48, 0xc0, 0x12, 0x53, 0xa2, 0xbd, 0xf5, 0x6b, 0xac, 0xbf,
  0x97, 0xb8, 0x56, 0xc0, 0x80, 0x76, 0xba, 0x3f, 0x8d, 0x29, 0xe1, 0xc0,
  0x5f, 0xb2, 0x98, 0xbf, 0xda, 0x9f, 0xcf, 0x3e, 0xec, 0x61, 0x9a, 0x3f,
  0x2e, 0x8f, 0x8d, 0xc0, 0x2b, 0x5e, 0x2a, 0x3f, 0x3e, 0x29, 0x0b, 0xc0,
  0x4c, 0xfb, 0x91, 0x3e, 0xfa, 0x46, 0x99, 0x3f, 0x53, 0x8b, 0x56, 0xc0,
  0x2f, 0xc9, 0xcb, 0xbc, 0xf7, 0x54, 0x4c, 0xc0, 0x76, 0x5e, 0xbd, 0x3e,
  0xa3, 0xec, 0x89, 0xbf, 0x6e, 0xd0, 0x1a, 0xc0, 0x69, 0x86, 0xd9, 0x3f,
  0x35, 0x18, 0xe1, 0xc0, 0xde, 0xb5, 0x94, 0xbf, 0x6e, 0xb0, 0x99, 0x3e,
  0xff, 0x47, 0x01, 0x3f, 0x78, 0xd8, 0x84, 0xc0, 0xea, 0xf0, 0x44, 0x3f,
  0xad, 0x94, 0x16, 0xc0, 0xef, 0xb4, 0x27, 0x3f, 0xc9, 0x75, 0x07, 0x3f,
  0xb5, 0x01, 0x74, 0xc0, 0x78, 0x89, 0xc8, 0x3e, 0xfb, 0x40, 0x5c, 0xc0,
  0xd9, 0xd3, 0x84, 0xbd, 0xe8, 0xfc, 0x85, 0xbf, 0x2e, 0x2b, 0x66, 0xc0,
  0xbd, 0x33, 0xd6, 0x3f, 0x97, 0xb4, 0xe3, 0xc0, 0x11, 0x6c, 0xa4, 0xbf,
  0xe0, 0x8b, 0x05, 0x3f, 0xa8, 0xf9, 0xb3, 0x3e, 0x42, 0x35, 0x76, 0xc0,
  0x4f, 0x76, 0x2b, 0x3f, 0x2d, 0x59, 0xf9, 0xbf, 0x97, 0x3b, 0x30, 0x3f,
  0x82, 0x4d, 0x49, 0x3f, 0xa4, 0x7e, 0x5d, 0xc0, 0x0b, 0x73, 0x63, 0xbe,
  0x77, 0x08, 0x4e, 0xc0, 0xb6, 0xbe, 0xed, 0x3e, 0xa3, 0xa5, 0x88, 0xbf,
  0x23, 0xd2, 0x5f, 0xc0, 0x85, 0x8e, 0xb4, 0x3f, 0xbf, 0x04, 0xd3, 0xc0,
  0xb8, 0x09, 0xb0, 0xbf, 0x5e, 0xe6, 0x2e, 0x3f, 0xfc, 0x1c, 0x2c, 0x3f,
  0x4d, 0xef, 0x76, 0xc0, 0x39, 0x19, 0x5a, 0x3f, 0x2b, 0xfd, 0x0e, 0xc0,
  0x68, 0xfc, 0x20, 0x3e, 0x31, 0x39, 0x48, 0x3f, 0xa1, 0xd7, 0x66, 0xc0,
  0xed, 0x64, 0xce, 0xbe, 0x53, 0xe4, 0x37, 0xc0, 0x40, 0xcf, 0x24, 0x3e,
  0x6a, 0x14, 0xaf, 0xbf, 0xa4, 0xc2, 0x6a, 0xc0, 0x49, 0xb3, 0x54, 0x3f,
  0x82, 0x59, 0xcf, 0xc0, 0xa6, 0xc7, 0xb9, 0xbf, 0xb2, 0x0e, 0x44, 0x3e,
  0x51, 0xeb, 0x46, 0x3f, 0x3c, 0x36, 0x7d, 0xc0, 0xd0, 0x8a, 0x29, 0x3f,
  0x27, 0xe3, 0x06, 0xc0, 0x7a, 0x43, 0x3f, 0xbe, 0xf1, 0xd7, 0x87, 0x3f,
  0x23, 0x46, 0x84, 0xc0, 0x19, 0xb8, 0x3c, 0xbe, 0x43, 0x68, 0x57, 0xc0,
  0xc0, 0x6f, 0x72, 0xbd, 0x0d, 0xb4, 0x7d, 0xbf, 0x85, 0xf4, 0x4d, 0xc0,
  0x81, 0x6e, 0x81, 0x3f, 0x03, 0xa1, 0xc4, 0xc0, 0xf8, 0x8f, 0xa5, 0xbf,
  0x86, 0x88, 0x27, 0x3f, 0xa9, 0x77, 0x81, 0x3f, 0x11, 0x53, 0x6b, 0xc0,
  0xd5, 0x8b, 0xa8, 0x3f, 0xf3, 0xbc, 0x01, 0xc0, 0xdf, 0xed, 0x2f, 0xbd,
  0xd9, 0x5f, 0x0c, 0x3f, 0x66, 0x4b, 0x52, 0xc0, 0x17, 0x98, 0x56, 0x3e,
  0xd5, 0xdd, 0x46, 0xc0, 0xa3, 0x89, 0x8a, 0x3d, 0x79, 0x26, 0x33, 0xbf,
  0x2c, 0x0d, 0x48, 0xc0, 0xbd, 0x99, 0xe7, 0x3f, 0x67, 0x2e, 0xcb, 0xc0,
  0xf5, 0x27, 0xaa, 0xbf, 0x0f, 0x9b, 0x84, 0x3e, 0x6d, 0xa9, 0x34, 0x3f,
  0xf1, 0x26, 0x6d, 0xc0, 0x51, 0xb5, 0x39, 0x3f, 0xcd, 0xe7, 0x0b, 0xc0,
  0x3e, 0xa8, 0x6c, 0x3e, 0xce, 0xd4, 0xc6, 0x3f, 0x18, 0x59, 0x69, 0xc0,
  0x8e, 0x9d, 0xed, 0x3d, 0xde, 0xfd, 0x15, 0xc0, 0xf4, 0xff, 0x4f, 0xbc,
  0x8e, 0xae, 0x60, 0xbf, 0xbb, 0x53, 0x21, 0xc0, 0x4e, 0x16, 0xae, 0x3f,
  0x42, 0x95, 0xd4, 0xc0, 0xc7, 0xe3, 0x04, 0xbf, 0xed, 0x20, 0x3e, 0x3f,
  0x2f, 0x16, 0x5f, 0x3f, 0xe6, 0xe5, 0x79, 0xc0, 0x72, 0xfe, 0x4d, 0x3f,
  0x13, 0x3c, 0x2c, 0xc0, 0x32, 0x7e, 0x9b, 0x3e, 0xf7, 0x5c, 0xd7, 0x3e,
  0x50, 0xd5, 0x5c, 0xc0, 0x95, 0xa8, 0x1b, 0xbe, 0x71, 0x4f, 0x31, 0xc0,
  0xe5, 0x75, 0xb6, 0x3e, 0x33, 0xb7, 0x16, 0xbf, 0xf9, 0x50, 0x46, 0xc0,
  0x52, 0xe5, 0xcc, 0x3f, 0x64, 0xc3, 0xc0, 0xc0, 0xb9, 0x69, 0xa3, 0xbf,
  0x4d, 0x02, 0xa2, 0x3e, 0x48, 0xc3, 0x87, 0x3f, 0x00, 0x77, 0x88, 0xc0,
  0xde, 0x44, 0x22, 0x3f, 0x0a, 0x37, 0xfc, 0xbf, 0xb3, 0xce, 0x83, 0x3e,
  0x79, 0x84, 0x7f, 0x3f, 0x23, 0xa9, 0x59, 0xc0, 0xe0, 0x27, 0xe6, 0x3d,
  0x82, 0xf9, 0x3b, 0xc0, 0xf3, 0x4c, 0xa9, 0xbe, 0x04, 0x0f, 0x77, 0xbf,
  0x30, 0x39, 0x45, 0xc0, 0x75, 0x5e, 0xad, 0x3f, 0xdb, 0xf2, 0xc9, 0xc0,
  0x7f, 0xbd, 0x86, 0xbf, 0xad, 0x8d, 0x1a, 0x3f, 0x23, 0x47, 0x95, 0x3e,
  0xec, 0x87, 0x80, 0xc0, 0xf0, 0x3b, 0x1d, 0x3f, 0x33, 0x6f, 0xdf, 0xbf,
  0xff, 0xb3, 0x2c, 0x3f, 0x38, 0x8d, 0x4a, 0x3f, 0xa0, 0x3c, 0x73, 0xc0,
  0xfc, 0xb4, 0x75, 0xbe, 0xd4, 0xe0, 0x43, 0xc0, 0x1e, 0x1e, 0x4f, 0xbe,
  0xb7, 0xdb, 0x59, 0xbf, 0x07, 0x1f, 0x5b, 0xc0, 0xe6, 0x14, 0xa1, 0x3f,
  0x58, 0xff, 0xca, 0xc0, 0x21, 0x9a, 0x7a, 0xbf, 0x38, 0x38, 0x99, 0x3e,
  0x2e, 0x1c, 0x9d, 0x3f, 0x13, 0x9d, 0x75, 0xc0, 0xd1, 0x52, 0x2f, 0x3f,
  0x83, 0xeb, 0xfa, 0xbf, 0xfe, 0x27, 0x0b, 0x3f, 0xb6, 0x0f, 0x95, 0x3f,
  0xcc, 0xb0, 0x62, 0xc0, 0x44, 0x17, 0x97, 0x3e, 0xd5, 0x5d, 0x33, 0xc0,
  0xb1, 0x90, 0xa9, 0x3d, 0x62, 0x75, 0x4f, 0xbf, 0x5b, 0x64, 0x4c, 0xc0,
  0x7f, 0xbd, 0xb5, 0x3f, 0xeb, 0x83, 0xc4, 0xc0, 0x77, 0xbe, 0xb5, 0xbf,
  0x25, 0xa5, 0x2a, 0x3f, 0xc1, 0xb4, 0xa5, 0x3e, 0x6b, 0x12, 0x5b, 0xc0,
  0xbf, 0xab, 0x2a, 0x3f, 0x5f, 0x96, 0xe8, 0xbf, 0xf8, 0x84, 0xd1, 0xbc,
  0x4e, 0x52, 0x86, 0x3f, 0x8b, 0x19, 0x60, 0xc0, 0x55, 0x0d, 0xc7, 0x3e,
  0x73, 0x32, 0x31, 0xc0, 0xc6, 0x66, 0x87, 0x3e, 0x8a, 0x57, 0x8b, 0xbf,
  0x2f, 0xce, 0x5b, 0xc0, 0x85, 0x60, 0xa2, 0x3f, 0x4d, 0xc5, 0xb1, 0xc0,
  0xc1, 0xd8, 0x61, 0xbf, 0x29, 0x05, 0xc1, 0x3e, 0x9e, 0xaa, 0x69, 0x3f,
  0x78, 0x16, 0x73, 0xc0, 0xf8, 0x5d, 0x77, 0x3f, 0xd9, 0xf6, 0xe8, 0xbf,
  0x80, 0x7f, 0xd2, 0x3e, 0x7b, 0xfe, 0x70, 0x3f, 0x7e, 0x0e, 0x6a, 0xc0,
  0x7a, 0xa6, 0x3e, 0xbe, 0x5c, 0x57, 0x0a, 0xc0, 0x8f, 0x29, 0x59, 0xbe,
  0xad, 0xde, 0x91, 0xbf, 0x15, 0x1f, 0x6c, 0xc0, 0x89, 0xd7, 0x95, 0x3f,
  0x88, 0xbb, 0xca, 0xc0, 0xff, 0xfc, 0x76, 0xbf, 0x7b, 0xf1, 0x19, 0x3f,
  0x99, 0xbb, 0x83, 0xbe, 0x19, 0x04, 0x47, 0xc0, 0xc4, 0xc2, 0x91, 0x3f,
  0xab, 0x77, 0xdb, 0xbf, 0x21, 0x03, 0x3b, 0x3e, 0x01, 0x08, 0x89, 0x3f,
  0x5e, 0xcc, 0x2b, 0xc0, 0x70, 0x9f, 0x7f, 0x3e, 0x11, 0x90, 0x11, 0xc0,
  0x0b, 0x42, 0x1a, 0xbd, 0x10, 0xb6, 0x6a, 0xbf, 0x8b, 0x6a, 0x43, 0xc0,
  0x26, 0x69, 0x61, 0x3f, 0xa2, 0xe9, 0xc1, 0xc0, 0x49, 0xef, 0x7d, 0xbf,
  0x93, 0xd5, 0xf4, 0x3e, 0x0a, 0x6b, 0xf3, 0x3e, 0x7f, 0x8a, 0x42, 0xc0,
  0x80, 0xdd, 0x00, 0xc1, 0x4a, 0x23, 0x98, 0xbf, 0x3f, 0xb1, 0x37, 0xc0,
  0xe8, 0x2c, 0x10, 0xbf, 0x30, 0xd2, 0x11, 0x3f, 0xfa, 0x01, 0x13, 0xc0,
  0x83, 0x19, 0xa1, 0x3e, 0x72, 0x1c, 0x2e, 0xc0, 0x78, 0x9b, 0x37, 0xc0,
  0x73, 0x76, 0x55, 0xc0, 0x90, 0xbc, 0x33, 0xbf, 0x37, 0xa8, 0x98, 0xc0,
  0x72, 0x6a, 0xfd, 0x3f, 0xda, 0x1a, 0x42, 0xbf, 0x99, 0x04, 0x44, 0x40,
  0x66, 0xb4, 0xd3, 0x3f, 0xc9, 0x88, 0xfa, 0xc0, 0x36, 0xe7, 0xed, 0xbf,
  0xe5, 0x48, 0x17, 0xc0, 0xaa, 0xe6, 0x7a, 0xbf, 0xda, 0xa9, 0x02, 0x3f,
  0xfa, 0xbc, 0x14, 0xc0, 0x02, 0x7d, 0x67, 0x3f, 0x9a, 0x4b, 0x3c, 0xc0,
  0xbf, 0x8b, 0x34, 0xc0, 0x72, 0xb8, 0x33, 0xc0, 0x20, 0x60, 0xd2, 0xbe,
  0x9c, 0x84, 0x89, 0xc0, 0xef, 0x94, 0x10, 0x40, 0x1b, 0xd2, 0xc3, 0xbf,
  0x99, 0x0d, 0x47, 0x40, 0x96, 0x86, 0xb0, 0x3f, 0xf6, 0x05, 0xee, 0xc0,
  0xa7, 0x45, 0x0f, 0xc0, 0x45, 0xa5, 0x32, 0xc0, 0x87, 0x14, 0x8d, 0xbf,
  0xf8, 0x52, 0x62, 0x3f, 0xdb, 0x61, 0x1e, 0xc0, 0xcd, 0x1b, 0x06, 0x3e,
  0x41, 0xd6, 0x21, 0xc0, 0x47, 0xf7, 0x3b, 0xc0, 0xd8, 0xb1, 0x2b, 0xc0,
  0x08, 0x83, 0x48, 0xbf, 0x3a, 0xe9, 0x91, 0xc0, 0x9f, 0x63, 0x02, 0x40,
  0xfb, 0xe8, 0x86, 0xbf, 0x71, 0x38, 0x4e, 0x40, 0x12, 0xa2, 0x91, 0x3f,
  0xaa, 0x29, 0xda, 0xc0, 0xd9, 0x2b, 0x0d, 0xc0, 0xe5, 0x3e, 0x4a, 0xc0,
  0x37, 0xf1, 0x9a, 0xbf, 0x37, 0x4e, 0x82, 0x3f, 0xfe, 0xa3, 0x29, 0xc0,
  0xc2, 0x68, 0x4d, 0x3f, 0xc2, 0x95, 0x2c, 0xc0, 0x70, 0x06, 0x3b, 0xc0,
  0x1b, 0xa1, 0x59, 0xc0, 0xc4, 0x41, 0xb6, 0x3e, 0xab, 0x57, 0xa0, 0xc0,
  0x30, 0xd1, 0x05, 0x40, 0x56, 0xc6, 0x67, 0xbf, 0xa8, 0xca, 0x47, 0x40,
  0x60, 0x4a, 0x52, 0x3f, 0x1c, 0x9e, 0xdc, 0xc0, 0x9a, 0x96, 0x1e, 0xc0,
  0xe4, 0x54, 0x1c, 0xc0, 0x45, 0xb7, 0xab, 0xbf, 0xaa, 0x79, 0xac, 0x3e,
  0x33, 0x6b, 0x23, 0xc0, 0x2c, 0x52, 0x2e, 0x3f, 0x94, 0x6e, 0x18, 0xc0,
  0xa2, 0x36, 0x43, 0xc0, 0x16, 0x65, 0x45, 0xc0, 0x27, 0xbe, 0xa6, 0xbe,
  0x7c, 0x1d, 0xa2, 0xc0, 0xea, 0x5b, 0xbd, 0x3f, 0x28, 0x6d, 0xa3, 0xbf,
  0xac, 0xef, 0x3a, 0x40, 0x94, 0x19, 0x2b, 0x3f, 0x8a, 0xe1, 0xb7, 0xc0,
  0x51, 0x93, 0x1c, 0xc0, 0x9c, 0x8c, 0x38, 0xc0, 0x98, 0x22, 0x21, 0xbf,
  0x1d, 0xb4, 0x32, 0x3f, 0x36, 0xf6, 0x12, 0xc0, 0x68, 0xaf, 0x7e, 0x3e,
  0xdf, 0x84, 0x41, 0xc0, 0x26, 0xe5, 0x4b, 0xc0, 0xb6, 0x95, 0x49, 0xc0,
  0xd1, 0xb2, 0x14, 0xbf, 0xae, 0x74, 0x9e, 0xc0, 0xea, 0xe7, 0x9b, 0x3f,
  0xbe, 0xec, 0x42, 0xbf, 0x27, 0xd4, 0x32, 0x40, 0x61, 0xa9, 0xb5, 0x3e,
  0x9c, 0xd8, 0xa6, 0xc0, 0x6c, 0x7d, 0x3f, 0xc0, 0x11, 0xbd, 0x0a, 0xc0,
  0x99, 0x79, 0xd4, 0xbf, 0x97, 0xeb, 0x44, 0x3f, 0x1b, 0x8c, 0x07, 0xc0,
  0x70, 0xbd, 0xd8, 0xb8, 0x6c, 0x70, 0x48, 0xc0, 0x2a, 0x7b, 0x40, 0xc0,
  0xc0, 0x87, 0x29, 0xc0, 0x6e, 0x67, 0x23, 0xbf, 0x9f, 0x53, 0x8e, 0xc0,
  0xdc, 0xdf, 0x84, 0x3f, 0x1c, 0x2b, 0x20, 0xbf, 0x8c, 0x51, 0x25, 0x40,
  0x32, 0x73, 0x33, 0x3f, 0x92, 0xae, 0x90, 0xc0, 0x9f, 0x69, 0x3c, 0xc0,
  0xac, 0xa6, 0xeb, 0xbf, 0x5f, 0xe3, 0x78, 0xbf, 0xbc, 0xe6, 0x59, 0x3f,
  0x8b, 0xe3, 0x05, 0xc0, 0xc3, 0xb4, 0xd2, 0xbd, 0xbe, 0xae, 0x48, 0xc0,
  0xed, 0xa9, 0x56, 0xc0, 0x5a, 0x1f, 0x34, 0xc0, 0x88, 0x19, 0x78, 0xbf,
  0x68, 0x49, 0x75, 0xc0, 0xb9, 0x14, 0xcc, 0x3e, 0x65, 0x79, 0x16, 0xbf,
  0xfd, 0x1e, 0xf7, 0x3f, 0xa7, 0xd9, 0xda, 0x3e, 0x35, 0x1b, 0x83, 0xc0,
  0x31, 0x12, 0x28, 0xc0, 0x3f, 0x6b, 0xc5, 0xbf, 0x52, 0xfc, 0xe2, 0xbe,
  0xd6, 0xa2, 0x33, 0x3e, 0x7f, 0xc2, 0x11, 0xc0, 0xa4, 0xfb, 0x5f, 0xbf,
  0xaa, 0x92, 0x3a, 0xc0, 0x04, 0x90, 0x36, 0xc0, 0x61, 0xb7, 0x43, 0xc0,
  0x87, 0x8c, 0x56, 0xbf, 0x84, 0xb2, 0x80, 0xc0, 0x4c, 0x2f, 0x37, 0x3f,
  0xfd, 0xa2, 0xae, 0xbd, 0x6d, 0xe3, 0x24, 0x40, 0x72, 0x4f, 0x37, 0x3e,
  0x19, 0xcb, 0x71, 0xc0, 0x41, 0x88, 0x44, 0xc0, 0xee, 0xc9, 0x86, 0xbf,
  0xb1, 0xd8, 0x3b, 0xbf, 0xd9, 0xe7, 0xe4, 0x3e, 0xe5, 0xd7, 0x01, 0xc0,
  0xbf, 0xe2, 0x1e, 0xbf, 0x21, 0x90, 0x4f, 0xc0, 0x20, 0xa8, 0x57, 0xc0,
  0xdf, 0x8f, 0x2a, 0xc0, 0x59, 0xf3, 0x8b, 0xbf, 0x5c, 0x2e, 0x5d, 0xc0,
  0x00, 0x2e, 0x78, 0x3f, 0xdc, 0xc9, 0xd2, 0x3e, 0xed, 0xee, 0x2e, 0x40,
  0xf2, 0x3e, 0x1c, 0x3a, 0x92, 0xb1, 0x94, 0xc0, 0x23, 0xb5, 0x60, 0xc0,
  0xde, 0x4c, 0x87, 0xbf, 0xdd, 0xce, 0x30, 0xbf, 0x3c, 0x39, 0x04, 0x3e,
  0xf7, 0xaa, 0x09, 0xc0, 0x59, 0xaa, 0x1f, 0xbf, 0x98, 0xa1, 0x40, 0xc0,
  0x74, 0x3d, 0x47, 0xc0, 0xde, 0x9e, 0x32, 0xc0, 0x54, 0xda, 0x80, 0xbf,
  0xe8, 0xd3, 0x4c, 0xc0, 0x7b, 0x6e, 0x29, 0x3f, 0x50, 0x31, 0xfe, 0x3b,
  0x6c, 0x18, 0xf3, 0x3f, 0xa2, 0x97, 0x0a, 0x3f, 0x80, 0x13, 0x95, 0xc0,
  0x6d, 0xff, 0x61, 0xc0, 0x45, 0xa9, 0x88, 0xbf, 0xce, 0x89, 0x83, 0xbe,
  0x3f, 0xa0, 0xac, 0x3e, 0xf0, 0x2f, 0x18, 0xc0, 0x18, 0x39, 0x24, 0xbf,
  0x98, 0xdd, 0x6a, 0xc0, 0x73, 0x2d, 0x6a, 0xc0, 0xf0, 0x5a, 0x2b, 0xc0,
  0x36, 0x3a, 0xb0, 0xbf, 0x60, 0x7c, 0x70, 0xc0, 0x5b, 0xf7, 0x27, 0x3f,
  0x06, 0x81, 0x9d, 0xbe, 0x1b, 0xd2, 0xce, 0x3f, 0x88, 0x59, 0xc4, 0x3e,
  0x52, 0x06, 0x86, 0xc0, 0xab, 0x3f, 0x63, 0xc0, 0x59, 0x53, 0x49, 0xbf,
  0xb3, 0xe1, 0x08, 0xbf, 0x58, 0x8f, 0xe6, 0x3e, 0x13, 0x44, 0x2b, 0xc0,
  0x95, 0x21, 0x88, 0xbf, 0x55, 0xee, 0x34, 0xc0, 0x0d, 0xe3, 0x75, 0xc0,
  0x75, 0x4d, 0x50, 0xc0, 0xdf, 0xd6, 0xa1, 0xbf, 0xaa, 0x2d, 0x68, 0xc0,
  0x63, 0xfd, 0x15, 0x3f, 0xb4, 0xbe, 0xc1, 0x3d, 0xd8, 0x85, 0xd4, 0x3f,
  0xf7, 0x0e, 0x25, 0x3f, 0xa1, 0xa0, 0x87, 0xc0, 0xaf, 0x73, 0x6b, 0xc0,
  0xfd, 0x64, 0xd1, 0xbe, 0x8a, 0x28, 0xfb, 0xbe, 0x75, 0x03, 0x30, 0x3f,
  0x50, 0x4b, 0x07, 0xc0, 0x00, 0x60, 0x01, 0xbf, 0x7d, 0x7f, 0x63, 0xc0,
  0xa3, 0x48, 0x67, 0xc0, 0x4f, 0xb3, 0x58, 0xc0, 0xda, 0x67, 0x8d, 0xbf,
  0x13, 0x12, 0x4a, 0xc0, 0x9c, 0x20, 0xd9, 0x3e, 0x77, 0xd4, 0xbc, 0xbe,
  0x8a, 0xaa, 0x18, 0x40, 0x60, 0xd0, 0x91, 0x3e, 0xc9, 0xd6, 0x81, 0xc0,
  0x86, 0xd3, 0x64, 0xc0, 0xc8, 0xbb, 0x28, 0xbf, 0xd9, 0x55, 0x02, 0xbf,
  0xe5, 0x85, 0xe8, 0x3e, 0xdf, 0xde, 0x04, 0xc0, 0x3a, 0x44, 0x6f, 0xbf,
  0xc8, 0x2e, 0x5e, 0xc0, 0x03, 0xa7, 0x69, 0xc0, 0x4b, 0x4c, 0x26, 0xc0,
  0xc8, 0x69, 0x45, 0xbf, 0x3b, 0x56, 0x54, 0xc0, 0x22, 0x35, 0xa8, 0x3e,
  0xdf, 0x72, 0x23, 0x3f, 0x27, 0x50, 0xa8, 0x3f, 0x4c, 0xc4, 0xf6, 0x3e,
  0xa2, 0x2e, 0x84, 0xc0, 0xaa, 0xaf, 0x62, 0xc0, 0xf2, 0xba, 0x82, 0xbf,
  0x93, 0x3e, 0x80, 0x3e, 0x69, 0x76, 0x57, 0x3f, 0xe5, 0x7b, 0x13, 0xc0,
  0xfa, 0x2f, 0x98, 0xbf, 0xe6, 0x35, 0x29, 0xc0, 0xc5, 0x33, 0x6e, 0xc0,
  0xde, 0x62, 0x62, 0xc0, 0xa4, 0x2e, 0x24, 0xbf, 0x17, 0x78, 0x4d, 0xc0,
  0x87, 0x3f, 0xcc, 0x3e, 0x74, 0x99, 0x4b, 0xbd, 0xaa, 0xa7, 0x9d, 0x3f,
  0xee, 0x92, 0x42, 0x3e, 0xc3, 0xaa, 0x7e, 0xc0, 0x29, 0x03, 0x73, 0xc0,
  0x36, 0x87, 0x82, 0xbe, 0x64, 0x60, 0xb0, 0x3e, 0xb4, 0x58, 0xdb, 0x3e,
  0x98, 0x1f, 0x14, 0xc0, 0xcf, 0x67, 0x61, 0xbf, 0x50, 0xb5, 0x77, 0xc0,
  0x48, 0xf9, 0x6e, 0xc0, 0xb9, 0x3d, 0x48, 0xc0, 0xde, 0x17, 0x54, 0xbf,
  0x00, 0xa3, 0x5c, 0xc0, 0x63, 0x2a, 0x31, 0x3e, 0x36, 0x49, 0xa1, 0x3e,
  0x43, 0xdd, 0xd0, 0x3f, 0x29, 0xa1, 0x57, 0x3e, 0xc7, 0x0a, 0x88, 0xc0,
  0x0e, 0x91, 0x65, 0xc0, 0x2a, 0x57, 0xc7, 0xbe, 0xcb, 0x71, 0x03, 0x3e,
  0x9e, 0xad, 0xde, 0x3e, 0x02, 0xf7, 0x04, 0xc0, 0x3e, 0xe8, 0x72, 0xbf,
  0xe4, 0x2c, 0x66, 0xc0, 0xc3, 0x99, 0x7d, 0xc0, 0x3c, 0x95, 0x25, 0xc0,
  0x5e, 0x6b, 0xb0, 0xbf, 0x5b, 0x77, 0x3c, 0xc0, 0xc4, 0xf6, 0x29, 0x3e,
  0x40, 0x50, 0x28, 0x3f, 0x99, 0xe1, 0x86, 0x3f, 0xcc, 0x5c, 0xe6, 0x3e,
  0xd1, 0x37, 0x64, 0xc0, 0x00, 0xc0, 0x64, 0xc0, 0xca, 0xdc, 0x53, 0x3c,
  0x48, 0x31, 0x23, 0x3e, 0xc1, 0x89, 0xee, 0x3d, 0xf0, 0x3c, 0x11, 0xc0,
  0xa4, 0x64, 0xf4, 0xbf, 0xf7, 0xdb, 0x64, 0xc0, 0x27, 0x4c, 0x89, 0xc0,
  0xc8, 0xb1, 0x25, 0xc0, 0xfd, 0x70, 0x62, 0xbf, 0x3e, 0x0d, 0x5c, 0xc0,
  0x3c, 0x27, 0x25, 0x3f, 0xeb, 0x41, 0x45, 0x3f, 0xbd, 0xb9, 0x8d, 0x3f,
  0xf4, 0xa1, 0xcb, 0x3e, 0x08, 0x93, 0x7f, 0xc0, 0x3b, 0xd7, 0x7b, 0xc0,
  0x6e, 0xf5, 0x0a, 0xbf, 0x0c, 0x29, 0x55, 0x3f, 0xe7, 0x9b, 0xb9, 0x3e,
  0x10, 0x35, 0xf3, 0xbf, 0x46, 0xfe, 0xb6, 0xbf, 0xa4, 0x5a, 0x64, 0xc0,
  0xf3, 0x4d, 0x8d, 0xc0, 0x31, 0x19, 0x41, 0xc0, 0x56, 0x07, 0xfe, 0xbf,
  0xc8, 0xeb, 0x45, 0xc0, 0x5e, 0x04, 0x7a, 0x3f, 0x5b, 0x9a, 0x21, 0x3f,
  0xbd, 0x73, 0x1a, 0x3f, 0xe4, 0x5b, 0x19, 0x3e, 0x93, 0x81, 0x8b, 0xc0,
  0x45, 0xf8, 0x83, 0xc0, 0x5d, 0x24, 0x8c, 0xbe, 0x13, 0x5f, 0x2f, 0x3f,
  0xe9, 0x79, 0x18, 0x3f, 0xb7, 0x96, 0x01, 0xc0, 0x63, 0x90, 0xda, 0xbf,
  0xff, 0x66, 0x76, 0xc0, 0xa8, 0x32, 0x84, 0xc0, 0x5c, 0xee, 0x1d, 0xc0,
  0x19, 0xd6, 0x53, 0xbf, 0x61, 0x50, 0x3d, 0xc0, 0x69, 0xca, 0x5b, 0x3e,
  0xcb, 0xb4, 0xb9, 0x3e, 0x37, 0x95, 0xa0, 0x3f, 0x9b, 0x9c, 0x23, 0xbf,
  0x3c, 0x5f, 0x89, 0xc0, 0xfe, 0xc2, 0x59, 0xc0, 0x7e, 0x27, 0x42, 0xbf,
  0xff, 0x1b, 0x66, 0x3f, 0x6f, 0x32, 0x25, 0x3f, 0xa1, 0x89, 0x06, 0xc0,
  0xb7, 0xcb, 0xd4, 0xbf, 0x1a, 0x3d, 0x68, 0xc0, 0xb4, 0x82, 0x82, 0xc0,
  0xad, 0xa5, 0xf1, 0xbf, 0xa6, 0x4f, 0xb4, 0xbf, 0xf0, 0x95, 0x2b, 0xc0,
  0x85, 0xe1, 0x12, 0x3f, 0xd6, 0x25, 0xca, 0x3d, 0x34, 0x2b, 0xae, 0x3f,
  0x2c, 0x5d, 0x2c, 0x3e, 0x51, 0x16, 0x1a, 0xc0, 0xd4, 0x14, 0xe1, 0x3e,
  0x87, 0x3f, 0x1b, 0x3d, 0x28, 0xb6, 0x20, 0xc0, 0x92, 0xc6, 0x0a, 0xbe,
  0x13, 0x17, 0x82, 0x3e, 0x5c, 0x41, 0x3d, 0x3f, 0x94, 0xf1, 0x85, 0x3f,
  0x1d, 0xf3, 0x37, 0x3f, 0xfc, 0xc7, 0x64, 0x3f, 0x15, 0x83, 0x8a, 0xbd,
  0xb2, 0xfd, 0x11, 0xbf, 0x1a, 0xd7, 0xbd, 0x3e, 0xfb, 0x5f, 0xd3, 0xbf,
  0x25, 0xd1, 0xf2, 0xbe, 0x5a, 0x77, 0xf2, 0x3e, 0xdb, 0x98, 0x36, 0xc0,
  0xf6, 0x49, 0x2d, 0x3f, 0x2a, 0xc2, 0x12, 0xbe, 0xc7, 0x99, 0xc9, 0xbf,
  0x05, 0xa1, 0x28, 0x3d, 0xc8, 0x78, 0x9b, 0xbe, 0x05, 0xe6, 0xfd, 0x3e,
  0x44, 0xc9, 0xa5, 0x3f, 0x6e, 0x09, 0xd7, 0x3e, 0xac, 0x8f, 0x06, 0x3f,
  0x55, 0xeb, 0xa3, 0xbe, 0xd2, 0x18, 0xfc, 0xbe, 0x44, 0xea, 0xa4, 0xbe,
  0xfa, 0x4d, 0xd2, 0xbf, 0x8a, 0xc5, 0x5f, 0xbf, 0x49, 0xd4, 0x90, 0x3e,
  0x65, 0x04, 0x0e, 0xc0, 0x65, 0x71, 0xca, 0x3e, 0xbd, 0xd2, 0xe1, 0xbe,
  0x7e, 0xf3, 0xd5, 0xbf, 0xd8, 0x2f, 0x66, 0x3e, 0xb9, 0x8d, 0xf5, 0x3d,
  0x0d, 0xe5, 0x51, 0x3f, 0x2f, 0xe9, 0xa4, 0x3f, 0xbf, 0xa9, 0x1b, 0x3f,
  0x6f, 0xa4, 0x17, 0x3f, 0x23, 0x6a, 0xc1, 0xbd, 0x94, 0xb8, 0x87, 0xbc,
  0xe3, 0x6e, 0xaf, 0xbd, 0x27, 0x8a, 0xa2, 0xbf, 0x44, 0xed, 0x1a, 0xbf,
  0xe2, 0x88, 0xdf, 0x3e, 0x33, 0x62, 0x2b, 0xc0, 0x14, 0x51, 0xc9, 0x3e,
  0x84, 0xf7, 0x8e, 0xbe, 0xd0, 0x82, 0x33, 0xc0, 0xa5, 0x4e, 0xa1, 0xbc,
  0xe5, 0xbf, 0x01, 0x3f, 0x84, 0xa3, 0x88, 0x3f, 0x25, 0xe1, 0x5b, 0x3f,
  0x2e, 0xd4, 0x27, 0x3f, 0x40, 0xd3, 0x69, 0x3f, 0xda, 0x0e, 0xb6, 0xbd,
  0x8a, 0x10, 0x76, 0xbe, 0xa1, 0x5e, 0xc7, 0xbc, 0xa7, 0x67, 0xae, 0xbf,
  0xc7, 0x2b, 0xf9, 0xbe, 0x70, 0x78, 0xab, 0x3e, 0x03, 0x43, 0xeb, 0xbf,
  0x89, 0x8c, 0x03, 0x3f, 0x75, 0xb1, 0xf4, 0xbd, 0x82, 0xbe, 0x15, 0xc0,
  0x9f, 0x91, 0xb7, 0x3d, 0x1d, 0xd2, 0x4e, 0xbe, 0x01, 0x69, 0x5a, 0x3f,
  0x2c, 0x64, 0xbe, 0x3f, 0x52, 0x4b, 0xac, 0x3e, 0x6c, 0xb2, 0x81, 0x3e,
  0x0b, 0x1a, 0xa5, 0x3c, 0xbf, 0x08, 0xc1, 0xbd, 0xb0, 0x13, 0xba, 0xbe,
  0xbc, 0x4f, 0x9e, 0xbf, 0xf7, 0x3b, 0x67, 0xbf, 0xa6, 0xd1, 0xf2, 0x3d,
  0x55, 0xe9, 0x11, 0xc0, 0xf0, 0xa0, 0x27, 0x3f, 0x9a, 0x02, 0xcf, 0xbe,
  0xf3, 0x78, 0x22, 0xc0, 0x82, 0x5f, 0xad, 0xbb, 0x7a, 0x48, 0x80, 0x3e,
  0x33, 0x8a, 0x15, 0x3f, 0x61, 0x6c, 0x71, 0x3f, 0xd2, 0x3f, 0x0d, 0x3f,
  0x6d, 0xbe, 0xda, 0x3e, 0x44, 0xa9, 0x49, 0x3d, 0x9b, 0x47, 0x91, 0xbd,
  0x11, 0xed, 0xaa, 0xbe, 0x54, 0x35, 0xa3, 0xbf, 0x41, 0x80, 0x9d, 0xbe,
  0x76, 0xeb, 0xc0, 0x3e, 0x5a, 0xd0, 0x2b, 0xc0, 0x34, 0xf7, 0x5b, 0x3d,
  0x93, 0xff, 0xae, 0x3d, 0x53, 0x1b, 0x0f, 0xc0, 0xe0, 0xe8, 0x28, 0x3e,
  0x1b, 0x06, 0xed, 0xbd, 0xe2, 0xc3, 0x1f, 0x3f, 0xcc, 0xa9, 0x7c, 0x3f,
  0xae, 0xab, 0xe1, 0x3e, 0xea, 0x8a, 0xd4, 0x3d, 0x74, 0xb6, 0x0c, 0x3d,
  0x8a, 0x5a, 0x85, 0xbd, 0x74, 0xee, 0x84, 0x3e, 0xc0, 0xe7, 0xe3, 0xbf,
  0x48, 0x48, 0x7e, 0xbf, 0xc4, 0xd2, 0x1c, 0x3f, 0xa3, 0x22, 0x02, 0xc0,
  0x5d, 0x63, 0x66, 0x3e, 0x52, 0x10, 0x42, 0xbe, 0xd4, 0x7e, 0xd4, 0xbf,
  0x25, 0xbd, 0x0e, 0x3e, 0x09, 0x1c, 0x91, 0x3e, 0xc7, 0xe7, 0x80, 0x3f,
  0x37, 0x56, 0xb3, 0x3f, 0x34, 0x36, 0xa3, 0x3e, 0x6f, 0xd0, 0x9c, 0x3e,
  0xda, 0x8d, 0x91, 0x3d, 0x03, 0xc4, 0x48, 0x3c, 0x9f, 0x30, 0xb2, 0xbe,
  0x05, 0x47, 0x8b, 0xbf, 0xcf, 0xb1, 0x9a, 0xbf, 0x5f, 0x2e, 0x7c, 0x3e,
  0x33, 0xca, 0x18, 0xc0, 0x59, 0x52, 0xbc, 0x3e, 0x2f, 0x92, 0xb7, 0xbe,
  0xa0, 0x90, 0x0b, 0xc0, 0x6b, 0xac, 0x8e, 0x3e, 0x59, 0xd7, 0x2a, 0x3e,
  0x75, 0x64, 0x63, 0x3f, 0x8a, 0x49, 0xa9, 0x3e, 0x8c, 0xde, 0xfd, 0x3e,
  0x05, 0xc3, 0x92, 0x3d, 0x3e, 0x04, 0xcf, 0xbd, 0x7a, 0x6e, 0x12, 0x3e,
  0x1e, 0x28, 0x6b, 0xbd, 0x01, 0x03, 0x06, 0xc0, 0x62, 0x9d, 0x8c, 0xbf,
  0x29, 0x7d, 0xbc, 0x3e, 0x33, 0xf5, 0x22, 0xc0, 0xef, 0x52, 0xce, 0x3e,
  0xf3, 0x99, 0x07, 0xbf, 0x40, 0x27, 0x0c, 0xc0, 0xbf, 0x2e, 0xbc, 0x3e,
  0x9c, 0xfd, 0x93, 0x3e, 0x68, 0xcb, 0x65, 0x3f, 0x14, 0x74, 0x28, 0x3f,
  0xfd, 0xbf, 0x0c, 0x3d, 0x82, 0xc0, 0x34, 0x3e, 0x89, 0x7d, 0x16, 0xbf,
  0x5b, 0x3f, 0x74, 0xbe, 0xec, 0xb4, 0x6a, 0xbe, 0x66, 0x0b, 0x71, 0xbf,
  0x16, 0x2e, 0x3e, 0xbf, 0xf0, 0xa7, 0xb3, 0x3e, 0xd0, 0xdc, 0x22, 0xc0,
  0xac, 0xec, 0x06, 0x3f, 0x10, 0x13, 0xb0, 0xbe, 0x23, 0x0a, 0xcf, 0xbf,
  0x77, 0xc4, 0x2f, 0x3d, 0xbb, 0xaa, 0x00, 0xbf, 0xea, 0xe3, 0x0e, 0x3f,
  0x62, 0xc9, 0xf3, 0x3d, 0x70, 0x1e, 0x0f, 0xbc, 0x63, 0x72, 0x71, 0x3e,
  0xeb, 0xd6, 0x63, 0xbd, 0x37, 0xd8, 0xc2, 0xbc, 0xa7, 0x18, 0xf2, 0xbd,
  0x16, 0xab, 0xa0, 0xbf, 0xa7, 0x2b, 0x3d, 0xbe, 0x75, 0x45, 0xe9, 0xbd,
  0x24, 0xd4, 0x12, 0xc0, 0x34, 0xbd, 0xea, 0x3e, 0x10, 0x40, 0xa3, 0x3e,
  0xd7, 0x18, 0x2a, 0xc0, 0xf5, 0xf2, 0x92, 0xba, 0x0f, 0xf7, 0x3e, 0xbf,
  0x0f, 0xae, 0x59, 0x3f, 0xd1, 0x1c, 0xb9, 0x3e, 0xe7, 0xe6, 0x09, 0xbe,
  0x23, 0x7d, 0xc1, 0xbe, 0x1a, 0xcc, 0xfc, 0xbd, 0x7c, 0x11, 0xc5, 0xbe,
  0x9d, 0xfd, 0x25, 0xbe, 0xcd, 0xe4, 0xc1, 0xbf, 0x11, 0x83, 0x4c, 0xbf,
  0x94, 0xe1, 0xd1, 0x3e, 0xf3, 0xa2, 0x3c, 0xc0, 0x97, 0x4a, 0x3c, 0x3e,
  0x74, 0x45, 0xec, 0xbe, 0xd7, 0x91, 0x18, 0xc0, 0x1f, 0x18, 0xc0, 0x3e,
  0x25, 0x55, 0x2b, 0xbd, 0xc6, 0x31, 0x9e, 0x3f, 0x76, 0x38, 0xcc, 0xbc,
  0x5f, 0x63, 0x00, 0x3e, 0x24, 0x86, 0x90, 0x3e, 0x5e, 0xfe, 0xb8, 0xbb,
  0x1f, 0xdf, 0xfa, 0x3e, 0xfe, 0xfa, 0x65, 0xbe, 0x82, 0x6a, 0xf4, 0xbf,
  0x28, 0x57, 0x47, 0xbf, 0xc2, 0x6b, 0x86, 0x3e, 0x80, 0xf5, 0x10, 0xc0,
  0xd2, 0x86, 0x0a, 0x3f, 0x37, 0x16, 0xc4, 0xbe, 0x63, 0x7e, 0x0a, 0xc0,
  0xfd, 0xa1, 0x02, 0x3c, 0xc3, 0xa9, 0x15, 0x3f, 0x89, 0xf0, 0x51, 0x3f,
  0x0d, 0x1b, 0x6a, 0xbe, 0xce, 0x5e, 0x66, 0xbe, 0x52, 0xeb, 0x3e, 0x3d,
  0x83, 0xce, 0x6c, 0xbe, 0x4d, 0xfd, 0x48, 0x3f, 0x0b, 0xf9, 0x53, 0xbc,
  0x29, 0xc3, 0x2a, 0xc0, 0xb3, 0xa8, 0x9e, 0xbe, 0x5c, 0xff, 0x04, 0x3f,
  0x99, 0xdb, 0x29, 0xc0, 0x6f, 0xb5, 0xc1, 0x3e, 0xc5, 0x2f, 0x5a, 0x3f,
  0xd9, 0x03, 0x25, 0xc0, 0x50, 0x5b, 0x75, 0x3d, 0xda, 0x55, 0x82, 0xbe,
  0x6a, 0x33, 0x52, 0x3f, 0x1f, 0x78, 0x2f, 0xbf, 0x55, 0x77, 0xaa, 0xbe,
  0x04, 0x82, 0xe9, 0xbd, 0xe9, 0x4e, 0xfa, 0xbe, 0x9d, 0x13, 0x4c, 0x3f,
  0xc7, 0x9e, 0x9c, 0x3d, 0x37, 0x17, 0xd5, 0xbf, 0x68, 0xc1, 0x18, 0xbf,
  0x90, 0x18, 0x9d, 0x3e, 0xc6, 0x90, 0x28, 0xc0, 0x14, 0x06, 0x29, 0x3f,
  0xda, 0xfb, 0xb9, 0x3e, 0x8e, 0x8a, 0x0d, 0xc0, 0xb9, 0xf2, 0x89, 0xbe,
  0x26, 0xa4, 0xea, 0xbe, 0x50, 0x2e, 0x32, 0x3f, 0x94, 0x2f, 0x1f, 0xbf,
  0xa6, 0x22, 0x36, 0xbe, 0x38, 0xf6, 0x46, 0xbe, 0x13, 0xfd, 0x1b, 0xbf,
  0x31, 0x9c, 0xf0, 0x3e, 0xc1, 0x84, 0x8c, 0xbd, 0xa8, 0x1a, 0xd4, 0xbf,
  0x30, 0xf4, 0xd5, 0xbe, 0xc7, 0x17, 0x92, 0x3e, 0xf9, 0x00, 0x3f, 0xc0,
  0xb8, 0xce, 0x05, 0x3f, 0xb5, 0x91, 0x54, 0x3e, 0xe8, 0xc7, 0x0e, 0xc0,
  0x79, 0x10, 0x91, 0x3e, 0xe2, 0x9c, 0xd0, 0x3e, 0xab, 0x5d, 0x60, 0x3f,
  0x8f, 0x29, 0x7f, 0xbf, 0xa5, 0xd5, 0xc0, 0xbe, 0x45, 0xde, 0x2a, 0xbe,
  0x71, 0xa6, 0x27, 0xbf, 0x63, 0x1b, 0x46, 0x3f, 0x80, 0x3a, 0x87, 0x3e,
  0xa6, 0x0b, 0xea, 0xbf, 0xdb, 0x2c, 0x91, 0xbe, 0x47, 0xf3, 0xff, 0x3e,
  0xe7, 0xdd, 0x1b, 0xc0, 0x5b, 0xe9, 0x4a, 0x3e, 0x73, 0xac, 0x33, 0x3d,
  0x5a, 0x65, 0xe5, 0xbf, 0x3b, 0xcf, 0xb3, 0x3e, 0x71, 0xb5, 0x0b, 0x3e,
  0xc5, 0xed, 0xfc, 0x3e, 0xaa, 0xfe, 0x17, 0xbf, 0x7f, 0x02, 0x68, 0xbf,
  0x9b, 0x9a, 0x63, 0xbf, 0x4c, 0x44, 0x84, 0xbf, 0x05, 0x94, 0x4d, 0x3f,
  0x4d, 0x3d, 0x70, 0x3c, 0x1d, 0xe7, 0xe8, 0xbf, 0x27, 0xb3, 0x18, 0xbf,
  0x06, 0x0e, 0xf4, 0x3e, 0xc4, 0x50, 0x13, 0xc0, 0x09, 0x02, 0xef, 0x3e,
  0xfd, 0x0a, 0x29, 0xbe, 0x11, 0x73, 0x05, 0xc0, 0x25, 0xbf, 0xe3, 0xbd,
  0x73, 0xb9, 0x1e, 0x3f, 0xdc, 0x8a, 0x5c, 0x3f, 0xd3, 0x3a, 0x71, 0xbf,
  0xcb, 0xf1, 0xfd, 0xbe, 0x11, 0x77, 0x5e, 0xbf, 0x64, 0x8a, 0x5c, 0xbf,
  0x4f, 0x8b, 0x5a, 0x3f, 0xd7, 0xca, 0xe8, 0x3d, 0x7f, 0x71, 0xfc, 0xbf,
  0x31, 0x9f, 0x5a, 0xbf, 0x54, 0x06, 0x35, 0x3f, 0x36, 0x42, 0x16, 0xc0,
  0x1f, 0x9f, 0xd4, 0x3e, 0x14, 0x35, 0x00, 0x3d, 0xcf, 0x5a, 0xd8, 0xbf,
  0xd2, 0xd8, 0xfe, 0x3e, 0x96, 0xc7, 0x5c, 0xbe, 0xed, 0x10, 0xfc, 0x3e,
  0xfc, 0xb6, 0x70, 0xbf, 0xb4, 0xb6, 0xcc, 0xbf, 0xde, 0x5f, 0x29, 0xbf,
  0x73, 0x82, 0x05, 0xbf, 0x70, 0x7a, 0xac, 0x3f, 0x97, 0xd6, 0x57, 0x3e,
  0xdd, 0xfd, 0xe3, 0xbf, 0xae, 0x9f, 0x6e, 0xbe, 0x07, 0xbf, 0x3b, 0x3f,
  0x7c, 0xd0, 0x37, 0xc0, 0x93, 0x6d, 0x15, 0x3f, 0x91, 0xe4, 0x8a, 0x3e,
  0x5f, 0x35, 0x41, 0xc0, 0xd5, 0x19, 0x26, 0x3e, 0x08, 0x7f, 0x9a, 0x3d,
  0x0d, 0x7f, 0xe4, 0x3e, 0x22, 0x08, 0x73, 0xbf, 0x29, 0xd0, 0x8a, 0xbf,
  0xe6, 0x74, 0x1e, 0xbe, 0xce, 0x8a, 0x7b, 0xbf, 0x41, 0xd0, 0x99, 0x3f,
  0xaf, 0x2f, 0x41, 0x3e, 0x5d, 0x44, 0xcd, 0xbf, 0xd0, 0x6f, 0xb3, 0x3d,
  0x65, 0x2c, 0x5b, 0x3f, 0x2a, 0xa7, 0x1b, 0xc0, 0x5a, 0x72, 0x50, 0x3e,
  0x44, 0x01, 0xbe, 0x3e, 0xe8, 0xb2, 0x3a, 0xc0, 0x47, 0xb2, 0xdc, 0x3e,
  0x06, 0x16, 0x23, 0xbf, 0x32, 0x01, 0x47, 0x3f, 0x75, 0xcc, 0x90, 0xbf,
  0xfb, 0x36, 0x68, 0xbf, 0x82, 0x6a, 0x2d, 0xbf, 0xe8, 0x54, 0x07, 0xbf,
  0xa6, 0xc2, 0x8b, 0x3f, 0x1f, 0x32, 0x85, 0x3e, 0x04, 0x7d, 0x17, 0xc0,
  0xcb, 0xd6, 0x07, 0xbf, 0x1a, 0xbc, 0x4c, 0x3f, 0x31, 0xd1, 0x71, 0xbf,
  0x8c, 0xf7, 0x90, 0xc0, 0xdc, 0x81, 0x60, 0x3f, 0x7e, 0xa5, 0xdf, 0x3e,
  0x7b, 0xe3, 0x45, 0x3f, 0xd8, 0xfa, 0xca, 0x3f, 0x2b, 0xbd, 0x7b, 0xc0,
  0xaf, 0x19, 0x78, 0xc0, 0xf8, 0xa2, 0x42, 0xc0, 0xc7, 0x49, 0x31, 0xc0,
  0x49, 0xdd, 0xfe, 0x3d, 0x84, 0x0a, 0x86, 0x3f, 0x51, 0x83, 0xa4, 0xbf,
  0xdb, 0xf6, 0x9b, 0x3f, 0xa3, 0xd1, 0x85, 0x3e, 0xa1, 0xab, 0x88, 0xbf,
  0xde, 0x59, 0x6a, 0xbe, 0x46, 0xf1, 0x92, 0xc0, 0x83, 0x67, 0x86, 0x3f,
  0x4c, 0x6d, 0x7e, 0x3e, 0xe3, 0xe6, 0xda, 0x3e, 0xff, 0x06, 0xe3, 0x3f,
  0xd6, 0x80, 0x62, 0xc0, 0x1e, 0x67, 0x80, 0xc0, 0x8c, 0x66, 0x37, 0xc0,
  0x95, 0x86, 0x28, 0xc0, 0xf1, 0x19, 0x69, 0x3f, 0xb1, 0xc8, 0x4f, 0x3f,
  0x41, 0x2c, 0x82, 0xbf, 0x95, 0xbb, 0x46, 0x3f, 0xab, 0xa7, 0xf7, 0xbc,
  0xc1, 0x80, 0x05, 0xbf, 0x3c, 0x98, 0x1a, 0xbf, 0xa6, 0xfd, 0x7d, 0xc0,
  0x33, 0x05, 0xda, 0x3e, 0x58, 0x10, 0x16, 0x3f, 0x15, 0xc8, 0x23, 0x3f,
  0x35, 0x85, 0x8f, 0x3f, 0xdc, 0xfb, 0x75, 0xc0, 0xbd, 0x49, 0x66, 0xc0,
  0x80, 0x3f, 0x45, 0xc0, 0xdb, 0x2b, 0x43, 0xc0, 0x1f, 0xd0, 0xc2, 0x3e,
  0x33, 0x1c, 0x3c, 0x3f, 0xd7, 0xf1, 0xc2, 0xbf, 0x28, 0x7d, 0x64, 0x3f,
  0x3e, 0x48, 0xc6, 0x3d, 0x41, 0x79, 0x88, 0xbf, 0xa3, 0x96, 0x17, 0xbf,
  0x03, 0x8d, 0x71, 0xc0, 0x4e, 0x8c, 0x1f, 0x3f, 0x1e, 0xce, 0x16, 0x3f,
  0xc0, 0xa2, 0x48, 0x3f, 0x49, 0x7a, 0x5b, 0x3f, 0x5a, 0x03, 0x76, 0xc0,
  0x7a, 0x74, 0x8a, 0xc0, 0x0f, 0x87, 0x5e, 0xc0, 0x9f, 0xfd, 0x46, 0xc0,
  0xac, 0x11, 0x33, 0x3f, 0xd2, 0x6a, 0x24, 0x3f, 0xaf, 0xd9, 0xca, 0xbf,
  0xae, 0x95, 0x1e, 0x3f, 0x02, 0xdb, 0xa5, 0x3e, 0xb4, 0xa4, 0x29, 0xbf,
  0x86, 0x24, 0x42, 0xbf, 0x68, 0x92, 0x88, 0xc0, 0x46, 0x01, 0x6f, 0x3f,
  0x1a, 0xed, 0xeb, 0x3e, 0x65, 0x9a, 0x23, 0x3f, 0xe8, 0x7e, 0xab, 0x3f,
  0x47, 0x8b, 0x6e, 0xc0, 0x6c, 0x63, 0x84, 0xc0, 0xbf, 0x98, 0x53, 0xc0,
  0x5c, 0xbf, 0x39, 0xc0, 0xce, 0xfb, 0xc3, 0x3e, 0x4a, 0x9d, 0xc5, 0x3e,
  0xa8, 0x50, 0xe8, 0xbf, 0xf9, 0x05, 0x46, 0x3f, 0xde, 0xee, 0x81, 0xbe,
  0x8c, 0xec, 0x94, 0xbe, 0x9a, 0xfe, 0xbc, 0xbf, 0x19, 0x98, 0x62, 0xc0,
  0x7a, 0x03, 0x77, 0x3f, 0x27, 0xb3, 0x06, 0xbd, 0x3e, 0x1c, 0x02, 0x3f,
  0xb9, 0x9f, 0x92, 0x3f, 0x32, 0x60, 0x55, 0xc0, 0x44, 0x6e, 0x85, 0xc0,
  0x2b, 0xc9, 0x3c, 0xc0, 0x86, 0xab, 0x4d, 0xc0, 0x62, 0x88, 0x48, 0x3f,
  0x32, 0x82, 0xff, 0x3e, 0xd4, 0x08, 0xbb, 0xbf, 0xba, 0x5b, 0xea, 0x3e,
  0x84, 0x20, 0x37, 0xbf, 0x81, 0x19, 0x67, 0xbf, 0xc1, 0x1b, 0x8e, 0xbf,
  0x23, 0x38, 0x5e, 0xc0, 0x69, 0x72, 0x03, 0x3f, 0x91, 0xd7, 0xb8, 0x3e,
  0xf1, 0x53, 0x02, 0x3f, 0x21, 0xd7, 0xbd, 0x3f, 0x7a, 0x4f, 0x55, 0xc0,
  0x00, 0xe0, 0x88, 0xc0, 0xc1, 0x1a, 0x3e, 0xc0, 0xbb, 0xd3, 0x48, 0xc0,
  0x33, 0x9e, 0x7b, 0x3f, 0xf6, 0xb9, 0x06, 0x3f, 0x35, 0xe8, 0x5f, 0xbf,
  0xde, 0xad, 0xda, 0x3e, 0x35, 0x6c, 0x52, 0x3e, 0x2f, 0xe7, 0x30, 0xbf,
  0x97, 0xd9, 0xad, 0xbf, 0xaa, 0xf2, 0x74, 0xc0, 0xf0, 0xa1, 0x1c, 0x3d,
  0x66, 0x13, 0x84, 0xbe, 0xc9, 0xbc, 0x10, 0x3f, 0x13, 0x99, 0xdd, 0x3f,
  0x39, 0x4c, 0x40, 0xc0, 0xd9, 0xd4, 0x89, 0xc0, 0xe9, 0x8a, 0x30, 0xc0,
  0xb3, 0x40, 0x4e, 0xc0, 0xbe, 0xe7, 0x5b, 0x3f, 0x6f, 0xfa, 0xe2, 0x3d,
  0xfb, 0x52, 0xcf, 0xbe, 0x01, 0x3c, 0xf8, 0x3e, 0xf3, 0x24, 0x50, 0x3e,
  0x3f, 0xb1, 0xef, 0xbd, 0xf4, 0x47, 0xd9, 0xbf, 0x55, 0xbe, 0x47, 0xc0,
  0x4d, 0x88, 0x94, 0x3e, 0xf0, 0xc7, 0xe4, 0xbd, 0x5f, 0x75, 0x38, 0x3f,
  0xe2, 0x46, 0x92, 0x3f, 0xd4, 0x5b, 0x16, 0xc0, 0x3c, 0xca, 0x8e, 0xc0,
  0x4c, 0xa1, 0x3b, 0xc0, 0x81, 0x04, 0x2c, 0xc0, 0x27, 0x60, 0x6b, 0x3f,
  0x17, 0x8e, 0x98, 0x3d, 0xa3, 0xbf, 0xef, 0xbe, 0xb7, 0x13, 0x95, 0x3d,
  0xc3, 0x95, 0xe2, 0x3d, 0x2e, 0xb6, 0x41, 0x3d, 0x9e, 0xf8, 0x00, 0xc0,
  0x51, 0xcf, 0x39, 0xc0, 0x10, 0xf3, 0x70, 0x3e, 0x00, 0x07, 0xfe, 0x3d,
  0xee, 0xd4, 0x04, 0x3f, 0x44, 0xda, 0x9f, 0x3f, 0x99, 0xfa, 0x12, 0xc0,
  0x35, 0x39, 0x82, 0xc0, 0x38, 0x93, 0x1c, 0xc0, 0x79, 0x34, 0x22, 0xc0,
  0x4e, 0x37, 0x62, 0x3f, 0x3c, 0x63, 0x0a, 0x3e, 0xd2, 0xdb, 0x54, 0xbe,
  0x47, 0x52, 0xe9, 0x3d, 0x45, 0xce, 0xc4, 0x3e, 0x7c, 0xbe, 0x30, 0xbf,
  0xba, 0xe6, 0x00, 0xc0, 0x4e, 0xb6, 0x39, 0xc0, 0x63, 0xc5, 0x69, 0x3e,
  0x25, 0x9a, 0xb2, 0xbe, 0x6a, 0x43, 0xc0, 0x3e, 0xe2, 0x51, 0xaf, 0x3f,
  0x99, 0x8b, 0x02, 0xc0, 0x38, 0xc5, 0x82, 0xc0, 0xa5, 0x6e, 0x1f, 0xc0,
  0x1e, 0x59, 0x3b, 0xc0, 0xa2, 0x98, 0x78, 0x3f, 0x43, 0x9a, 0x8d, 0x3e,
  0x13, 0x6f, 0x11, 0xbe, 0x82, 0xde, 0x2c, 0x3e, 0x73, 0xf7, 0x0a, 0xbe,
  0x72, 0xea, 0x38, 0xbf, 0x50, 0x29, 0x08, 0xc0, 0x13, 0xee, 0x42, 0xc0,
  0x6c, 0x47, 0x1c, 0xbb, 0x86, 0xea, 0x62, 0xbe, 0xd2, 0x3b, 0x20, 0x3f,
  0xb5, 0xbe, 0xce, 0x3f, 0x8e, 0xfc, 0xd6, 0xbf, 0x2d, 0x89, 0x60, 0xc0,
  0x1b, 0x64, 0x33, 0xc0, 0x52, 0xd1, 0x33, 0xc0, 0x0e, 0x2e, 0xb4, 0x3e,
  0x93, 0xe4, 0x81, 0xbc, 0x4c, 0xfd, 0x88, 0xbe, 0xcd, 0xbb, 0x10, 0xbd,
  0x2d, 0xbf, 0x04, 0x3f, 0xf8, 0x3b, 0x67, 0x3e, 0x31, 0x1f, 0x14, 0xc0,
  0xfe, 0x99, 0x61, 0xc0, 0x6d, 0x18, 0xd1, 0xbd, 0x05, 0x87, 0xa5, 0xbf,
  0x92, 0x90, 0x9e, 0x3e, 0xbe, 0xf8, 0xca, 0x3f, 0x36, 0x87, 0xf1, 0xbf,
  0x1e, 0x53, 0x70, 0xc0, 0x74, 0x99, 0x3a, 0xc0, 0xd1, 0xd0, 0x28, 0xc0,
  0x14, 0x05, 0x87, 0x3f, 0x25, 0xe1, 0x28, 0x3f, 0xf0, 0x67, 0x72, 0x3e,
  0xe8, 0x27, 0xcb, 0x3e, 0xce, 0xf6, 0x54, 0x3f, 0xe8, 0x14, 0xfe, 0xbe,
  0xe5, 0x66, 0x08, 0xc0, 0x60, 0x77, 0x5a, 0xc0, 0x0e, 0x86, 0xf8, 0x3e,
  0x14, 0x68, 0x79, 0xbf, 0x02, 0x61, 0xca, 0x3e, 0x15, 0x12, 0x99, 0x3f,
  0xca, 0xea, 0x18, 0xc0, 0xb1, 0x39, 0x7d, 0xc0, 0x5d, 0x52, 0x1d, 0xc0,
  0x2f, 0xe1, 0x18, 0xc0, 0xe2, 0x30, 0x81, 0x3e, 0x9a, 0x43, 0x95, 0xbd,
  0x06, 0xee, 0x68, 0x3e, 0x10, 0xff, 0x44, 0x3e, 0xa8, 0xe1, 0xc4, 0x3e,
  0xb6, 0x19, 0xfa, 0xbe, 0xe1, 0x68, 0x08, 0xc0, 0x4c, 0x73, 0x4e, 0xc0,
  0x98, 0xad, 0xe9, 0xbd, 0x78, 0xc3, 0x83, 0xbf, 0xf4, 0xe6, 0x0e, 0x3f,
  0xfc, 0xcb, 0x92, 0x3f, 0x1a, 0x72, 0xbe, 0xbf, 0xdd, 0x30, 0x81, 0xc0,
  0x88, 0xf8, 0x15, 0xc0, 0x8f, 0xbb, 0x2c, 0xc0, 0x91, 0xbb, 0xbc, 0x3f,
  0xdd, 0x7a, 0x68, 0x3e, 0x52, 0x96, 0xb6, 0x3e, 0x04, 0xa3, 0x88, 0xbc,
  0x3d, 0xa0, 0x27, 0x3f, 0xe1, 0x17, 0x0c, 0xbe, 0x05, 0x71, 0x11, 0xc0,
  0x50, 0xf3, 0x49, 0xc0, 0x18, 0x60, 0x09, 0x3e, 0x4c, 0x01, 0xaf, 0xbf,
  0x01, 0x80, 0x01, 0x3f, 0xeb, 0x69, 0xc0, 0x3f, 0x11, 0x61, 0x1a, 0xc0,
  0x39, 0x8e, 0x83, 0xc0, 0xbc, 0xe7, 0x15, 0xc0, 0xb5, 0xd8, 0x1e, 0xc0,
  0x1b, 0x28, 0xc9, 0x3e, 0xc7, 0xc8, 0x34, 0x3e, 0x07, 0xbe, 0xd1, 0x3e,
  0x68, 0x0f, 0x97, 0xbe, 0x06, 0xd5, 0x8e, 0x3e, 0x2a, 0x79, 0x8d, 0xbe,
  0xc4, 0x19, 0x07, 0xc0, 0x6e, 0x38, 0x40, 0xc0, 0x99, 0x5a, 0x77, 0xbe,
  0x1f, 0x34, 0xfb, 0xbf, 0xab, 0x19, 0x37, 0x3f, 0xa5, 0xab, 0x9f, 0x3f,
  0xca, 0xdc, 0xf2, 0xbf, 0xd7, 0x30, 0x90, 0xc0, 0xf8, 0x96, 0x27, 0xc0,
  0x9a, 0x1a, 0x39, 0xc0, 0x8c, 0x17, 0x3c, 0x3f, 0x11, 0x16, 0x76, 0x3e,
  0x8c, 0x9d, 0x28, 0x3f, 0x0c, 0x0f, 0x70, 0xbd, 0x3d, 0x9b, 0x57, 0x3f,
  0xa2, 0x79, 0x51, 0xbf, 0xa2, 0xac, 0xee, 0xbf, 0xa5, 0xbf, 0x59, 0xc0,
  0xd3, 0x0b, 0x38, 0x3f, 0x55, 0x30, 0x0e, 0xc0, 0x2c, 0xa0, 0x2b, 0x3e,
  0xdd, 0x0a, 0x87, 0x3f, 0x65, 0x19, 0xfd, 0xbf, 0xce, 0x75, 0xa7, 0xc0,
  0xb7, 0x7e, 0x23, 0xc0, 0xaf, 0x6f, 0x27, 0xc0, 0xee, 0x2b, 0x6a, 0x3f,
  0x14, 0xd9, 0x82, 0x3b, 0xc6, 0x09, 0x52, 0x3e, 0xdf, 0x08, 0x45, 0xbe,
  0x0e, 0xcb, 0x0c, 0x3f, 0x55, 0xa2, 0x46, 0xbf, 0xb4, 0x3b, 0x07, 0xc0,
  0x84, 0xb6, 0x48, 0xc0, 0xa4, 0xf7, 0x40, 0x3e, 0x41, 0xba, 0x3a, 0xc0,
  0x0f, 0x6e, 0xc8, 0x3e, 0x24, 0xd5, 0xe2, 0x3f, 0x1f, 0xe2, 0x42, 0xbf,
  0x73, 0x85, 0x83, 0xc0, 0x73, 0x07, 0x28, 0xc0, 0x0e, 0x8f, 0x0a, 0xc0,
  0x71, 0xd2, 0x94, 0x3f, 0x43, 0x44, 0x14, 0x3f, 0x02, 0x7f, 0xcb, 0x3e,
  0xd9, 0x9e, 0x92, 0x3e, 0x17, 0xba, 0x81, 0x3f, 0x36, 0xd8, 0x0d, 0xbf,
  0x62, 0xfb, 0xb2, 0xbf, 0xff, 0xf0, 0x5a, 0xc0, 0x3c, 0xce, 0xe6, 0x3e,
  0x92, 0x4b, 0xf6, 0xbf, 0xfe, 0xf6, 0x1c, 0x3f, 0x74, 0xb0, 0xe0, 0x3f,
  0x4a, 0x49, 0x84, 0xbe, 0x74, 0xca, 0x2a, 0xc0, 0xed, 0x6d, 0x18, 0xc0,
  0xd2, 0x21, 0x04, 0xc0, 0x89, 0x59, 0x9e, 0x3f, 0x82, 0xdb, 0xd0, 0x3d,
  0x8b, 0x46, 0x54, 0x3e, 0xe9, 0xbe, 0x97, 0xbe, 0x30, 0xbc, 0x79, 0x3f,
  0x29, 0xfe, 0x92, 0x3d, 0xe7, 0x57, 0xed, 0xbf, 0xe2, 0x55, 0x5b, 0xc0,
  0xf9, 0x5b, 0x23, 0x3e, 0x8c, 0xc5, 0x29, 0xc0, 0xc5, 0xb6, 0xb7, 0x3e,
  0xb6, 0x80, 0xf7, 0x3f, 0x08, 0xb5, 0x6e, 0xbe, 0x82, 0xb1, 0x85, 0xc0,
  0xae, 0xe8, 0xfa, 0xbf, 0xa1, 0xed, 0x3d, 0xc0, 0x5a, 0x7d, 0x44, 0x3f,
  0xa5, 0x81, 0xa9, 0xbd, 0x54, 0xb0, 0x72, 0x3f, 0xe7, 0xc9, 0x4d, 0x3e,
  0x50, 0x3f, 0xc1, 0x3e, 0x70, 0x4e, 0x9d, 0xbe, 0xbf, 0x9b, 0xb2, 0xbf,
  0xe1, 0x61, 0x56, 0xc0, 0xc3, 0x79, 0x50, 0xbe, 0x35, 0x76, 0x26, 0xc0,
  0xa3, 0xfd, 0x88, 0x3e, 0xed, 0xf2, 0xae, 0x3f, 0x44, 0x28, 0x60, 0xbe,
  0x5d, 0x02, 0x77, 0xc0, 0xb2, 0xd9, 0x2e, 0xc0, 0x49, 0xf2, 0x0a, 0xc0,
  0x9e, 0x5f, 0x31, 0x3f, 0xec, 0x6b, 0x68, 0x3e, 0x9e, 0x24, 0xbd, 0x3e,
  0x85, 0xca, 0x53, 0x3e, 0x2c, 0x05, 0x7e, 0x3f, 0xc3, 0xba, 0xb8, 0x3e,
  0x2f, 0x43, 0xb8, 0xbf, 0x9a, 0x7d, 0x09, 0x3e, 0x86, 0x77, 0x90, 0xbf,
  0x52, 0x2b, 0x20, 0xbf, 0xe3, 0x0c, 0x9c, 0x3e, 0xa9, 0x73, 0xfe, 0xbf,
  0x94, 0x2d, 0xaa, 0x3e, 0x1c, 0xc0, 0x69, 0xbf, 0xd7, 0x5a, 0xac, 0xbe,
  0xa5, 0x15, 0xf5, 0xbf, 0x9f, 0x24, 0x0e, 0xc0, 0x19, 0x11, 0x6b, 0x3f,
  0xc1, 0xfd, 0x0f, 0xbf, 0x6c, 0x7f, 0xa5, 0xbe, 0x7c, 0x34, 0x7b, 0xbf,
  0x4a, 0x16, 0x1f, 0x3f, 0x14, 0x82, 0xb3, 0xbf, 0x34, 0x41, 0xb6, 0xbd,
  0x98, 0x2e, 0x4b, 0xbf, 0xe0, 0x20, 0xb3, 0xbf, 0x6f, 0x5d, 0x82, 0x3d,
  0xba, 0xf2, 0x07, 0xc0, 0xad, 0x24, 0x07, 0x3f, 0x54, 0x2d, 0x72, 0xbf,
  0xef, 0xde, 0xfd, 0xbe, 0x0d, 0xea, 0xb4, 0xbf, 0x7d, 0xa2, 0x07, 0xc0,
  0x2a, 0xde, 0xa3, 0x3f, 0x85, 0x8a, 0xd0, 0xbd, 0xae, 0xa7, 0x42, 0xbf,
  0x98, 0x89, 0x94, 0xbf, 0x0a, 0x28, 0xe0, 0x3e, 0xff, 0xab, 0xc2, 0xbf,
  0x85, 0xb2, 0x1f, 0x3e, 0x84, 0xd4, 0xe5, 0xbd, 0x2c, 0x3b, 0x92, 0xbf,
  0x64, 0xd8, 0xa3, 0x3e, 0x21, 0x68, 0x14, 0xc0, 0x28, 0x6a, 0x94, 0x3e,
  0x14, 0xf5, 0x27, 0xbf, 0xb0, 0x67, 0x98, 0xbe, 0x18, 0xe2, 0x00, 0xc0,
  0x7d, 0x53, 0x08, 0xc0, 0x89, 0x98, 0x4b, 0x3f, 0xe8, 0xbc, 0x19, 0xbe,
  0xbf, 0x29, 0x31, 0xbf, 0x3a, 0x89, 0x61, 0xbf, 0x7f, 0xb7, 0x9a, 0x3e,
  0x6c, 0x47, 0x9d, 0xbf, 0x0b, 0xd4, 0xf9, 0x3e, 0xaa, 0xd3, 0x80, 0xbf,
  0x3c, 0xa8, 0x63, 0xbf, 0x02, 0xd9, 0xdd, 0x3e, 0xf5, 0x11, 0x26, 0xc0,
  0xc4, 0xdf, 0x01, 0x3f, 0xbb, 0x61, 0x03, 0xbf, 0x49, 0x0e, 0x9e, 0xbd,
  0x56, 0xe7, 0x10, 0xc0, 0xfc, 0x98, 0x1e, 0xc0, 0x6e, 0x2b, 0x62, 0x3f,
  0x0d, 0x9d, 0x9f, 0xbe, 0x4d, 0xea, 0x18, 0xbf, 0x24, 0x32, 0xdf, 0xbf,
  0x1c, 0x2b, 0xaf, 0x3e, 0x65, 0xdd, 0xc2, 0xbf, 0xf6, 0xd4, 0x8f, 0x3e,
  0x6b, 0x31, 0x00, 0xbf, 0xa5, 0xb1, 0xd3, 0xbf, 0x5c, 0x70, 0xb8, 0x3e,
  0x80, 0x7b, 0x15, 0xc0, 0x19, 0xf4, 0xd8, 0x3e, 0x72, 0x00, 0x46, 0xbf,
  0x22, 0x21, 0xb9, 0xbd, 0xf1, 0x4c, 0xab, 0xbf, 0x9e, 0x43, 0xe8, 0xbf,
  0xd3, 0x2c, 0x81, 0x3f, 0x99, 0xa0, 0x6d, 0x3d, 0x80, 0x3e, 0x8a, 0xbe,
  0xc8, 0x51, 0xa2, 0xbf, 0x55, 0x6a, 0x10, 0x3f, 0x0e, 0x63, 0xa7, 0xbf,
  0x1f, 0x5e, 0x08, 0xbe, 0x7b, 0xa9, 0x46, 0xbf, 0x89, 0x86, 0x9b, 0xbf,
  0xe0, 0x9e, 0xad, 0x3e, 0x38, 0xd7, 0xf1, 0xbf, 0x57, 0xf0, 0x02, 0x3f,
  0x6e, 0xcc, 0xf2, 0xbe, 0x7d, 0xda, 0xa8, 0xbe, 0xee, 0x94, 0xb8, 0xbf,
  0xbb, 0x54, 0x04, 0xc0, 0x4b, 0x10, 0x48, 0x3f, 0x18, 0xd9, 0xb1, 0x3e,
  0x2d, 0x33, 0x01, 0xbf, 0x10, 0x4f, 0xb0, 0xbf, 0xa3, 0x40, 0xdb, 0x3e,
  0xe8, 0x5c, 0xa8, 0xbf, 0x19, 0x42, 0xe9, 0x3e, 0x3b, 0x23, 0x5c, 0xbf,
  0x55, 0x36, 0x90, 0xbf, 0x7a, 0x37, 0x09, 0x3e, 0xf7, 0xb9, 0xfa, 0xbf,
  0x53, 0x78, 0x19, 0x3f, 0xc4, 0x58, 0xd8, 0xbe, 0xf7, 0xe7, 0x93, 0xbe,
  0xce, 0xe4, 0x57, 0xbf, 0x40, 0xc1, 0x08, 0xc0, 0x12, 0x44, 0x58, 0x3f,
  0x6a, 0x76, 0xb6, 0xbe, 0x5b, 0x55, 0x02, 0xbf, 0x34, 0x0e, 0xae, 0xbf,
  0x0a, 0x8e, 0x52, 0x3e, 0x8d, 0x38, 0xee, 0xbf, 0x28, 0x0b, 0x39, 0x3e,
  0x80, 0x07, 0x64, 0xbf, 0x1e, 0x2f, 0x96, 0xbf, 0x21, 0x66, 0x40, 0x3d,
  0x02, 0x94, 0xe8, 0xbf, 0x27, 0xdb, 0x0e, 0x3f, 0x7c, 0x54, 0x19, 0xbf,
  0x88, 0x2b, 0xb0, 0xbe, 0xb0, 0x21, 0xaf, 0xbf, 0xbb, 0x49, 0xba, 0xbf,
  0xa1, 0x04, 0x67, 0x3f, 0x42, 0xc0, 0xb0, 0xbd, 0x33, 0xd4, 0x2e, 0xbf,
  0xfd, 0x7c, 0x09, 0xbf, 0xb5, 0x6a, 0xd8, 0x3e, 0x39, 0x07, 0x43, 0xbf,
  0xca, 0x17, 0xdb, 0xbc, 0x60, 0x74, 0x53, 0xbf, 0xe4, 0x4a, 0x01, 0xbf,
  0x7d, 0xf4, 0xb2, 0x3e, 0x30, 0x2c, 0xf9, 0xbf, 0x08, 0x5d, 0xfc, 0x3e,
  0xac, 0xe7, 0x2e, 0x3e, 0xf6, 0x29, 0x5f, 0xbe, 0xaf, 0xb7, 0x80, 0xbf,
  0xfa, 0x78, 0x9f, 0xbf, 0xdd, 0xb6, 0x50, 0x3f, 0x4c, 0xc8, 0x0a, 0xbf,
  0xe7, 0x4c, 0xce, 0xbd, 0xa2, 0x84, 0x99, 0xbf, 0x18, 0x1f, 0xd1, 0x3e,
  0x1e, 0x16, 0x9c, 0xbf, 0x5c, 0xf1, 0xd8, 0xbb, 0xf4, 0x6d, 0xe8, 0xbe,
  0xc4, 0x2e, 0x71, 0xbf, 0xce, 0xc4, 0xd7, 0x3c, 0x67, 0x9e, 0xe3, 0xbf,
  0xa8, 0x32, 0xc8, 0x3e, 0xf7, 0xbd, 0xb0, 0xbe, 0x8b, 0x6b, 0x17, 0x3c,
  0x72, 0xf6, 0x86, 0xbf, 0x27, 0x4d, 0xe2, 0xbf, 0x43, 0xff, 0xa0, 0x3f,
  0xd9, 0xc2, 0x3c, 0x3d, 0xe0, 0x0f, 0xbe, 0xbe, 0x58, 0xdc, 0xa7, 0xbf,
  0x4a, 0x8c, 0x44, 0x3f, 0xef, 0x30, 0x86, 0xbf, 0x28, 0xe5, 0x9f, 0x3e,
  0x0e, 0x6e, 0x51, 0xbf, 0xd0, 0x7f, 0xa8, 0xbf, 0x8b, 0x66, 0x94, 0x3e,
  0x78, 0x7f, 0x91, 0xbf, 0x48, 0x1c, 0x32, 0x3f, 0xa6, 0x0f, 0x62, 0x3e,
  0x0c, 0x3e, 0xbf, 0x3e, 0xa8, 0xad, 0x85, 0xbf, 0x84, 0xe9, 0xf8, 0xbf,
  0x8e, 0xeb, 0x67, 0x3f, 0x6d, 0x4e, 0xad, 0xbe, 0x11, 0x9f, 0x31, 0xbf,
  0xb6, 0x20, 0xf6, 0xbf, 0xc7, 0x78, 0x65, 0x3f, 0x62, 0x90, 0x94, 0xbf,
  0x6e, 0xd4, 0xfa, 0x3d, 0x3b, 0x2d, 0x50, 0xbf, 0xbd, 0x0e, 0xe3, 0xbd,
  0xb7, 0x5d, 0x8f, 0x3e, 0x71, 0x7f, 0x90, 0xbf, 0xc5, 0x50, 0x02, 0x3f,
  0x58, 0xa5, 0xf8, 0x3d, 0x17, 0x26, 0xb9, 0x3e, 0xff, 0xbd, 0x31, 0xbf,
  0x11, 0x32, 0x05, 0xc0, 0x6a, 0xf0, 0x7f, 0x3f, 0x8c, 0x24, 0x13, 0xbe,
  0xde, 0xef, 0xd1, 0xbb, 0x27, 0x65, 0xe8, 0xbf, 0xfd, 0x9d, 0xa2, 0x3e,
  0x91, 0x02, 0x8c, 0xbf, 0x74, 0xcd, 0x3d, 0x3e, 0x35, 0x80, 0x23, 0xbf,
  0x0d, 0x77, 0xd1, 0xbe, 0x71, 0x8f, 0xe8, 0x3d, 0x97, 0xae, 0x41, 0xbf,
  0x12, 0x72, 0xe6, 0xbc, 0xdf, 0x22, 0x19, 0x3f, 0x1a, 0x69, 0x4b, 0x3e,
  0x0a, 0x60, 0x45, 0xbf, 0x24, 0xbb, 0xd3, 0xbf, 0x7a, 0x83, 0xe2, 0x3e,
  0x83, 0xf3, 0xc3, 0xbe, 0x45, 0xbe, 0xde, 0xbd, 0xaf, 0x81, 0xd5, 0xbf,
  0xd4, 0xe1, 0xb9, 0x3e, 0xb8, 0xdd, 0x39, 0xbf, 0x5d, 0x16, 0x09, 0x3e,
  0x55, 0xcc, 0x50, 0xbf, 0x4a, 0xe1, 0xd4, 0xbe, 0x04, 0x07, 0x27, 0x3e,
  0xb8, 0xd5, 0xa1, 0xbf, 0x24, 0x92, 0x23, 0x3f, 0xd3, 0x5e, 0xad, 0x3e,
  0x4f, 0x50, 0x49, 0x3f, 0xbd, 0x97, 0x56, 0xbf, 0x35, 0xe5, 0x8f, 0xbf,
  0x66, 0x0c, 0x0e, 0x3e, 0xff, 0x3b, 0x0a, 0xbf, 0x42, 0x94, 0xae, 0xbe,
  0xd9, 0x72, 0xf1, 0xbf, 0x22, 0x76, 0x51, 0x3e, 0x8c, 0x7a, 0x93, 0xbf,
  0x28, 0x92, 0xe5, 0x3d, 0x50, 0xeb, 0xa3, 0xbf, 0x5c, 0xa9, 0x1e, 0xbf,
  0xf4, 0xeb, 0xa4, 0x3e, 0x05, 0xbf, 0x02, 0xc0, 0xd3, 0x88, 0xd9, 0x3e,
  0x4e, 0xab, 0x77, 0x3f, 0x9f, 0xc0, 0x81, 0x3f, 0x5f, 0xe7, 0xb3, 0xbf,
  0x24, 0x23, 0xe9, 0xbe, 0x3b, 0xa4, 0xb5, 0x3e, 0x87, 0x65, 0x44, 0xbf,
  0x58, 0x83, 0x59, 0x3e, 0xc9, 0x73, 0x33, 0xc0, 0xf4, 0x8a, 0x9a, 0x3e,
  0xf0, 0x0d, 0x88, 0xbf, 0xec, 0xce, 0x58, 0x3e, 0x03, 0xe9, 0x65, 0xbf,
  0x17, 0x63, 0x6d, 0xbe, 0x2e, 0xc1, 0x98, 0x3e, 0x80, 0x35, 0xa6, 0xbf,
  0x8e, 0x0b, 0x3f, 0x3f, 0xfa, 0xb2, 0x7e, 0x3f, 0xa5, 0x4f, 0xb5, 0x3e,
  0xe7, 0xc8, 0x6d, 0xbe, 0x82, 0xa4, 0x28, 0xbf, 0xf8, 0x1a, 0x04, 0x3f,
  0x8f, 0xc7, 0xd9, 0xbe, 0x6e, 0x34, 0xcf, 0xbd, 0xe1, 0xf1, 0x1f, 0xc0,
  0x3c, 0x47, 0xb6, 0x3e, 0x5b, 0xb6, 0x10, 0xbf, 0xbf, 0x5b, 0x45, 0x3e,
  0x31, 0xd1, 0x9b, 0xbf, 0xa6, 0x46, 0x5b, 0xbf, 0x42, 0x4c, 0x91, 0x3d,
  0x5e, 0x50, 0x0d, 0xc0, 0xb9, 0xac, 0x40, 0x3e, 0x01, 0x0f, 0xcc, 0x3f,
  0x04, 0x05, 0x71, 0x3f, 0xc7, 0xa4, 0x99, 0xbe, 0xb7, 0xce, 0x46, 0xbf,
  0xc3, 0x39, 0x84, 0x3e, 0x69, 0x5e, 0xdb, 0xbe, 0xc6, 0xfa, 0x11, 0xbf,
  0xbb, 0x2a, 0x0f, 0xc0, 0xa6, 0x7d, 0xad, 0x3d, 0x73, 0xa8, 0x8c, 0xbf,
  0x8d, 0x23, 0x64, 0x3e, 0x16, 0xfd, 0x8a, 0xbf, 0xdc, 0x39, 0x26, 0xbf,
  0x74, 0x50, 0x0e, 0x3e, 0x7a, 0x2b, 0xf0, 0xbf, 0xdd, 0xa3, 0x45, 0x3f,
  0x2b, 0x5c, 0xa7, 0x3f, 0xbf, 0xf2, 0x61, 0x3f, 0xeb, 0x00, 0x40, 0x3e,
  0xa8, 0xe4, 0x36, 0xbf, 0x8f, 0x02, 0x5d, 0x3c, 0xb3, 0x4b, 0x31, 0xbf,
  0x45, 0x9a, 0xd8, 0x3d, 0x10, 0x20, 0xae, 0xbf, 0xae, 0x9a, 0xbc, 0x3e,
  0xd0, 0x6c, 0x9c, 0xbf, 0x2e, 0x11, 0x1c, 0x3e, 0xb7, 0x8d, 0x48, 0xbf,
  0xea, 0xed, 0xa6, 0xbe, 0xd0, 0x38, 0xa9, 0x3e, 0x74, 0x1e, 0xdf, 0xbf,
  0x32, 0x70, 0x2f, 0x3f, 0xc5, 0x2d, 0xab, 0x3f, 0x41, 0xcf, 0x43, 0x3f,
  0xf1, 0x3e, 0x9e, 0xbb, 0x96, 0xe6, 0xed, 0xbe, 0x0d, 0xb4, 0xc5, 0x3d,
  0xf2, 0x4a, 0x35, 0xbf, 0x64, 0x9b, 0x22, 0x3e, 0xd2, 0x8c, 0xc9, 0xbf,
  0x3c, 0x71, 0xa3, 0x3d, 0xe6, 0x86, 0x30, 0xbf, 0x15, 0xc9, 0xa9, 0x3e,
  0x21, 0xed, 0x1a, 0xbf, 0xed, 0xe9, 0x91, 0x3c, 0x0a, 0x9b, 0xbc, 0xbd,
  0xed, 0x28, 0xb5, 0xbf, 0x8c, 0x84, 0x26, 0x3f, 0x18, 0xb1, 0xdf, 0x3f,
  0x6f, 0xab, 0xb0, 0x3f, 0x0e, 0x9f, 0xc9, 0x3d, 0x0c, 0x7e, 0xc1, 0xbe,
  0x52, 0x1d, 0xb0, 0xbd, 0x45, 0x7c, 0x38, 0xbf, 0x66, 0xc0, 0x77, 0xbd,
  0x37, 0x43, 0x3b, 0xc0, 0x1c, 0x18, 0xd7, 0xbd, 0x3e, 0x9d, 0x4f, 0xbf,
  0x00, 0xf4, 0x0b, 0x3d, 0x40, 0x82, 0x9f, 0xbf, 0x55, 0x42, 0xb5, 0xbe,
  0xb3, 0x88, 0x97, 0x3e, 0x26, 0x1a, 0xb8, 0xbf, 0x97, 0x9b, 0x18, 0x3f,
  0x85, 0x47, 0xb2, 0x3f, 0xb1, 0x54, 0x98, 0x3f, 0x3d, 0x06, 0x91, 0xbd,
  0x8d, 0x2b, 0xd9, 0xbe, 0x9f, 0x83, 0x7a, 0xbe, 0xa8, 0x95, 0x85, 0xbf,
  0x68, 0x29, 0xfc, 0xbd, 0x62, 0x5e, 0xf7, 0xbf, 0x1f, 0x92, 0x62, 0xbe,
  0xb3, 0xc2, 0xb0, 0xbe, 0x6e, 0x8a, 0x20, 0x3e, 0xb6, 0x1a, 0x80, 0xbf,
  0xb6, 0x85, 0xb3, 0x3e, 0xea, 0xa7, 0x4e, 0x3d, 0x92, 0x80, 0x33, 0xbf,
  0x05, 0xc9, 0x82, 0x3e, 0x9e, 0xd1, 0xac, 0x3f, 0xcb, 0x97, 0x5f, 0x3f,
  0x80, 0x0c, 0xcd, 0xbe, 0x14, 0xe5, 0xfb, 0xbe, 0x4e, 0xc7, 0x09, 0xbe,
  0x00, 0x8f, 0x8c, 0xbf, 0x5e, 0xef, 0x46, 0xbe, 0x84, 0x78, 0x26, 0xc0,
  0x79, 0xd5, 0xa3, 0x3e, 0x59, 0xab, 0xb3, 0xbe, 0x8e, 0x4b, 0x93, 0x3f,
  0x16, 0x76, 0x4f, 0xc0, 0xcf, 0x60, 0x54, 0xbf, 0x19, 0x90, 0x4a, 0xbf,
  0x25, 0xa4, 0x90, 0xbf, 0x48, 0x59, 0x33, 0x3f, 0x82, 0xd9, 0x5d, 0x3e,
  0xa8, 0xc0, 0x66, 0x3f, 0xc8, 0x08, 0x1e, 0x3f, 0xcb, 0x2e, 0x7e, 0xbf,
  0x24, 0x6f, 0xa3, 0xc0, 0x6e, 0x39, 0xc3, 0x3e, 0xf9, 0xed, 0x76, 0xbf,
  0xc4, 0xe7, 0xbe, 0x3e, 0x9e, 0x69, 0x3e, 0x3f, 0xd5, 0xd5, 0x61, 0xbf,
  0x6b, 0x69, 0xf0, 0x3c, 0x40, 0x21, 0x71, 0xc0, 0xcc, 0xbb, 0x20, 0xbf,
  0xe4, 0xfe, 0x4b, 0xbf, 0xa4, 0x34, 0xb5, 0xbf, 0x78, 0xc8, 0xd2, 0x3e,
  0x00, 0xca, 0xb0, 0x3e, 0xa8, 0x56, 0x57, 0x3f, 0x62, 0x62, 0x29, 0x3f,
  0x78, 0x83, 0x60, 0xbf, 0x8e, 0x72, 0x9a, 0xc0, 0x8c, 0x8f, 0x1c, 0x3e,
  0xc3, 0x41, 0x0a, 0xbf, 0xd2, 0x5d, 0xa7, 0x3e, 0xc8, 0x2c, 0x60, 0x3f,
  0xdb, 0x30, 0x71, 0xbf, 0x8c, 0x31, 0x29, 0x3f, 0xc5, 0x30, 0x2a, 0xc0,
  0x2c, 0x85, 0x92, 0xbf, 0x8a, 0xfb, 0x7c, 0xbf, 0x94, 0x3b, 0xa2, 0xbf,
  0x81, 0x48, 0x17, 0x3f, 0x9d, 0xbd, 0x39, 0x3f, 0xec, 0xad, 0x8d, 0x3f,
  0x5f, 0xf3, 0xa6, 0x3d, 0x99, 0xb9, 0x67, 0xbf, 0x9a, 0xa3, 0x98, 0xc0,
  0x4a, 0xb2, 0xd4, 0x3e, 0x9b, 0xe2, 0x5a, 0xbf, 0x5a, 0x0b, 0xed, 0x3d,
  0xde, 0x54, 0x82, 0x3f, 0x23, 0xf4, 0x55, 0xbf, 0xdd, 0x11, 0xa5, 0x3e,
  0x30, 0x8d, 0x51, 0xc0, 0x28, 0xdf, 0x31, 0xbf, 0x7b, 0x9c, 0x6b, 0xbf,
  0xc6, 0xb4, 0x8b, 0xbf, 0x33, 0x14, 0x88, 0x3f, 0xc7, 0x97, 0x82, 0x3d,
  0x8e, 0x35, 0x2a, 0x3f, 0x06, 0x9a, 0x35, 0x3f, 0x01, 0xee, 0x94, 0xbf,
  0xdb, 0xd3, 0xb9, 0xc0, 0x76, 0x04, 0xf2, 0x3e, 0x30, 0xf5, 0x3b, 0xbf,
  0x66, 0x45, 0x32, 0x3f, 0x00, 0xae, 0x80, 0x3f, 0xf9, 0x74, 0x3f, 0xbf,
  0x16, 0xd4, 0xae, 0x3e, 0x52, 0x08, 0x5c, 0xc0, 0x61, 0x56, 0x99, 0xbf,
  0x76, 0xde, 0x7a, 0xbf, 0x60, 0x19, 0x82, 0xbf, 0xa2, 0x0d, 0x3b, 0x3f,
  0xfe, 0x3e, 0x59, 0x3e, 0xb4, 0xbf, 0x20, 0x3f, 0xce, 0x89, 0x06, 0x3f,
  0x35, 0x6d, 0x8b, 0xbf, 0x94, 0x4a, 0x96, 0xc0, 0xed, 0x30, 0xa2, 0x3e,
  0xe6, 0x5d, 0xcf, 0xbe, 0x29, 0xc8, 0x24, 0x3f, 0x74, 0x54, 0x4b, 0x3f,
  0xba, 0xed, 0x1f, 0xbf, 0x22, 0x19, 0x82, 0x3e, 0x3c, 0xa9, 0x40, 0xc0,
  0x7e, 0x36, 0x8f, 0xbf, 0xf7, 0xa7, 0x8b, 0xbf, 0x71, 0x08, 0xa3, 0xbf,
  0x9f, 0xb9, 0x46, 0x3f, 0x6b, 0x14, 0x07, 0x3e, 0xc9, 0x19, 0x83, 0x3e,
  0xd8, 0x97, 0xee, 0x3e, 0x16, 0xb5, 0x4b, 0xbf, 0xea, 0x5a, 0xb1, 0xc0,
  0x6b, 0x27, 0x51, 0x3e, 0x38, 0xee, 0x49, 0xbf, 0x00, 0xa6, 0x11, 0xbd,
  0xcd, 0x74, 0xb7, 0x3e, 0x1b, 0x53, 0x32, 0xbf, 0x7b, 0xe8, 0x6f, 0xbe,
  0x13, 0xde, 0x3a, 0xc0, 0x42, 0x55, 0x8a, 0xbf, 0xa4, 0x4f, 0xb5, 0xbf,
  0x70, 0xb4, 0x80, 0xbf, 0x8a, 0x14, 0x5d, 0x3f, 0x07, 0xcc, 0xd5, 0x3e,
  0x0c, 0xdc, 0xd1, 0x3e, 0xe3, 0xd9, 0x19, 0x3f, 0xb9, 0x90, 0x34, 0xbf,
  0x0f, 0x14, 0x90, 0xc0, 0x02, 0x2c, 0x3c, 0x3e, 0x0f, 0x46, 0x84, 0xbe,
  0xf5, 0x5d, 0x27, 0x3f, 0x4d, 0x8b, 0x2a, 0x3f, 0x60, 0x98, 0x6b, 0xbf,
  0x6d, 0x05, 0x1f, 0x3f, 0x72, 0x08, 0x43, 0xc0, 0xbc, 0x4f, 0x90, 0xbf,
  0xf4, 0xfe, 0x8b, 0xbf, 0x5a, 0x14, 0xcc, 0xbf, 0x33, 0x27, 0x4d, 0x3f,
  0x29, 0xfc, 0x04, 0x3e, 0x34, 0xe9, 0x48, 0x3f, 0xb2, 0xb3, 0xb1, 0x3e,
  0x7b, 0x81, 0x91, 0xbf, 0x76, 0x8a, 0xb0, 0xc0, 0x4e, 0x29, 0x4a, 0x3e,
  0xa6, 0xe9, 0x44, 0xbe, 0x95, 0x2d, 0x73, 0x3f, 0x32, 0xde, 0x33, 0x3f,
  0x6f, 0xa9, 0x24, 0xbf, 0x87, 0x99, 0xe5, 0x3e, 0x57, 0x81, 0x4b, 0xc0,
  0x97, 0xa1, 0xa6, 0xbf, 0x4a, 0xd8, 0xb7, 0xbf, 0x0e, 0xa0, 0xb6, 0xbf,
  0xd7, 0xac, 0x87, 0x3f, 0x4c, 0xa9, 0xd2, 0x3e, 0xa1, 0xf2, 0x2b, 0x3f,
  0xf2, 0xcd, 0x59, 0x3e, 0x73, 0x01, 0x0a, 0xbf, 0x9c, 0x87, 0x94, 0xc0,
  0xd9, 0x52, 0xa1, 0x3e, 0x58, 0x96, 0x97, 0xbe, 0xb2, 0x99, 0xeb, 0x3e,
  0x6b, 0x14, 0x31, 0x3f, 0x2e, 0xa5, 0xd9, 0xbe, 0xe7, 0x5f, 0xa8, 0x3e,
  0x67, 0x8a, 0x5a, 0xc0, 0x4f, 0x2d, 0xcb, 0xbe, 0x0d, 0xd8, 0x93, 0xbf,
  0x22, 0x41, 0xbc, 0xbf, 0xa5, 0x60, 0x37, 0x3f, 0x61, 0xcd, 0xfa, 0x3e,
  0xab, 0x57, 0x5f, 0x3d, 0x7d, 0xad, 0xe7, 0x3e, 0x43, 0x35, 0x35, 0xbf,
  0x5a, 0xef, 0xc0, 0xc0, 0x57, 0x4d, 0xb6, 0x3e, 0x83, 0x55, 0x28, 0xbf,
  0x48, 0xdc, 0x2e, 0x3f, 0x0c, 0x19, 0x64, 0x3e, 0x10, 0x3b, 0x4c, 0xbf,
  0xa9, 0x24, 0x53, 0x3f, 0x14, 0xab, 0x44, 0xc0, 0xd1, 0x1e, 0x41, 0xbf,
  0x26, 0x7d, 0x9b, 0xbf, 0xe9, 0xb9, 0xad, 0xbf, 0xbd, 0x8d, 0x4a, 0x3f,
  0xcf, 0xda, 0x52, 0x3d, 0x0f, 0x75, 0xfc, 0x3e, 0x33, 0x9d, 0xc6, 0x3e,
  0x1b, 0xe9, 0x52, 0xbf, 0xfd, 0x78, 0xab, 0xc0, 0xb5, 0x49, 0x45, 0xbc,
  0xdf, 0xd9, 0xf6, 0xbe, 0x1b, 0x0d, 0x02, 0x3f, 0x07, 0x72, 0xa8, 0x3c,
  0x92, 0x53, 0x3d, 0xbe, 0xfb, 0xba, 0xe2, 0xbe, 0x1c, 0xfa, 0x41, 0xc0,
  0x35, 0xcd, 0x2e, 0xbf, 0xff, 0x4e, 0x8a, 0xbf, 0x41, 0x68, 0x64, 0xbf,
  0x26, 0x32, 0x07, 0x3f, 0xfa, 0x8a, 0xd2, 0x3d, 0x6e, 0xdb, 0x17, 0x3f,
  0x26, 0x5f, 0xd2, 0xbd, 0x44, 0x3a, 0x64, 0xbf, 0x16, 0x1c, 0xae, 0xc0,
  0x74, 0x00, 0xbc, 0x3e, 0xe4, 0x02, 0x7e, 0xbf, 0x2c, 0x84, 0x10, 0x3f,
  0x26, 0xfd, 0x42, 0x3f, 0x69, 0x22, 0x35, 0xbd, 0x1b, 0x63, 0xe5, 0x3e,
  0xaa, 0xa8, 0x29, 0xc0, 0x2a, 0x12, 0x6c, 0xbf, 0x5d, 0x81, 0x9d, 0xbf,
  0x5d, 0x69, 0x8c, 0xbf, 0x9e, 0xc4, 0x1d, 0x3f, 0xc6, 0x9f, 0x4d, 0xbe,
  0xa4, 0xe5, 0xbf, 0x3e, 0x0e, 0x6d, 0xd5, 0xbc, 0xc9, 0xa6, 0x1e, 0xbf,
  0x3f, 0x9c, 0xa6, 0xc0, 0x86, 0x8e, 0xed, 0x3e, 0x02, 0xde, 0x35, 0xbf,
  0x9d, 0xb3, 0xd5, 0x3e, 0x08, 0xe6, 0x0f, 0x3f, 0x08, 0x19, 0x9e, 0xbe,
  0x3a, 0x11, 0x88, 0xbd, 0xe0, 0xc7, 0x5c, 0xc0, 0x25, 0x42, 0x70, 0xbf,
  0x03, 0x10, 0x85, 0xbf, 0x9d, 0x68, 0xc0, 0xbf, 0x3e, 0xb9, 0xdf, 0x3e,
  0x27, 0x62, 0xb3, 0xbd, 0xfa, 0x26, 0xe4, 0x3e, 0xa2, 0xb5, 0xbd, 0x3e,
  0x86, 0x40, 0x84, 0xbf, 0x09, 0x45, 0x7e, 0xc0, 0x00, 0x35, 0x8b, 0x3e,
  0xf1, 0x50, 0xf9, 0xbe, 0xbc, 0xbe, 0x20, 0x3f, 0xbc, 0xa6, 0x49, 0x3f,
  0x39, 0x65, 0x07, 0xbf, 0xc5, 0xfc, 0x9f, 0x3e, 0x1d, 0xb6, 0x2a, 0xc0,
  0xfb, 0x63, 0x9f, 0xbe, 0x86, 0x2d, 0xbe, 0xbf, 0x19, 0xc4, 0xca, 0xbf,
  0xae, 0x5a, 0x21, 0x3f, 0x08, 0x93, 0x35, 0x3e, 0x4f, 0xdf, 0xc2, 0x3e,
  0x62, 0xd2, 0x8b, 0x3e, 0x2c, 0x43, 0xa2, 0xbf, 0x6d, 0x15, 0x9a, 0xc0,
  0xd1, 0xa8, 0x33, 0x3e, 0x48, 0x9c, 0xb3, 0xbe, 0x0e, 0x29, 0x16, 0x3f,
  0xec, 0xe7, 0x95, 0x3e, 0xb9, 0xd5, 0xf3, 0xbe, 0x8d, 0x53, 0x96, 0x3e,
  0x3d, 0x97, 0x36, 0xc0, 0x63, 0x2c, 0x93, 0xbf, 0x36, 0x51, 0x69, 0xbf,
  0x35, 0xda, 0xda, 0xbf, 0xc8, 0x0e, 0x5e, 0x3f, 0x9e, 0xa4, 0xc1, 0x3c,
  0x59, 0xe4, 0x05, 0x3f, 0x5f, 0x6d, 0x48, 0x3d, 0x9c, 0x45, 0x70, 0xbf,
  0x10, 0xaa, 0x9d, 0xc0, 0xb0, 0x24, 0x17, 0x3e, 0x39, 0xb1, 0x18, 0xbf,
  0xd3, 0x3b, 0xbe, 0x3e, 0xfe, 0x4f, 0xe1, 0x3e, 0xc6, 0xd7, 0x11, 0xbf,
  0xd3, 0x6a, 0x3c, 0xbe, 0x2e, 0x4b, 0x4c, 0xc0, 0xcd, 0xeb, 0x7e, 0xbf,
  0x63, 0x0c, 0xb0, 0xbf, 0x7f, 0xb3, 0x9b, 0xbf, 0x12, 0x97, 0x3a, 0x3f,
  0xe1, 0x46, 0x26, 0x3e, 0x94, 0xaf, 0xce, 0x3e, 0xbb, 0xbc, 0xfa, 0x3e,
  0x09, 0x8d, 0x4e, 0xbf, 0x0e, 0xc5, 0x99, 0xc0, 0xac, 0xf0, 0x1e, 0x3e,
  0xcb, 0xe7, 0x70, 0xbf, 0x48, 0x75, 0x09, 0x3f, 0x7d, 0x2c, 0x94, 0x3d,
  0x28, 0x01, 0x1d, 0xbf, 0xa2, 0xd6, 0xd1, 0xbd, 0x9a, 0x15, 0x34, 0xc0,
  0x6f, 0x90, 0x15, 0xbf, 0xf6, 0x50, 0xa3, 0xbf, 0x86, 0xf3, 0xb3, 0xbf,
  0x43, 0xcf, 0x26, 0x3f, 0xc7, 0x07, 0x26, 0xbe, 0xec, 0xa1, 0xa2, 0x3e,
  0x01, 0x69, 0x18, 0x3d, 0xc5, 0x9f, 0x7d, 0xbf, 0x09, 0x65, 0xaa, 0xc0,
  0x50, 0x31, 0xec, 0x3e, 0xf7, 0x79, 0x1d, 0xbf, 0x49, 0x73, 0x13, 0x3f,
  0x0b, 0xa4, 0x26, 0x3f, 0xa7, 0x54, 0xa2, 0xbe, 0x45, 0x48, 0x4f, 0x3e,
  0x2c, 0xbc, 0x1f, 0xc0, 0xf2, 0x3a, 0xd0, 0xbe, 0x2e, 0x2b, 0x83, 0xbf,
  0x7d, 0xbf, 0x73, 0xbf, 0x61, 0x90, 0x8b, 0x3f, 0x5f, 0x71, 0x62, 0xbe,
  0x8b, 0x81, 0xa2, 0x3e, 0x04, 0x24, 0x97, 0xbd, 0x2f, 0x1e, 0x33, 0xbf,
  0x2e, 0x5c, 0x8c, 0xc0, 0x61, 0xa6, 0x07, 0x3e, 0xeb, 0x5c, 0x82, 0xbe,
  0xe1, 0x23, 0xc0, 0x3e, 0x24, 0xe3, 0x03, 0x3f, 0xfe, 0x94, 0x79, 0xbf,
  0xef, 0xad, 0x22, 0xbe, 0x3e, 0x0f, 0x5c, 0xc0, 0x54, 0x72, 0x5c, 0xbf,
  0x9c, 0x48, 0x20, 0xbf, 0x5c, 0x29, 0xab, 0xbf, 0x70, 0xa1, 0x4d, 0x3f,
  0x23, 0xdb, 0x40, 0xbe, 0x54, 0x9a, 0xff, 0x3e, 0x95, 0xb0, 0xd1, 0x3e,
  0xdb, 0x4a, 0x7d, 0xbf, 0xdd, 0xc5, 0xa7, 0xc0, 0xac, 0x47, 0x8a, 0x3e,
  0x80, 0xc7, 0x14, 0xbf, 0xcf, 0x53, 0x87, 0x3e, 0x0f, 0x1e, 0xf2, 0x3e,
  0x90, 0xca, 0x7a, 0xbf, 0x3b, 0x3d, 0xca, 0x3d, 0x6c, 0xa9, 0x53, 0xc0,
  0xee, 0xb1, 0x3c, 0xbf, 0x89, 0x6d, 0xbe, 0xbf, 0x41, 0x68, 0x70, 0xbf,
  0x45, 0x90, 0x2e, 0x3f, 0xc7, 0xbc, 0xc3, 0x3a, 0xf8, 0x0a, 0x05, 0x3f,
  0x29, 0x92, 0x10, 0x3e, 0x53, 0xb1, 0x49, 0xbf, 0xb2, 0x9d, 0x9f, 0xc0,
  0x50, 0x26, 0xf0, 0x3e, 0xd9, 0xff, 0x1c, 0xbf, 0x90, 0x74, 0x96, 0xbd,
  0xf8, 0x80, 0x1a, 0x3f, 0x24, 0xce, 0x86, 0xbf, 0x83, 0x84, 0x85, 0x3c,
  0x26, 0x48, 0x3f, 0xc0, 0xff, 0x2c, 0x87, 0xbf, 0x93, 0xeb, 0x80, 0xbf,
  0x23, 0xa0, 0x89, 0xbf, 0xfd, 0x7c, 0x09, 0x3f, 0x35, 0x08, 0x60, 0xbd,
  0x69, 0xc6, 0x30, 0x3d, 0xe7, 0x1c, 0xbc, 0x3d, 0x3f, 0xa7, 0x3b, 0xbf,
  0x5e, 0xb2, 0xa4, 0xc0, 0x42, 0xbc, 0x2a, 0x3e, 0x1d, 0x1f, 0x50, 0xbf,
  0xdc, 0x6a, 0x8a, 0x3e, 0x2e, 0xf8, 0x74, 0x3f, 0x2f, 0x75, 0x18, 0x3e,
  0x36, 0xcf, 0x13, 0xbf, 0x09, 0x6e, 0xaf, 0xbe, 0x5f, 0xb4, 0xe9, 0x3e,
  0xaf, 0x61, 0x12, 0xc0, 0xab, 0x99, 0x8b, 0x3f, 0x96, 0x0d, 0x2f, 0x3f,
  0x85, 0x3b, 0x43, 0x3f, 0x69, 0x82, 0x30, 0x3f, 0xfc, 0x22, 0x15, 0xc0,
  0x23, 0x84, 0x32, 0xc0, 0x52, 0x73, 0x05, 0xc0, 0x03, 0xe7, 0x99, 0xc0,
  0xd6, 0xe1, 0x23, 0x3e, 0x02, 0xad, 0x2e, 0x3f, 0xf7, 0x8a, 0xb5, 0x3f,
  0x4f, 0xc3, 0x91, 0x3e, 0xb5, 0x27, 0x69, 0xbf, 0xab, 0x79, 0xb1, 0xbe,
  0x6c, 0x71, 0x53, 0xbd, 0xa6, 0x49, 0xf2, 0xbf, 0x76, 0x31, 0xa6, 0x3f,
  0xbd, 0x91, 0x3a, 0x3f, 0x2e, 0xa0, 0x2b, 0x3f, 0x40, 0xfd, 0xd7, 0x3e,
  0xc0, 0x33, 0x16, 0xc0, 0x89, 0x0f, 0x3f, 0xc0, 0x76, 0x5b, 0xd8, 0xbf,
  0xfe, 0xa5, 0x9a, 0xc0, 0xc8, 0x2f, 0xc6, 0x3e, 0xac, 0x79, 0x44, 0x3f,
  0x48, 0x8f, 0x9d, 0x3f, 0x07, 0xc1, 0x6a, 0x3e, 0xbd, 0xc3, 0xc4, 0xbe,
  0xc8, 0x1f, 0x04, 0xbf, 0xdd, 0x51, 0xeb, 0x3e, 0x1a, 0x0f, 0x09, 0xc0,
  0x6e, 0x70, 0x7a, 0x3f, 0x50, 0x91, 0x63, 0x3f, 0xd1, 0xb9, 0x17, 0x3f,
  0x96, 0xc6, 0x90, 0x3f, 0xe1, 0x00, 0x1e, 0xc0, 0x29, 0x0f, 0x3c, 0xc0,
  0x0c, 0xa2, 0xf2, 0xbf, 0xad, 0x9e, 0x95, 0xc0, 0xf1, 0xce, 0x64, 0x3e,
  0xfd, 0x23, 0x7d, 0x3f, 0x56, 0xf5, 0x75, 0x3f, 0x53, 0xf8, 0x6f, 0x3d,
  0xb6, 0xd1, 0x0e, 0xbf, 0x6d, 0x6a, 0x1c, 0xbf, 0x5b, 0xbb, 0xea, 0x3e,
  0xca, 0xdd, 0xf1, 0xbf, 0x88, 0x72, 0x3e, 0x3f, 0x42, 0xe4, 0x26, 0x3f,
  0xc5, 0x8d, 0x14, 0x3f, 0xa7, 0x72, 0xa9, 0x3e, 0x42, 0x7d, 0x16, 0xc0,
  0x02, 0x44, 0x48, 0xc0, 0xea, 0x4f, 0xbc, 0xbf, 0xe4, 0x84, 0x9a, 0xc0,
  0xe2, 0x59, 0x36, 0xbe, 0x84, 0x6f, 0x1e, 0x3f, 0x20, 0x0e, 0x94, 0x3f,
  0xf6, 0x44, 0x92, 0x3d, 0x8f, 0xef, 0xb9, 0xbe, 0xa8, 0x5f, 0xa3, 0xbf,
  0x1a, 0x09, 0x00, 0xbe, 0xeb, 0xee, 0x1b, 0xc0, 0x19, 0x0c, 0x92, 0x3f,
  0x54, 0x24, 0x9c, 0x3f, 0x5a, 0x08, 0x3a, 0x3f, 0x38, 0x66, 0xf7, 0x3e,
  0x4b, 0xb2, 0x17, 0xc0, 0x84, 0xaa, 0x4b, 0xc0, 0x4d, 0x32, 0x94, 0xbf,
  0x43, 0x02, 0x94, 0xc0, 0x5b, 0x9d, 0x01, 0x3e, 0xfd, 0xb9, 0x42, 0x3f,
  0xe3, 0x11, 0xa1, 0x3f, 0xba, 0xc3, 0xa1, 0x3e, 0xe1, 0xad, 0xde, 0xbe,
  0xda, 0x70, 0x81, 0xbe, 0x56, 0x68, 0x93, 0x3e, 0x30, 0x10, 0x1a, 0xc0,
  0x64, 0x2c, 0x63, 0x3f, 0xc8, 0x85, 0x85, 0x3f, 0x6f, 0xd1, 0x82, 0x3f,
  0xaf, 0x24, 0xd3, 0x3e, 0xb3, 0x59, 0x0e, 0xc0, 0x94, 0x80, 0x46, 0xc0,
  0x4c, 0x5f, 0xcd, 0xbf, 0xbe, 0xc2, 0x94, 0xc0, 0xdd, 0xc6, 0x3e, 0xbd,
  0xa6, 0x9f, 0x4d, 0x3f, 0xe1, 0x4f, 0x3b, 0x3f, 0x8b, 0x7d, 0x12, 0x3e,
  0x65, 0x8d, 0x51, 0xbf, 0x85, 0x0c, 0x77, 0xbe, 0xc8, 0xe8, 0xc1, 0x3e,
  0x2d, 0x65, 0x09, 0xc0, 0x13, 0x48, 0xa5, 0x3f, 0xa9, 0x76, 0x52, 0x3f,
  0x11, 0x79, 0x45, 0x3f, 0xdc, 0x25, 0xd1, 0x3e, 0x79, 0x63, 0x17, 0xc0,
  0x3f, 0xed, 0x3a, 0xc0, 0x7a, 0x24, 0xb3, 0xbf, 0xe5, 0x84, 0x9b, 0xc0,
  0x40, 0x25, 0xc4, 0x3e, 0xeb, 0xb4, 0x82, 0x3f, 0x1a, 0x11, 0x9e, 0x3f,
  0xb8, 0x7a, 0xc9, 0x3e, 0x95, 0xf7, 0x21, 0xbf, 0x68, 0xd6, 0x41, 0xbf,
  0xd2, 0xc6, 0x0d, 0x3f, 0xca, 0xd8, 0xf2, 0xbf, 0x97, 0x33, 0xcb, 0x3f,
  0x68, 0xc4, 0x2c, 0x3f, 0x87, 0xd7, 0x72, 0x3f, 0x18, 0xae, 0x33, 0x3f,
  0x04, 0x1b, 0x2d, 0xc0, 0xf6, 0x0c, 0x4b, 0xc0, 0x79, 0x89, 0xde, 0xbf,
  0x32, 0x3d, 0xa0, 0xc0, 0x1c, 0x7e, 0x6f, 0x3e, 0x76, 0x7b, 0xa1, 0x3e,
  0xfa, 0xcb, 0x5a, 0x3f, 0xca, 0xa5, 0xb5, 0x3e, 0xa4, 0xbc, 0x87, 0xbf,
  0x3d, 0x37, 0xac, 0xbe, 0x18, 0x97, 0x78, 0x3e, 0xbe, 0xc4, 0xea, 0xbf,
  0xa9, 0x8b, 0x60, 0x3f, 0x96, 0x1d, 0x99, 0x3f, 0x05, 0x67, 0xb2, 0x3e,
  0x49, 0x07, 0xe4, 0x3e, 0x88, 0x77, 0x16, 0xc0, 0x4d, 0x52, 0x58, 0xc0,
  0xbd, 0x8c, 0xfc, 0xbf, 0xa7, 0xc5, 0x97, 0xc0, 0xfb, 0x47, 0xc0, 0x3e,
  0x7b, 0x51, 0x4f, 0x3f, 0xa2, 0x57, 0x84, 0x3f, 0x7a, 0x4f, 0x9b, 0x3e,
  0x0d, 0xeb, 0x5c, 0xbf, 0x66, 0xb2, 0x81, 0xbf, 0xdd, 0x39, 0x3a, 0x3f,
  0xe3, 0x49, 0x02, 0xc0, 0x14, 0x2c, 0x6e, 0x3f, 0xdc, 0x66, 0xaa, 0x3f,
  0xd9, 0x5f, 0x73, 0x3e, 0xf3, 0x98, 0x43, 0x3f, 0x2f, 0x4c, 0x2b, 0xc0,
  0x4a, 0x0d, 0x53, 0xc0, 0xb7, 0xaa, 0xe8, 0xbf, 0x49, 0xd6, 0x95, 0xc0,
  0x1b, 0xb1, 0x50, 0x3d, 0x2f, 0x51, 0x6f, 0x3f, 0x79, 0x93, 0xa0, 0x3f,
  0xda, 0x8a, 0xb3, 0x3e, 0x37, 0x12, 0x7a, 0xbf, 0x6f, 0xa2, 0x9a, 0xbf,
  0xf8, 0x8c, 0x87, 0x3e, 0x24, 0x1a, 0x03, 0xc0, 0x9a, 0x1f, 0x96, 0x3f,
  0x38, 0xc8, 0x71, 0x3f, 0x0f, 0x6f, 0xa8, 0x3e, 0x25, 0xb6, 0x4b, 0x3f,
  0x23, 0x30, 0x17, 0xc0, 0x64, 0x89, 0x56, 0xc0, 0x10, 0xcb, 0xd3, 0xbf,
  0x69, 0x6c, 0x9f, 0xc0, 0xe7, 0x3f, 0x05, 0x3f, 0x1a, 0xd5, 0x36, 0x3f,
  0xe3, 0x84, 0x96, 0x3f, 0xae, 0xc4, 0x1b, 0x3f, 0x2b, 0xcd, 0x05, 0xbe,
  0x1a, 0x1d, 0x4c, 0xbf, 0xb5, 0xaa, 0x28, 0x3f, 0xd7, 0xfd, 0x0d, 0xc0,
  0x58, 0x9f, 0x8e, 0x3f, 0x06, 0x95, 0xa4, 0x3f, 0x57, 0x15, 0x82, 0xbd,
  0x68, 0x2b, 0xe1, 0x3e, 0x65, 0x73, 0x30, 0xc0, 0x3b, 0xe4, 0x3b, 0xc0,
  0x11, 0x11, 0xee, 0xbf, 0xad, 0x8a, 0xa0, 0xc0, 0xb0, 0x12, 0xd7, 0x3e,
  0x1f, 0x70, 0x77, 0x3e, 0x14, 0x9a, 0x92, 0x3f, 0xdd, 0xa0, 0x05, 0x3e,
  0x3e, 0x5b, 0x46, 0xbf, 0x9f, 0x2f, 0x6f, 0xbf, 0xc8, 0xbc, 0xae, 0x3d,
  0xb3, 0x24, 0xfd, 0xbf, 0xa0, 0x7e, 0xab, 0x3f, 0x11, 0x98, 0x59, 0x3f,
  0x31, 0x1f, 0x38, 0x3f, 0xb3, 0xc8, 0x5c, 0x3f, 0xa8, 0x65, 0x2a, 0xc0,
  0xe1, 0x35, 0x49, 0xc0, 0x2b, 0x4f, 0xc4, 0xbf, 0xbb, 0x52, 0x9a, 0xc0,
  0xc0, 0x15, 0x1f, 0xbe, 0xff, 0x88, 0x83, 0x3f, 0xff, 0x86, 0x56, 0x3f,
  0x1e, 0x3b, 0xab, 0xbd, 0x00, 0xea, 0xc2, 0xbc, 0x28, 0x63, 0x41, 0xbf,
  0xbb, 0x0f, 0xf2, 0x3e, 0xf8, 0x52, 0x16, 0xc0, 0x1c, 0x08, 0x2f, 0x3f,
  0xd5, 0x2f, 0x87, 0x3f, 0xf1, 0x40, 0x46, 0x3f, 0x84, 0x69, 0xaa, 0x3e,
  0xb3, 0xe2, 0x15, 0xc0, 0xcc, 0xe5, 0x2d, 0xc0, 0xd4, 0x84, 0xa7, 0xbf,
  0x50, 0xdc, 0x9d, 0xc0, 0x7d, 0xa2, 0x0e, 0x3f, 0xec, 0x6a, 0xb0, 0x3e,
  0x0a, 0x54, 0x5e, 0x3f, 0xcf, 0x95, 0x25, 0x3e, 0x3b, 0x03, 0x5d, 0xbf,
  0xc4, 0x37, 0x1e, 0xbf, 0x35, 0x58, 0xbe, 0xbd, 0x61, 0x5c, 0xe9, 0xbf,
  0x9d, 0x93, 0x8a, 0x3f, 0xc7, 0xed, 0xe5, 0x3e, 0xbe, 0x94, 0x0e, 0x3f,
  0x80, 0x8e, 0x15, 0x3f, 0x21, 0x53, 0x14, 0xc0, 0xc8, 0xad, 0x3c, 0xc0,
  0x7d, 0x9d, 0xaa, 0xbf, 0x6e, 0x8b, 0x94, 0xc0, 0x02, 0xbe, 0x31, 0xbe,
  0x9b, 0x60, 0x80, 0x3e, 0x19, 0x72, 0x57, 0x3f, 0x4e, 0x44, 0xd6, 0x3e,
  0xe7, 0x55, 0x53, 0x3e, 0xbd, 0x70, 0x41, 0xbf, 0x26, 0x42, 0xa1, 0x3e,
  0x30, 0xd7, 0x15, 0xc0, 0xb2, 0xbf, 0x69, 0x3f, 0x0c, 0x82, 0x1d, 0x3f,
  0xd1, 0xc2, 0x03, 0x3f, 0x27, 0x89, 0xe2, 0x3e, 0x38, 0x56, 0x1f, 0xc0,
  0x4e, 0xd0, 0x51, 0xc0, 0x33, 0x63, 0xc3, 0xbf, 0x0f, 0x34, 0x9c, 0xc0,
  0x16, 0xa1, 0x18, 0x3f, 0x4d, 0x13, 0x9b, 0x3d, 0xef, 0xba, 0x63, 0x3f,
  0x3c, 0xf8, 0xb8, 0x3e, 0x98, 0x66, 0x39, 0xbf, 0xdc, 0x2e, 0x1a, 0xbf,
  0x12, 0xcf, 0x40, 0x3f, 0x13, 0xf5, 0x0b, 0xc0, 0xad, 0xb6, 0x6a, 0x3f,
  0xf3, 0x11, 0x5e, 0x3f, 0x3c, 0x5a, 0x01, 0x3e, 0xba, 0x63, 0x40, 0x3f,
  0x79, 0x8f, 0x2b, 0xc0, 0x9d, 0xbd, 0x5a, 0xc0, 0x67, 0xb7, 0xc6, 0xbf,
  0xce, 0x47, 0x99, 0xc0, 0x10, 0xd2, 0x7e, 0x3c, 0x2e, 0x5c, 0x64, 0x3f,
  0x5d, 0x4f, 0x71, 0x3f, 0xf1, 0xbb, 0x55, 0x3e, 0x48, 0x79, 0x4f, 0xbf,
  0xbd, 0x01, 0x56, 0xbf, 0x19, 0xab, 0x51, 0x3e, 0xfa, 0x3f, 0x03, 0xc0,
  0x0d, 0xaa, 0x97, 0x3f, 0x21, 0x91, 0x89, 0x3f, 0xbd, 0x87, 0xce, 0x3e,
  0x6a, 0xff, 0x16, 0x3e, 0xd5, 0xb9, 0x25, 0xc0, 0x9b, 0x55, 0x66, 0xc0,
  0xfa, 0x0d, 0xdb, 0xbf, 0xae, 0x46, 0x9e, 0xc0, 0xb6, 0x31, 0xee, 0x3d,
  0xd8, 0xf6, 0x3e, 0x3f, 0x37, 0x74, 0x68, 0x3f, 0x19, 0x62, 0x5b, 0x3c,
  0x15, 0x96, 0x81, 0xbf, 0x76, 0x1f, 0x1a, 0xbf, 0x7e, 0xbe, 0x85, 0x3e,
  0x0f, 0x72, 0x05, 0xc0, 0x06, 0x60, 0x34, 0x3f, 0xf3, 0x07, 0xcc, 0x3d,
  0x2e, 0x86, 0x13, 0x3f, 0x55, 0x2d, 0xc1, 0x3e, 0x52, 0xf3, 0x35, 0xc0,
  0x52, 0x68, 0x4c, 0xc0, 0x06, 0x4b, 0xe6, 0xbf, 0x85, 0x21, 0x9a, 0xc0,
  0x6c, 0xbf, 0x4f, 0xbb, 0xe4, 0x10, 0x8b, 0x3f, 0x08, 0x97, 0x3f, 0x3f,
  0x17, 0xd7, 0x27, 0x3f, 0xaa, 0x55, 0x23, 0xbf, 0x0b, 0x30, 0x6f, 0xbf,
