const unsigned char model[] __attribute__((aligned(4))) = {
  0x1c, 0x00, 0x00, 0x00, 0x54, 0x46, 0x4c, 0x33, 0x00, 0x00, 0x12, 0x00,
  0x1c, 0x00, 0x04, 0x00, 0x08, 0x00, 0x0c, 0x00, 0x10, 0x00, 0x14, 0x00,
  0x00, 0x00, 0x18, 0x00, 0x12, 0x00, 0x00, 0x00, 0x03, 0x00, 0x00, 0x00,
  0x14, 0x00, 0x00, 0x00, 0x28, 0x00, 0x00, 0x00, 0xc4, 0x00, 0x00, 0x00,
  0x28, 0x00, 0x00, 0x00, 0x6c, 0x00, 0x00, 0x00, 0x05, 0x00, 0x00, 0x00,
  0x1c, 0x06, 0x00, 0x00, 0x3c, 0x05, 0x00, 0x00, 0xb8, 0x02, 0x00, 0x00,
  0x24, 0x02, 0x00, 0x00, 0x8c, 0x01, 0x00, 0x00, 0x01, 0x00, 0x00, 0x00,
  0xc0, 0x00, 0x00, 0x00, 0x11, 0x00, 0x00, 0x00, 0xb0, 0x13, 0x00, 0x00,
  0xac, 0x13, 0x00, 0x00, 0xa4, 0x12, 0x00, 0x00, 0xf0, 0x11, 0x00, 0x00,
  0x80, 0x11, 0x00, 0x00, 0x14, 0x11, 0x00, 0x00, 0xc4, 0x0d, 0x00, 0x00,
  0x08, 0x0d, 0x00, 0x00, 0xac, 0x06, 0x00, 0x00, 0x8c, 0x13, 0x00, 0x00,
  0x88, 0x13, 0x00, 0x00, 0x84, 0x13, 0x00, 0x00, 0x80, 0x13, 0x00, 0x00,
  0x7c, 0x13, 0x00, 0x00, 0x78, 0x13, 0x00, 0x00, 0x74, 0x13, 0x00, 0x00,
  0x38, 0x00, 0x00, 0x00, 0x01, 0x00, 0x00, 0x00, 0x0c, 0x00, 0x00, 0x00,
  0x08, 0x00, 0x0c, 0x00, 0x04, 0x00, 0x08, 0x00, 0x08, 0x00, 0x00, 0x00,
  0x08, 0x00, 0x00, 0x00, 0x10, 0x00, 0x00, 0x00, 0x13, 0x00, 0x00, 0x00,
  0x6d, 0x69, 0x6e, 0x5f, 0x72, 0x75, 0x6e, 0x74, 0x69, 0x6d, 0x65, 0x5f,
  0x76, 0x65, 0x72, 0x73, 0x69, 0x6f, 0x6e, 0x00, 0xd2, 0xed, 0xff, 0xff,
  0x04, 0x00, 0x00, 0x00, 0x10, 0x00, 0x00, 0x00, 0x31, 0x2e, 0x35, 0x2e,
  0x30, 0x00, 0x00, 0x00, 0x00, 0x00, 0x00, 0x00, 0x00, 0x00, 0x00, 0x00,
  0x0f, 0x00, 0x00, 0x00, 0x4d, 0x4c, 0x49, 0x52, 0x20, 0x43, 0x6f, 0x6e,
  0x76, 0x65, 0x72, 0x74, 0x65, 0x64, 0x2e, 0x00, 0x00, 0x00, 0x0e, 0x00,
  0x18, 0x00, 0x04, 0x00, 0x08, 0x00, 0x0c, 0x00, 0x10, 0x00, 0x14, 0x00,
  0x0e, 0x00, 0x00, 0x00, 0x14, 0x00, 0x00, 0x00, 0x50, 0x00, 0x00, 0x00,
  0x54, 0x00, 0x00, 0x00, 0x58, 0x00, 0x00, 0x00, 0x74, 0x00, 0x00, 0x00,
  0x0f, 0x00, 0x00, 0x00, 0x80, 0x12, 0x00, 0x00, 0x10, 0x12, 0x00, 0x00,
  0x6c, 0x11, 0x00, 0x00, 0xc4, 0x10, 0x00, 0x00, 0x68, 0x10, 0x00, 0x00,
  0x00, 0x10, 0x00, 0x00, 0xa4, 0x0c, 0x00, 0x00, 0xe8, 0x0b, 0x00, 0x00,
  0x14, 0x05, 0x00, 0x00, 0x34, 0x04, 0x00, 0x00, 0xf8, 0x02, 0x00, 0x00,
  0x4c, 0x02, 0x00, 0x00, 0xa8, 0x01, 0x00, 0x00, 0x14, 0x01, 0x00, 0x00,
  0x7c, 0x00, 0x00, 0x00, 0x01, 0x00, 0x00, 0x00, 0x00, 0x00, 0x00, 0x00,
  0x01, 0x00, 0x00, 0x00, 0x0e, 0x00, 0x00, 0x00, 0x07, 0x00, 0x00, 0x00,
  0x84, 0x04, 0x00, 0x00, 0xa8, 0x03, 0x00, 0x00, 0x8c, 0x02, 0x00, 0x00,
  0xd0, 0x01, 0x00, 0x00, 0x48, 0x01, 0x00, 0x00, 0xa4, 0x00, 0x00, 0x00,
  0x10, 0x00, 0x00, 0x00, 0x04, 0x00, 0x00, 0x00, 0x6d, 0x61, 0x69, 0x6e,
  0x00, 0x00, 0x00, 0x00, 0x7e, 0xff, 0xff, 0xff, 0x00, 0x00, 0x00, 0x09,
  0x04, 0x00, 0x00, 0x00, 0x1c, 0x00, 0x00, 0x00, 0x10, 0x00, 0x00, 0x00,
  0x04, 0x00, 0x00, 0x00, 0xbe, 0xee, 0xff, 0xff, 0x00, 0x00, 0x80, 0x3f,
  0x01, 0x00, 0x00, 0x00, 0x0e, 0x00, 0x00, 0x00, 0x01, 0x00, 0x00, 0x00,
  0x0d, 0x00, 0x00, 0x00, 0x8a, 0xfb, 0xff, 0xff, 0x00, 0x00, 0x00, 0x19,
  0x01, 0x00, 0x00, 0x00, 0x48, 0xee, 0xff, 0xff, 0x14, 0x00, 0x00, 0x00,
  0x0f, 0x00, 0x00, 0x00, 0x18, 0x00, 0x00, 0x00, 0x30, 0x00, 0x00, 0x00,
  0x20, 0x00, 0x00, 0x00, 0x02, 0x00, 0x00, 0x00, 0x01, 0x00, 0x00, 0x00,
  0x02, 0x00, 0x00, 0x00, 0x08, 0x00, 0x00, 0x00, 0x49, 0x64, 0x65, 0x6e,
  0x74, 0x69, 0x74, 0x79, 0x00, 0x00, 0x00, 0x00, 0x02, 0x00, 0x00, 0x00,
  0xff, 0xff, 0xff, 0xff, 0x02, 0x00, 0x00, 0x00, 0x2c, 0xef, 0xff, 0xff,
  0x00, 0x00, 0x0e, 0x00, 0x18, 0x00, 0x08, 0x00, 0x0c, 0x00, 0x10, 0x00,
  0x07, 0x00, 0x14, 0x00, 0x0e, 0x00, 0x00, 0x00, 0x00, 0x00, 0x00, 0x08,
  0x03, 0x00, 0x00, 0x00, 0x18, 0x00, 0x00, 0x00, 0x0c, 0x00, 0x00, 0x00,
  0x04, 0x00, 0x00, 0x00, 0x48, 0xee, 0xff, 0xff, 0x01, 0x00, 0x00, 0x00,
  0x0d, 0x00, 0x00, 0x00, 0x03, 0x00, 0x00, 0x00, 0x0c, 0x00, 0x00, 0x00,
  0x05, 0x00, 0x00, 0x00, 0x03, 0x00, 0x00, 0x00, 0x1e, 0xfc, 0xff, 0xff,
  0x00, 0x00, 0x00, 0x09, 0x01, 0x00, 0x00, 0x00, 0xdc, 0xee, 0xff, 0xff,
  0x14, 0x00, 0x00, 0x00, 0x0e, 0x00, 0x00, 0x00, 0x18, 0x00, 0x00, 0x00,
  0x40, 0x00, 0x00, 0x00, 0x30, 0x00, 0x00, 0x00, 0x02, 0x00, 0x00, 0x00,
  0x01, 0x00, 0x00, 0x00, 0x02, 0x00, 0x00, 0x00, 0x18, 0x00, 0x00, 0x00,
  0x73, 0x65, 0x71, 0x75, 0x65, 0x6e, 0x74, 0x69, 0x61, 0x6c, 0x2f, 0x64,
  0x65, 0x6e, 0x73, 0x65, 0x2f, 0x42, 0x69, 0x61, 0x73, 0x41, 0x64, 0x64,
  0x00, 0x00, 0x00, 0x00, 0x02, 0x00, 0x00, 0x00, 0xff, 0xff, 0xff, 0xff,
  0x02, 0x00, 0x00, 0x00, 0xd0, 0xef, 0xff, 0xff, 0x00, 0x00, 0x0a, 0x00,
  0x10, 0x00, 0x04, 0x00, 0x08, 0x00, 0x0c, 0x00, 0x0a, 0x00, 0x00, 0x00,
  0x02, 0x00, 0x00, 0x00, 0x10, 0x00, 0x00, 0x00, 0x04, 0x00, 0x00, 0x00,
  0x01, 0x00, 0x00, 0x00, 0x0c, 0x00, 0x00, 0x00, 0x02, 0x00, 0x00, 0x00,
  0x0b, 0x00, 0x00, 0x00, 0x04, 0x00, 0x00, 0x00, 0xae, 0xfc, 0xff, 0xff,
  0x00, 0x00, 0x00, 0x16, 0x01, 0x00, 0x00, 0x00, 0x6c, 0xef, 0xff, 0xff,
  0x14, 0x00, 0x00, 0x00, 0x0d, 0x00, 0x00, 0x00, 0x18, 0x00, 0x00, 0x00,
  0x40, 0x00, 0x00, 0x00, 0x30, 0x00, 0x00, 0x00, 0x02, 0x00, 0x00, 0x00,
  0x01, 0x00, 0x00, 0x00, 0x60, 0x00, 0x00, 0x00, 0x1a, 0x00, 0x00, 0x00,
  0x73, 0x65, 0x71, 0x75, 0x65, 0x6e, 0x74, 0x69, 0x61, 0x6c, 0x2f, 0x66,
  0x6c, 0x61, 0x74, 0x74, 0x65, 0x6e, 0x2f, 0x52, 0x65, 0x73, 0x68, 0x61,
  0x70, 0x65, 0x00, 0x00, 0x02, 0x00, 0x00, 0x00, 0xff, 0xff, 0xff, 0xff,
  0x60, 0x00, 0x00, 0x00, 0x50, 0xef, 0xff, 0xff, 0x3e, 0xfe, 0xff, 0xff,
  0x00, 0x00, 0x00, 0x05, 0x01, 0x00, 0x00, 0x00, 0x38, 0x00, 0x00, 0x00,
  0x2c, 0x00, 0x00, 0x00, 0x14, 0x00, 0x00, 0x00, 0x00, 0x00, 0x0e, 0x00,
  0x14, 0x00, 0x00, 0x00, 0x10, 0x00, 0x0c, 0x00, 0x08, 0x00, 0x04, 0x00,
  0x0e, 0x00, 0x00, 0x00, 0x03, 0x00, 0x00, 0x00, 0x01, 0x00, 0x00, 0x00,
  0x03, 0x00, 0x00, 0x00, 0x01, 0x00, 0x00, 0x00, 0x01, 0x00, 0x00, 0x00,
  0x0b, 0x00, 0x00, 0x00, 0x01, 0x00, 0x00, 0x00, 0x0a, 0x00, 0x00, 0x00,
  0x0c, 0xf0, 0xff, 0xff, 0x14, 0x00, 0x00, 0x00, 0x0c, 0x00, 0x00, 0x00,
  0x20, 0x00, 0x00, 0x00, 0x58, 0x00, 0x00, 0x00, 0x40, 0x00, 0x00, 0x00,
  0x04, 0x00, 0x00, 0x00, 0x01, 0x00, 0x00, 0x00, 0x06, 0x00, 0x00, 0x00,
  0x01, 0x00, 0x00, 0x00, 0x10, 0x00, 0x00, 0x00, 0x22, 0x00, 0x00, 0x00,
  0x73, 0x65, 0x71, 0x75, 0x65, 0x6e, 0x74, 0x69, 0x61, 0x6c, 0x2f, 0x6d,
  0x61, 0x78, 0x5f, 0x70, 0x6f, 0x6f, 0x6c, 0x69, 0x6e, 0x67, 0x32, 0x64,
  0x5f, 0x31, 0x2f, 0x4d, 0x61, 0x78, 0x50, 0x6f, 0x6f, 0x6c, 0x00, 0x00,
  0x04, 0x00, 0x00, 0x00, 0xff, 0xff, 0xff, 0xff, 0x06, 0x00, 0x00, 0x00,
  0x01, 0x00, 0x00, 0x00, 0x10, 0x00, 0x00, 0x00, 0x08, 0xf0, 0xff, 0xff,
  0x1e, 0xfe, 0xff, 0xff, 0x00, 0x00, 0x00, 0x01, 0x24, 0x00, 0x00, 0x00,
  0x18, 0x00, 0x00, 0x00, 0x04, 0x00, 0x00, 0x00, 0x10, 0xfe, 0xff, 0xff,
  0x01, 0x00, 0x00, 0x00, 0x01, 0x00, 0x00, 0x00, 0x00, 0x00, 0x00, 0x01,
  0x01, 0x00, 0x00, 0x00, 0x0a, 0x00, 0x00, 0x00, 0x03, 0x00, 0x00, 0x00,
  0x09, 0x00, 0x00, 0x00, 0x07, 0x00, 0x00, 0x00, 0x02, 0x00, 0x00, 0x00,
  0xb4, 0xf0, 0xff, 0xff, 0x14, 0x00, 0x00, 0x00, 0x0b, 0x00, 0x00, 0x00,
  0x20, 0x00, 0x00, 0x00, 0xb8, 0x00, 0x00, 0x00, 0xa0, 0x00, 0x00, 0x00,
  0x04, 0x00, 0x00, 0x00, 0x01, 0x00, 0x00, 0x00, 0x10, 0x00, 0x00, 0x00,
  0x01, 0x00, 0x00, 0x00, 0x10, 0x00, 0x00, 0x00, 0x83, 0x00, 0x00, 0x00,
  0x73, 0x65, 0x71, 0x75, 0x65, 0x6e, 0x74, 0x69, 0x61, 0x6c, 0x2f, 0x63,
  0x6f, 0x6e, 0x76, 0x32, 0x64, 0x5f, 0x31, 0x2f, 0x52, 0x65, 0x6c, 0x75,
  0x3b, 0x73, 0x65, 0x71, 0x75, 0x65, 0x6e, 0x74, 0x69, 0x61, 0x6c, 0x2f,
  0x63, 0x6f, 0x6e, 0x76, 0x32, 0x64, 0x5f, 0x31, 0x2f, 0x42, 0x69, 0x61,
  0x73, 0x41, 0x64, 0x64, 0x3b, 0x73, 0x65, 0x71, 0x75, 0x65, 0x6e, 0x74,
  0x69, 0x61, 0x6c, 0x2f, 0x63, 0x6f, 0x6e, 0x76, 0x32, 0x64, 0x5f, 0x31,
  0x2f, 0x43, 0x6f, 0x6e, 0x76, 0x32, 0x44, 0x3b, 0x73, 0x65, 0x71, 0x75,
  0x65, 0x6e, 0x74, 0x69, 0x61, 0x6c, 0x2f, 0x63, 0x6f, 0x6e, 0x76, 0x32,
  0x64, 0x5f, 0x31, 0x2f, 0x42, 0x69, 0x61, 0x73, 0x41, 0x64, 0x64, 0x2f,
  0x52, 0x65, 0x61, 0x64, 0x56, 0x61, 0x72, 0x69, 0x61, 0x62, 0x6c, 0x65,
  0x4f, 0x70, 0x2f, 0x72, 0x65, 0x73, 0x6f, 0x75, 0x72, 0x63, 0x65, 0x00,
  0x04, 0x00, 0x00, 0x00, 0xff, 0xff, 0xff, 0xff, 0x10, 0x00, 0x00, 0x00,
  0x01, 0x00, 0x00, 0x00, 0x10, 0x00, 0x00, 0x00, 0x20, 0xf2, 0xff, 0xff,
  0x00, 0x00, 0x0e, 0x00, 0x1a, 0x00, 0x08, 0x00, 0x0c, 0x00, 0x10, 0x00,
  0x07, 0x00, 0x14, 0x00, 0x0e, 0x00, 0x00, 0x00, 0x00, 0x00, 0x00, 0x05,
  0x01, 0x00, 0x00, 0x00, 0x3c, 0x00, 0x00, 0x00, 0x30, 0x00, 0x00, 0x00,
  0x14, 0x00, 0x00, 0x00, 0x00, 0x00, 0x0e, 0x00, 0x18, 0x00, 0x17, 0x00,
  0x10, 0x00, 0x0c, 0x00, 0x08, 0x00, 0x04, 0x00, 0x0e, 0x00, 0x00, 0x00,
  0x03, 0x00, 0x00, 0x00, 0x03, 0x00, 0x00, 0x00, 0x03, 0x00, 0x00, 0x00,
  0x03, 0x00, 0x00, 0x00, 0x00, 0x00, 0x00, 0x01, 0x01, 0x00, 0x00, 0x00,
  0x09, 0x00, 0x00, 0x00, 0x01, 0x00, 0x00, 0x00, 0x08, 0x00, 0x00, 0x00,
  0x2e, 0xff, 0xff, 0xff, 0x00, 0x00, 0x00, 0x11, 0x01, 0x00, 0x00, 0x00,
  0xec, 0xf1, 0xff, 0xff, 0x14, 0x00, 0x00, 0x00, 0x0a, 0x00, 0x00, 0x00,
  0x20, 0x00, 0x00, 0x00, 0x58, 0x00, 0x00, 0x00, 0x40, 0x00, 0x00, 0x00,
  0x04, 0x00, 0x00, 0x00, 0x01, 0x00, 0x00, 0x00, 0x10, 0x00, 0x00, 0x00,
  0x01, 0x00, 0x00, 0x00, 0x08, 0x00, 0x00, 0x00, 0x20, 0x00, 0x00, 0x00,
  0x73, 0x65, 0x71, 0x75, 0x65, 0x6e, 0x74, 0x69, 0x61, 0x6c, 0x2f, 0x6d,
  0x61, 0x78, 0x5f, 0x70, 0x6f, 0x6f, 0x6c, 0x69, 0x6e, 0x67, 0x32, 0x64,
  0x2f, 0x4d, 0x61, 0x78, 0x50, 0x6f, 0x6f, 0x6c, 0x00, 0x00, 0x00, 0x00,
  0x04, 0x00, 0x00, 0x00, 0xff, 0xff, 0xff, 0xff, 0x10, 0x00, 0x00, 0x00,
  0x01, 0x00, 0x00, 0x00, 0x08, 0x00, 0x00, 0x00, 0xf8, 0xf2, 0xff, 0xff,
  0x00, 0x00, 0x0e, 0x00, 0x14, 0x00, 0x00, 0x00, 0x08, 0x00, 0x0c, 0x00,
  0x07, 0x00, 0x10, 0x00, 0x0e, 0x00, 0x00, 0x00, 0x00, 0x00, 0x00, 0x01,
  0x30, 0x00, 0x00, 0x00, 0x24, 0x00, 0x00, 0x00, 0x10, 0x00, 0x00, 0x00,
  0x0c, 0x00, 0x10, 0x00, 0x00, 0x00, 0x04, 0x00, 0x08, 0x00, 0x0f, 0x00,
  0x0c, 0x00, 0x00, 0x00, 0x01, 0x00, 0x00, 0x00, 0x01, 0x00, 0x00, 0x00,
  0x00, 0x00, 0x00, 0x01, 0x01, 0x00, 0x00, 0x00, 0x08, 0x00, 0x00, 0x00,
  0x03, 0x00, 0x00, 0x00, 0x00, 0x00, 0x00, 0x00, 0x06, 0x00, 0x00, 0x00,
  0x01, 0x00, 0x00, 0x00, 0x00, 0x00, 0x0a, 0x00, 0x0c, 0x00, 0x07, 0x00,
  0x00, 0x00, 0x08, 0x00, 0x0a, 0x00, 0x00, 0x00, 0x00, 0x00, 0x00, 0x03,
  0x01, 0x00, 0x00, 0x00, 0xc8, 0xf2, 0xff, 0xff, 0x14, 0x00, 0x00, 0x00,
  0x09, 0x00, 0x00, 0x00, 0x20, 0x00, 0x00, 0x00, 0xb0, 0x00, 0x00, 0x00,
  0x98, 0x00, 0x00, 0x00, 0x04, 0x00, 0x00, 0x00, 0x01, 0x00, 0x00, 0x00,
  0x32, 0x00, 0x00, 0x00, 0x03, 0x00, 0x00, 0x00, 0x08, 0x00, 0x00, 0x00,
  0x7b, 0x00, 0x00, 0x00, 0x73, 0x65, 0x71, 0x75, 0x65, 0x6e, 0x74, 0x69,
  0x61, 0x6c, 0x2f, 0x63, 0x6f, 0x6e, 0x76, 0x32, 0x64, 0x2f, 0x52, 0x65,
  0x6c, 0x75, 0x3b, 0x73, 0x65, 0x71, 0x75, 0x65, 0x6e, 0x74, 0x69, 0x61,
  0x6c, 0x2f, 0x63, 0x6f, 0x6e, 0x76, 0x32, 0x64, 0x2f, 0x42, 0x69, 0x61,
  0x73, 0x41, 0x64, 0x64, 0x3b, 0x73, 0x65, 0x71, 0x75, 0x65, 0x6e, 0x74,
  0x69, 0x61, 0x6c, 0x2f, 0x63, 0x6f, 0x6e, 0x76, 0x32, 0x64, 0x2f, 0x43,
  0x6f, 0x6e, 0x76, 0x32, 0x44, 0x3b, 0x73, 0x65, 0x71, 0x75, 0x65, 0x6e,
  0x74, 0x69, 0x61, 0x6c, 0x2f, 0x63, 0x6f, 0x6e, 0x76, 0x32, 0x64, 0x2f,
  0x42, 0x69, 0x61, 0x73, 0x41, 0x64, 0x64, 0x2f, 0x52, 0x65, 0x61, 0x64,
  0x56, 0x61, 0x72, 0x69, 0x61, 0x62, 0x6c, 0x65, 0x4f, 0x70, 0x2f, 0x72,
  0x65, 0x73, 0x6f, 0x75, 0x72, 0x63, 0x65, 0x00, 0x04, 0x00, 0x00, 0x00,
  0xff, 0xff, 0xff, 0xff, 0x32, 0x00, 0x00, 0x00, 0x03, 0x00, 0x00, 0x00,
  0x08, 0x00, 0x00, 0x00, 0x1c, 0xf3, 0xff, 0xff, 0x26, 0xf4, 0xff, 0xff,
  0x04, 0x00, 0x00, 0x00, 0x00, 0x06, 0x00, 0x00, 0xb4, 0x80, 0xec, 0x3d,
  0x20, 0x9c, 0x38, 0x3c, 0xed, 0x4b, 0x69, 0xbe, 0x40, 0xdb, 0x11, 0xbc,
  0x00, 0x31, 0x2f, 0xbe, 0x68, 0x43, 0x71, 0x3d, 0xe0, 0xb9, 0x08, 0xbd,
  0x8c, 0xba, 0xcd, 0x3d, 0x00, 0x35, 0xca, 0x3d, 0xaf, 0xac, 0xb4, 0x3f,
  0x0b, 0x45, 0x16, 0xc0, 0x66, 0xb0, 0x60, 0x3f, 0x0d, 0xe3, 0xf0, 0x3e,
  0xc3, 0x15, 0x72, 0xc0, 0x91, 0xed, 0xb8, 0x3f, 0x59, 0xb2, 0xa2, 0xbd,
  0xd0, 0x5b, 0x6d, 0x3e, 0xcc, 0x55, 0x80, 0x3e, 0x08, 0x67, 0x0c, 0x3e,
  0xe0, 0xf4, 0xb7, 0x3d, 0xc8, 0xbc, 0x56, 0x3d, 0xf0, 0xd6, 0x2f, 0xbe,
  0xa2, 0x86, 0x69, 0xbe, 0xa8, 0x88, 0xaf, 0x3d, 0xfe, 0x9f, 0x0f, 0x3e,
  0xc0, 0xce, 0xc0, 0x3b, 0x6f, 0x9c, 0x07, 0xbe, 0x8c, 0x84, 0xa6, 0x3d,
  0x00, 0x10, 0x99, 0x3a, 0x98, 0x90, 0x36, 0xbe, 0xc4, 0x42, 0x43, 0x3e,
  0x80, 0xa5, 0xdc, 0x3d, 0x72, 0x7e, 0x93, 0xbe, 0xa2, 0xbc, 0xfd, 0xbe,
  0x4a, 0x4e, 0xd0, 0x3f, 0x3f, 0x23, 0x10, 0xbf, 0xf9, 0x74, 0xd4, 0x3e,
  0x21, 0xa3, 0xb5, 0x40, 0xa3, 0x92, 0x0c, 0x3e, 0x68, 0x06, 0x3b, 0xbc,
  0x8d, 0x8f, 0x0b, 0xbe, 0xfa, 0x50, 0x1c, 0xbe, 0x0c, 0xb1, 0x7c, 0xbe,
  0xdf, 0xe8, 0x7c, 0xbe, 0x0d, 0x96, 0x28, 0xbe, 0x46, 0x91, 0x31, 0xbe,
  0xd0, 0xa2, 0x33, 0xbd, 0x00, 0xdc, 0x63, 0x3d, 0x94, 0x29, 0x74, 0x3e,
  0x5a, 0xe6, 0xd7, 0xbd, 0xca, 0xe2, 0x18, 0x3e, 0xc5, 0x4d, 0x3d, 0xbe,
  0x18, 0xb6, 0x2a, 0x3d, 0xbc, 0x0d, 0x7b, 0x3e, 0x39, 0x54, 0x82, 0xbe,
  0xc0, 0x72, 0xf2, 0xbc, 0x64, 0xb5, 0x88, 0x3e, 0x92, 0x3f, 0xf9, 0xbe,
  0xf1, 0x95, 0x3c, 0x40, 0x85, 0xdc, 0x5e, 0xbe, 0x99, 0x82, 0x80, 0x3f,
  0x14, 0x5d, 0x34, 0xbe, 0x68, 0xb4, 0x81, 0x3f, 0xab, 0xaa, 0x38, 0xbe,
  0x60, 0xff, 0xe3, 0xbc, 0x92, 0xdf, 0xa9, 0xbd, 0xfc, 0xe0, 0xc4, 0x3d,
  0x34, 0x4f, 0xdd, 0xbd, 0x02, 0xc6, 0x2a, 0x3e, 0xd0, 0xa0, 0x62, 0x3e,
  0x60, 0x4b, 0x2b, 0xbe, 0x14, 0x6e, 0x52, 0xbe, 0x60, 0x91, 0x20, 0xbc,
  0x60, 0xd9, 0x79, 0x3e, 0xf4, 0xca, 0x93, 0x3d, 0x5f, 0xca, 0x25, 0xbe,
  0x10, 0xf4, 0x0f, 0x3d, 0x88, 0x64, 0x7d, 0xbe, 0x09, 0x49, 0x8d, 0xbe,
  0xa0, 0xae, 0xd4, 0x3d, 0xb0, 0x42, 0xa0, 0x3d, 0xe7, 0xcc, 0x08, 0x40,
  0xbc, 0x1b, 0x2d, 0x40, 0xe2, 0x00, 0x34, 0xbd, 0x1f, 0x65, 0xda, 0x3d,
  0x54, 0x83, 0xa9, 0xbf, 0xb1, 0xc9, 0xb3, 0x3e, 0x17, 0x7d, 0x93, 0xbc,
  0x2a, 0xd7, 0x83, 0xbe, 0x28, 0xb0, 0xab, 0x3d, 0x3e, 0x5c, 0x09, 0x3e,
  0xa6, 0x99, 0x37, 0x3e, 0x7c, 0x0f, 0xb5, 0xbd, 0x70, 0x28, 0x2e, 0x3d,
  0x10, 0xde, 0xb9, 0x3c, 0x70, 0x53, 0x8b, 0x3d, 0x04, 0x79, 0x87, 0x3e,
  0x14, 0x72, 0xa4, 0x3d, 0xbc, 0x7b, 0xe7, 0xbd, 0xdc, 0xe8, 0xc3, 0x3d,
  0xc0, 0x5b, 0x1f, 0x3e, 0x72, 0xe7, 0x8e, 0x3e, 0x5c, 0x5a, 0xbf, 0x3d,
  0x86, 0xd0, 0x54, 0xbe, 0x08, 0x4c, 0xc4, 0x3d, 0x84, 0xfa, 0x65, 0xbe,
  0x40, 0x4f, 0xeb, 0xbc, 0x90, 0x8a, 0x9a, 0xbc, 0xf9, 0xbb, 0xde, 0xbd,
  0x9d, 0x88, 0x17, 0xbe, 0x57, 0xa8, 0x23, 0xbd, 0x10, 0x4a, 0x7d, 0xbe,
  0x98, 0x5d, 0x3a, 0x3e, 0xaa, 0x91, 0x0c, 0x3e, 0x20, 0xa2, 0x71, 0x3c,
  0xde, 0x1b, 0x3c, 0xbe, 0x88, 0xf6, 0x43, 0x3d, 0xdc, 0x7c, 0x6d, 0xbd,
  0x20, 0xe9, 0x1b, 0x3c, 0x64, 0x44, 0x3f, 0x3e, 0x46, 0xb1, 0x06, 0x3e,
  0x30, 0x7a, 0x71, 0x3e, 0x80, 0x25, 0x2c, 0x3d, 0x0c, 0xfc, 0x7d, 0x3e,
  0x34, 0x6f, 0x88, 0x3d, 0xd8, 0x4f, 0x31, 0x3d, 0x48, 0x47, 0x2b, 0x3e,
  0x60, 0x64, 0xaa, 0x3c, 0x9e, 0x62, 0x96, 0xbd, 0x6e, 0xb8, 0xbe, 0xbf,
  0x34, 0x90, 0x83, 0x3f, 0x3f, 0x4d, 0x11, 0x3f, 0x09, 0x3a, 0x9c, 0x3c,
  0x0a, 0x6d, 0x8e, 0x40, 0xbd, 0xa8, 0x19, 0x3f, 0x6a, 0xd5, 0x30, 0xbe,
  0xd5, 0x68, 0x6c, 0xbe, 0x22, 0xe0, 0x2a, 0x3e, 0x1c, 0xee, 0x88, 0xbe,
  0x44, 0x63, 0x94, 0xbd, 0x90, 0x25, 0x7b, 0xbe, 0xc6, 0x3a, 0x3e, 0x3e,
  0x66, 0x0a, 0x90, 0x3e, 0x60, 0x3d, 0x2c, 0x3c, 0x02, 0x01, 0x00, 0x3e,
  0x48, 0xb0, 0x28, 0x3e, 0x24, 0x7b, 0x92, 0x3e, 0xf6, 0x21, 0x0a, 0x3e,
  0x4c, 0x34, 0x45, 0xbd, 0x08, 0xe8, 0x6a, 0x3e, 0x68, 0x00, 0x5f, 0x3e,
  0xed, 0x23, 0x1f, 0xbe, 0x1a, 0x52, 0x26, 0xbe, 0x08, 0x2a, 0x33, 0xbe,
  0xe4, 0x79, 0xa6, 0x3c, 0x40, 0x02, 0xe9, 0xbd, 0xe5, 0x18, 0xc7, 0xbd,
  0x31, 0x05, 0x9b, 0xbc, 0x5c, 0x3c, 0x4b, 0xbe, 0x76, 0xf1, 0x37, 0x3e,
  0x68, 0x46, 0x59, 0x3e, 0x0c, 0xbe, 0xc2, 0x3d, 0x58, 0xcb, 0xc1, 0x3d,
  0x5b, 0x32, 0x7b, 0xbe, 0x60, 0xfa, 0x53, 0xbe, 0xd4, 0xe9, 0x50, 0xbe,
  0x20, 0xfc, 0xe5, 0xbd, 0x6f, 0x0e, 0x80, 0xbe, 0x21, 0x31, 0x01, 0xbe,
  0x8a, 0x21, 0x31, 0x3e, 0x80, 0x50, 0x61, 0xbc, 0x6a, 0x58, 0x3d, 0xbe,
  0x21, 0x3c, 0x0f, 0xbe, 0x98, 0x6e, 0x5d, 0xbe, 0x94, 0xd5, 0xf6, 0x3d,
  0x1c, 0xf4, 0x6b, 0x3e, 0xf4, 0xa0, 0x16, 0x3e, 0xeb, 0x83, 0xf2, 0xbc,
  0x55, 0x4e, 0x58, 0x40, 0xb6, 0x55, 0xde, 0x3b, 0x56, 0x5c, 0x13, 0x3f,
  0x78, 0x30, 0x1e, 0x3f, 0x6c, 0xda, 0x57, 0x3f, 0xfe, 0x61, 0x7e, 0xbc,
  0xd8, 0x7e, 0x36, 0x3e, 0x53, 0x25, 0x29, 0xbe, 0x70, 0x44, 0xc5, 0x3d,
  0x2f, 0x36, 0x8f, 0xbe, 0xc8, 0xa3, 0x19, 0xbd, 0x00, 0x0d, 0x7e, 0x3d,
  0x6e, 0x18, 0x31, 0xbe, 0xb8, 0x1e, 0xda, 0xbd, 0x10, 0x5f, 0x08, 0xbd,
  0xd2, 0x13, 0x22, 0x3e, 0x66, 0x85, 0x78, 0xbe, 0x94, 0x1e, 0x30, 0xbd,
  0x42, 0x4b, 0x8f, 0xbe, 0x74, 0xcd, 0xb6, 0x3d, 0x50, 0x0f, 0xe6, 0x3d,
  0x15, 0x0c, 0x41, 0xbe, 0xb0, 0xe0, 0x6c, 0x3e, 0xcb, 0xa5, 0xfe, 0xbd,
  0x77, 0xc7, 0x51, 0xbe, 0xa1, 0x2d, 0x82, 0x3d, 0x33, 0x9a, 0x70, 0xbe,
  0x8b, 0x19, 0x50, 0xbe, 0xc8, 0x39, 0x6b, 0xbe, 0x3a, 0x77, 0x82, 0xbe,
  0x88, 0xe2, 0x05, 0xbd, 0x84, 0x0b, 0x34, 0x3e, 0x48, 0xb2, 0x50, 0x3e,
  0xd4, 0x7e, 0xea, 0x3d, 0x70, 0xb4, 0x44, 0x3e, 0xba, 0xfa, 0x5a, 0xbe,
  0xc0, 0x2f, 0x5b, 0x3e, 0xa8, 0xe7, 0x6d, 0x3d, 0xec, 0x22, 0x72, 0xbd,
  0x8e, 0x82, 0xe9, 0xbd, 0x90, 0xc6, 0xb5, 0x3c, 0x86, 0xa8, 0xa6, 0xbd,
  0x5c, 0x48, 0x58, 0xbe, 0xe8, 0x2e, 0x73, 0x3e, 0x76, 0x56, 0xb7, 0xbd,
  0xb4, 0xe4, 0xb5, 0xbd, 0xd5, 0x67, 0x31, 0xbe, 0xa4, 0xab, 0xa4, 0xbc,
  0x3a, 0xc9, 0x80, 0x3f, 0x5e, 0x51, 0x00, 0xbf, 0x9d, 0xdb, 0xed, 0x3f,
  0x63, 0x50, 0x24, 0xbf, 0x19, 0x78, 0xfd, 0x3e, 0x4c, 0xd7, 0x67, 0xbe,
  0xcc, 0xdd, 0x6c, 0xbe, 0x7c, 0x33, 0xc4, 0x3d, 0x26, 0xa6, 0x63, 0xbe,
  0xe8, 0x47, 0xec, 0x3d, 0x3e, 0x97, 0x13, 0x3e, 0xce, 0x07, 0x8f, 0x3e,
  0x54, 0xbe, 0x60, 0x3e, 0x18, 0xc4, 0x72, 0xbe, 0x2c, 0xab, 0xfd, 0x3d,
  0x58, 0x13, 0x69, 0x3d, 0x72, 0x03, 0x2c, 0xbe, 0x40, 0xff, 0x8c, 0xbb,
  0x90, 0x38, 0x06, 0x3d, 0x60, 0xe2, 0x8a, 0xbc, 0x76, 0xe7, 0xb0, 0xbd,
  0x62, 0x82, 0x0f, 0xbe, 0x10, 0xfa, 0x60, 0x3e, 0x9c, 0x62, 0xa0, 0xbf,
  0x03, 0xff, 0x13, 0x3f, 0x8f, 0x72, 0x1f, 0xc0, 0x99, 0x3a, 0xfd, 0x3e,
  0x63, 0xbf, 0x8e, 0x3e, 0xd1, 0x14, 0x0b, 0x40, 0xa7, 0x8f, 0xa7, 0xbd,
  0x20, 0x08, 0x6f, 0xbd, 0xfe, 0x82, 0x92, 0xbe, 0xf8, 0x48, 0x4f, 0xbe,
  0xc4, 0x6b, 0x43, 0xbd, 0x30, 0x9b, 0x36, 0x3e, 0xf8, 0x8d, 0x14, 0x3e,
  0x5d, 0x45, 0x80, 0xbe, 0x78, 0xca, 0x76, 0x3e, 0xcc, 0x3f, 0x96, 0xbd,
  0x04, 0x78, 0x58, 0x3e, 0x81, 0x2f, 0x16, 0xbe, 0xea, 0x95, 0x69, 0xbe,
  0xfe, 0xe4, 0xfe, 0xbd, 0x86, 0x7b, 0x88, 0xbe, 0xd4, 0xd4, 0x18, 0x3e,
  0x94, 0x6c, 0x60, 0xbe, 0x64, 0x76, 0x61, 0xbe, 0x8e, 0xa5, 0x64, 0xc0,
  0x62, 0x10, 0x07, 0xc0, 0x34, 0x33, 0xc3, 0x3f, 0xe4, 0xa2, 0xf4, 0xbf,
  0x4a, 0x78, 0x49, 0x3f, 0x51, 0xff, 0x92, 0xbd, 0x17, 0x10, 0x41, 0xbd,
  0x42, 0xa2, 0x92, 0x3e, 0x70, 0xc5, 0xa3, 0x3d, 0x3e, 0x55, 0x56, 0x3e,
  0xfc, 0x1a, 0x84, 0x3e, 0xc8, 0x75, 0x01, 0xbe, 0xc0, 0x5d, 0xe3, 0x3d,
  0xc2, 0x29, 0x6d, 0xbe, 0x50, 0xa2, 0x01, 0x3d, 0x7c, 0x4e, 0x5e, 0x3e,
  0xb4, 0x54, 0x6c, 0x3e, 0x5c, 0xdd, 0xb0, 0x3d, 0x10, 0x4f, 0x90, 0x3c,
  0x58, 0xf0, 0x4f, 0x3d, 0xb2, 0xdb, 0x14, 0x3e, 0x90, 0xa7, 0x22, 0x3e,
  0xd3, 0x60, 0x71, 0xbe, 0xd2, 0x86, 0x83, 0x3e, 0xcb, 0x4c, 0x97, 0x3f,
  0x2f, 0xc2, 0x99, 0xbf, 0x48, 0x20, 0x19, 0x40, 0x5d, 0xa6, 0xd7, 0x3e,
  0xad, 0xbf, 0x57, 0xc0, 0xf8, 0xf1, 0x22, 0x3f, 0xcd, 0xc0, 0x9b, 0xbd,
  0x10, 0x8e, 0x7b, 0xbe, 0x30, 0x71, 0x43, 0x3d, 0xd0, 0x63, 0x79, 0x3e,
  0x3a, 0xf5, 0x47, 0xbe, 0xd2, 0xde, 0x15, 0x3e, 0xc4, 0x52, 0x53, 0xbe,
  0xd8, 0x0b, 0xbd, 0x3d, 0xe0, 0x5b, 0x69, 0x3c, 0x46, 0xd8, 0x1a, 0xbe,
  0xbc, 0xc0, 0x9c, 0x3d, 0x15, 0x51, 0x4b, 0xbe, 0x00, 0xa0, 0x60, 0x38,
  0xbc, 0x47, 0xb1, 0x3d, 0x46, 0xf6, 0x4a, 0xbe, 0x10, 0x7f, 0xd3, 0xbc,
  0x30, 0xcd, 0x8d, 0xbc, 0x30, 0xe5, 0x88, 0x3e, 0x47, 0x3d, 0x47, 0xbd,
  0xcb, 0x54, 0x54, 0xbe, 0x80, 0xa5, 0x13, 0xbd, 0x50, 0xe7, 0x30, 0xbe,
  0x8c, 0xb7, 0x62, 0xbe, 0xaa, 0x4a, 0x8a, 0x3d, 0x6c, 0x8c, 0x27, 0xbe,
  0xa8, 0xb7, 0x7e, 0x3d, 0x28, 0x28, 0x8d, 0xbe, 0x2e, 0x48, 0x27, 0x3e,
  0x40, 0x9c, 0xe4, 0xbc, 0xa4, 0x46, 0xcd, 0x3d, 0x3a, 0x76, 0x86, 0x3e,
  0xb0, 0x9e, 0x93, 0xbe, 0x0f, 0xd2, 0x73, 0xbe, 0x88, 0x59, 0x0b, 0x3d,
  0x0c, 0x58, 0xaf, 0xbd, 0x14, 0x07, 0x51, 0xbe, 0x8c, 0x70, 0x2c, 0x3e,
  0x40, 0x13, 0x5b, 0xbc, 0x82, 0x01, 0x27, 0xbe, 0x5a, 0x35, 0x32, 0xbe,
  0xd0, 0x24, 0xb8, 0x3c, 0x00, 0xee, 0x31, 0xba, 0x8f, 0x91, 0x85, 0xbe,
  0xc3, 0x42, 0x00, 0x3e, 0x41, 0x61, 0xbd, 0xbd, 0x5b, 0xaf, 0x86, 0xbe,
  0x90, 0xea, 0x2c, 0xbe, 0x95, 0x46, 0xdd, 0xbc, 0x06, 0x96, 0x4a, 0xbe,
  0x40, 0xee, 0xba, 0x3d, 0x12, 0x00, 0x4d, 0x3e, 0x8f, 0xb4, 0x24, 0xbe,
  0x14, 0x0f, 0x90, 0x3d, 0x54, 0x35, 0x75, 0x3e, 0x5c, 0x32, 0x8c, 0x3e,
  0xba, 0x74, 0x90, 0xbd, 0x96, 0xa4, 0x84, 0x3e, 0xc1, 0x2f, 0x76, 0xbe,
  0xbc, 0xe2, 0xbd, 0x3d, 0xa4, 0xc6, 0x78, 0xbd, 0xe6, 0xe8, 0x8a, 0x3e,
  0xbe, 0xe9, 0xf0, 0xbd, 0xc4, 0xb8, 0x29, 0x3e, 0x58, 0x23, 0x64, 0x3e,
  0x30, 0xfb, 0x14, 0xbd, 0x7e, 0xdd, 0x35, 0x3e, 0x61, 0x3c, 0x88, 0xc0,
  0x55, 0x68, 0x6d, 0xc0, 0xfd, 0xcb, 0xbb, 0x3f, 0xfe, 0x75, 0x89, 0xc0,
  0xff, 0x73, 0xf6, 0xbf, 0x04, 0x79, 0x02, 0x3e, 0x1b, 0xf5, 0xfa, 0x3d,
  0x58, 0x49, 0x6d, 0x3d, 0x6c, 0xe6, 0x51, 0xbd, 0x87, 0x01, 0x74, 0xbe,
  0xc0, 0x34, 0x23, 0x3d, 0xa8, 0x4d, 0x12, 0x3d, 0x8c, 0xaf, 0xdd, 0x3d,
  0x40, 0xf5, 0x9c, 0xbc, 0x00, 0x31, 0xd1, 0x3c, 0xfe, 0xf9, 0xff, 0xff,
  0x10, 0x00, 0x00, 0x00, 0x08, 0x00, 0x00, 0x00, 0x1c, 0x00, 0x00, 0x00,
  0x38, 0x00, 0x00, 0x00, 0x04, 0x00, 0x00, 0x00, 0x10, 0x00, 0x00, 0x00,
  0x01, 0x00, 0x00, 0x00, 0x03, 0x00, 0x00, 0x00, 0x08, 0x00, 0x00, 0x00,
  0x1a, 0x00, 0x00, 0x00, 0x73, 0x65, 0x71, 0x75, 0x65, 0x6e, 0x74, 0x69,
  0x61, 0x6c, 0x2f, 0x63, 0x6f, 0x6e, 0x76, 0x32, 0x64, 0x5f, 0x31, 0x2f,
  0x43, 0x6f, 0x6e, 0x76, 0x32, 0x44, 0x00, 0x00, 0x74, 0xf9, 0xff, 0xff,
  0x7e, 0xfa, 0xff, 0xff, 0x04, 0x00, 0x00, 0x00, 0x60, 0x00, 0x00, 0x00,
  0x60, 0x06, 0x56, 0xbc, 0x88, 0x3d, 0x1f, 0xbd, 0xd8, 0x52, 0x53, 0xbd,
  0x3f, 0xe8, 0xcb, 0xbe, 0xb3, 0x1b, 0xc4, 0xbf, 0x41, 0x69, 0xbe, 0x3e,
  0x2f, 0xc2, 0x2a, 0x3f, 0x72, 0xcc, 0x33, 0x3f, 0x1c, 0x09, 0x59, 0xc0,
  0xde, 0x3f, 0x33, 0x3f, 0xa6, 0xc5, 0x91, 0xbf, 0xb9, 0x6c, 0x4a, 0xbf,
  0x49, 0x7f, 0x9e, 0x3e, 0x7d, 0xd4, 0x90, 0xbf, 0xca, 0xda, 0x2b, 0x3f,
  0x4f, 0x69, 0xf6, 0xbe, 0x85, 0x1f, 0x10, 0x3f, 0x96, 0x08, 0x5d, 0x3f,
  0x3d, 0x5a, 0x2a, 0xbf, 0xed, 0x58, 0x55, 0xbf, 0xa2, 0xc9, 0x4e, 0x3f,
  0x86, 0x3c, 0x1b, 0x3e, 0x6b, 0x23, 0x22, 0x3d, 0xb3, 0xa4, 0x8d, 0x3d,
  0xb6, 0xfa, 0xff, 0xff, 0x10, 0x00, 0x00, 0x00, 0x07, 0x00, 0x00, 0x00,
  0x1c, 0x00, 0x00, 0x00, 0x38, 0x00, 0x00, 0x00, 0x04, 0x00, 0x00, 0x00,
  0x08, 0x00, 0x00, 0x00, 0x01, 0x00, 0x00, 0x00, 0x03, 0x00, 0x00, 0x00,
  0x01, 0x00, 0x00, 0x00, 0x18, 0x00, 0x00, 0x00, 0x73, 0x65, 0x71, 0x75,
  0x65, 0x6e, 0x74, 0x69, 0x61, 0x6c, 0x2f, 0x63, 0x6f, 0x6e, 0x76, 0x32,
  0x64, 0x2f, 0x43, 0x6f, 0x6e, 0x76, 0x32, 0x44, 0x00, 0x00, 0x00, 0x00,
  0x2c, 0xfa, 0xff, 0xff, 0x36, 0xfb, 0xff, 0xff, 0x04, 0x00, 0x00, 0x00,
  0x00, 0x03, 0x00, 0x00, 0xac, 0x1b, 0x45, 0x3f, 0xf9, 0x47, 0x0e, 0xc0,
  0x0f, 0xc5, 0x07, 0xc0, 0x15, 0xfd, 0x51, 0xc0, 0x8f, 0xec, 0x22, 0x3e,
  0x96, 0x21, 0x94, 0xbf, 0x89, 0x8a, 0xf7, 0xbc, 0xb9, 0xed, 0x81, 0xc0,
  0x35, 0x46, 0xd5, 0x3d, 0xdc, 0x61, 0x85, 0xbe, 0xeb, 0xc4, 0x2d, 0xc0,
  0x65, 0x08, 0x20, 0xbf, 0xac, 0x7c, 0x24, 0x40, 0xd3, 0x93, 0x07, 0xbe,
  0x1c, 0xde, 0x2b, 0x3e, 0xaf, 0x7c, 0x22, 0x3f, 0xf0, 0x97, 0x07, 0x40,
  0x86, 0xe6, 0x01, 0xc0, 0x92, 0xba, 0x95, 0xbf, 0x58, 0xc0, 0x85, 0xbc,
  0x70, 0x7a, 0x42, 0x3e, 0x6d, 0xd3, 0xfc, 0xbf, 0x72, 0xf9, 0xaa, 0x3d,
  0x3f, 0x76, 0x2c, 0xbf, 0x28, 0x0d, 0x5d, 0xbd, 0x23, 0xda, 0x84, 0xbf,
  0xa5, 0x8a, 0x01, 0xc0, 0xe3, 0x1a, 0x60, 0xc0, 0x42, 0xef, 0x19, 0x40,
  0xae, 0x30, 0x7e, 0x3d, 0x5b, 0x6e, 0x34, 0xba, 0x7b, 0x82, 0x82, 0xc0,
  0xba, 0xa8, 0x18, 0x40, 0x36, 0xf7, 0xc7, 0xbd, 0x03, 0xaf, 0xff, 0x3d,
  0x21, 0xd2, 0x97, 0x3e, 0xd8, 0x82, 0x7d, 0xbd, 0xa0, 0x9f, 0x91, 0x3d,
  0x55, 0xe9, 0xab, 0xbd, 0x68, 0xbd, 0xd5, 0x3e, 0x6c, 0x7b, 0x83, 0x3e,
  0x45, 0xcf, 0xa8, 0xbf, 0x97, 0x32, 0xb3, 0x3f, 0x07, 0x5f, 0xcb, 0xbf,
  0x30, 0x8d, 0xd6, 0x3f, 0x34, 0xe2, 0xc6, 0xbd, 0x92, 0x9d, 0x8c, 0x3d,
  0x67, 0x63, 0x26, 0xc0, 0x2c, 0x89, 0x8f, 0x3e, 0x67, 0x27, 0x93, 0xbe,
  0x52, 0x18, 0x99, 0x3e, 0xb9, 0x3a, 0x83, 0x3e, 0x3b, 0xec, 0xb3, 0x3d,
  0xf9, 0xb4, 0x9e, 0xbe, 0xc9, 0xeb, 0x86, 0xbe, 0x35, 0x9a, 0x62, 0x3e,
  0x07, 0x0f, 0x2f, 0x3c, 0xc6, 0x1d, 0x0a, 0x3f, 0x75, 0x32, 0x63, 0x3f,
  0xcb, 0x14, 0xa0, 0xbf, 0x2a, 0x75, 0x79, 0xbe, 0x3c, 0x76, 0x01, 0xbd,
  0x5d, 0x30, 0x3a, 0x3e, 0xd7, 0x87, 0xe8, 0xbf, 0x23, 0xe8, 0x09, 0x3f,
  0x68, 0x30, 0x0a, 0xbe, 0x46, 0x04, 0x24, 0x3f, 0x59, 0x28, 0x90, 0x3e,
  0x32, 0xdf, 0x51, 0x3e, 0xc5, 0x43, 0x05, 0xbe, 0x13, 0x84, 0xdc, 0x3d,
  0x17, 0xa1, 0x22, 0x3f, 0xe3, 0x86, 0xb7, 0x3c, 0x9a, 0xb8, 0x9e, 0x3f,
  0x4a, 0xae, 0xcd, 0x3e, 0x27, 0x1c, 0xd6, 0xbf, 0x9f, 0xa8, 0xb6, 0x3e,
  0x3e, 0xba, 0x04, 0x3d, 0x1d, 0xfe, 0xdf, 0xbd, 0x33, 0xe7, 0x6a, 0xc0,
  0x21, 0xbd, 0x2f, 0x40, 0x8f, 0x64, 0xb8, 0xbe, 0x06, 0x35, 0xa0, 0x3b,
  0x3b, 0x2a, 0xa5, 0x3f, 0xa8, 0xf3, 0x8d, 0xbd, 0x5b, 0x76, 0x0d, 0x3d,
  0xbb, 0xc2, 0x55, 0x3e, 0xbb, 0xeb, 0x9e, 0x3e, 0x32, 0x74, 0x24, 0xbe,
  0x29, 0x02, 0x26, 0x3f, 0xa7, 0xbc, 0x18, 0x3f, 0xf2, 0xf4, 0x76, 0xbf,
  0x43, 0x41, 0xe9, 0x3f, 0xcc, 0xa3, 0x50, 0xbc, 0xe8, 0x90, 0x42, 0xbe,
  0xf5, 0x3d, 0x5f, 0xc0, 0x3b, 0x9d, 0x19, 0xbf, 0x48, 0x4c, 0x1e, 0x40,
  0xb3, 0x59, 0xeb, 0x3f, 0x73, 0xca, 0x44, 0x40, 0x39, 0x38, 0x6a, 0x3e,
  0xe7, 0xab, 0xc1, 0x3f, 0x1e, 0xd1, 0xee, 0x3d, 0x2e, 0x02, 0x81, 0x40,
  0x16, 0xa9, 0xd0, 0x3d, 0xbc, 0x59, 0xcb, 0x3e, 0x2c, 0x13, 0x38, 0x40,
  0x12, 0xfa, 0xd3, 0x3e, 0xc9, 0x4c, 0x2b, 0xc0, 0x96, 0x33, 0x2f, 0xbe,
  0xb0, 0x12, 0x81, 0x3e, 0x39, 0x2f, 0xbe, 0xbe, 0x98, 0x1d, 0x0b, 0xc0,
  0xaa, 0xa9, 0x14, 0x40, 0xa2, 0xc6, 0x9b, 0x3f, 0x0a, 0x31, 0xab, 0x3c,
  0xfb, 0x6e, 0x20, 0x3e, 0x75, 0x97, 0x0f, 0x40, 0x6c, 0x55, 0xf9, 0xbc,
  0x68, 0x28, 0x30, 0x3f, 0x51, 0x3a, 0x03, 0xbd, 0xe7, 0x73, 0x93, 0x3f,
  0x3c, 0xc1, 0x07, 0x40, 0x2c, 0x8b, 0x6c, 0x40, 0x7f, 0x4d, 0x24, 0xc0,
  0xb7, 0xad, 0x59, 0xbe, 0x9b, 0x23, 0x56, 0xbe, 0x93, 0xbd, 0x74, 0x40,
  0x45, 0x21, 0x0d, 0xc0, 0x1d, 0xe7, 0x87, 0x3d, 0x10, 0x24, 0x97, 0xbe,
  0xc2, 0x31, 0x82, 0xbe, 0xc4, 0x0a, 0x2a, 0x3e, 0x82, 0xca, 0x6c, 0xbe,
  0x1c, 0xa0, 0x02, 0x3e, 0x27, 0x61, 0x92, 0xbe, 0xe7, 0x5e, 0x34, 0x3e,
  0x0c, 0x13, 0x9c, 0x3f, 0xf1, 0x6d, 0x91, 0xbf, 0x90, 0x9c, 0xe9, 0x3f,
  0xe1, 0x6e, 0xe9, 0xbf, 0xd4, 0xf0, 0x08, 0xbc, 0x99, 0x89, 0x8d, 0x3c,
  0x1b, 0xe8, 0x0b, 0x40, 0x50, 0x1a, 0x9a, 0xbd, 0xf5, 0x6e, 0x25, 0x3e,
  0xde, 0x7d, 0x85, 0xbd, 0xeb, 0xba, 0xab, 0xbe, 0x8b, 0xd9, 0x76, 0xbd,
  0xaf, 0xf0, 0x87, 0x3e, 0xe8, 0x6a, 0x49, 0xbe, 0x59, 0x38, 0x2f, 0xbc,
  0x87, 0x60, 0xab, 0x3d, 0x99, 0x19, 0x5e, 0xbf, 0x13, 0x5d, 0x82, 0xbf,
  0x44, 0x84, 0xbb, 0x3f, 0xde, 0xae, 0x9a, 0x3d, 0x81, 0xef, 0xbe, 0x3d,
  0xc2, 0x2a, 0xdc, 0x3d, 0xa1, 0x34, 0xbb, 0x3f, 0x3d, 0xef, 0x65, 0xbf,
  0x13, 0x2f, 0x15, 0x3e, 0x62, 0xd1, 0x48, 0xbf, 0xc3, 0xb9, 0xfa, 0xbe,
  0x94, 0xb9, 0x70, 0x3d, 0x40, 0x5d, 0xd7, 0x3e, 0x72, 0x6d, 0x32, 0xbe,
  0x6e, 0x0b, 0xa3, 0xbe, 0xc8, 0xa4, 0xad, 0x3d, 0x3c, 0xdc, 0xa2, 0xbf,
  0x69, 0x2c, 0x06, 0xbf, 0x01, 0x2f, 0xf2, 0x3f, 0xef, 0xc2, 0xc7, 0xbe,
  0x3d, 0x90, 0x0b, 0x3e, 0xb4, 0x1b, 0x27, 0xbe, 0x5f, 0x25, 0x52, 0x40,
  0x34, 0xf2, 0x3f, 0xc0, 0xa9, 0x77, 0xcf, 0xbd, 0x42, 0x66, 0x73, 0xbe,
  0x11, 0x82, 0xa0, 0xbf, 0xf5, 0x95, 0x56, 0x3d, 0x36, 0x83, 0x83, 0x3e,
  0x41, 0x67, 0x66, 0xbe, 0x7d, 0xe9, 0x1b, 0xbe, 0x15, 0xfe, 0x39, 0x3e,
  0x32, 0xe0, 0xe8, 0xbe, 0xda, 0xed, 0xb3, 0xbe, 0x7f, 0xe0, 0x7d, 0x3f,
  0x2d, 0x39, 0xf4, 0xbf, 0x91, 0x21, 0x55, 0xbe, 0xc7, 0x87, 0x78, 0xbe,
  0x5a, 0xa2, 0x61, 0x40, 0x0e, 0xfe, 0xff, 0xff, 0x10, 0x00, 0x00, 0x00,
  0x06, 0x00, 0x00, 0x00, 0x14, 0x00, 0x00, 0x00, 0x2c, 0x00, 0x00, 0x00,
  0x02, 0x00, 0x00, 0x00, 0x02, 0x00, 0x00, 0x00, 0x60, 0x00, 0x00, 0x00,
  0x17, 0x00, 0x00, 0x00, 0x73, 0x65, 0x71, 0x75, 0x65, 0x6e, 0x74, 0x69,
  0x61, 0x6c, 0x2f, 0x64, 0x65, 0x6e, 0x73, 0x65, 0x2f, 0x4d, 0x61, 0x74,
  0x4d, 0x75, 0x6c, 0x00, 0x78, 0xfd, 0xff, 0xff, 0x82, 0xfe, 0xff, 0xff,
  0x04, 0x00, 0x00, 0x00, 0x08, 0x00, 0x00, 0x00, 0xff, 0xff, 0xff, 0xff,
  0x60, 0x00, 0x00, 0x00, 0x00, 0x00, 0x0e, 0x00, 0x18, 0x00, 0x08, 0x00,
  0x07, 0x00, 0x0c, 0x00, 0x10, 0x00, 0x14, 0x00, 0x0e, 0x00, 0x00, 0x00,
  0x00, 0x00, 0x00, 0x02, 0x10, 0x00, 0x00, 0x00, 0x05, 0x00, 0x00, 0x00,
  0x10, 0x00, 0x00, 0x00, 0x2c, 0x00, 0x00, 0x00, 0x01, 0x00, 0x00, 0x00,
  0x02, 0x00, 0x00, 0x00, 0x18, 0x00, 0x00, 0x00, 0x73, 0x65, 0x71, 0x75,
  0x65, 0x6e, 0x74, 0x69, 0x61, 0x6c, 0x2f, 0x66, 0x6c, 0x61, 0x74, 0x74,
  0x65, 0x6e, 0x2f, 0x43, 0x6f, 0x6e, 0x73, 0x74, 0x00, 0x00, 0x00, 0x00,
  0xe0, 0xfd, 0xff, 0xff, 0xea, 0xfe, 0xff, 0xff, 0x04, 0x00, 0x00, 0x00,
  0x08, 0x00, 0x00, 0x00, 0xe1, 0x2b, 0x6c, 0xbd, 0x5a, 0x2b, 0x6c, 0x3d,
  0xca, 0xfe, 0xff, 0xff, 0x10, 0x00, 0x00, 0x00, 0x04, 0x00, 0x00, 0x00,
  0x10, 0x00, 0x00, 0x00, 0x44, 0x00, 0x00, 0x00, 0x01, 0x00, 0x00, 0x00,
  0x02, 0x00, 0x00, 0x00, 0x30, 0x00, 0x00, 0x00, 0x73, 0x65, 0x71, 0x75,
  0x65, 0x6e, 0x74, 0x69, 0x61, 0x6c, 0x2f, 0x64, 0x65, 0x6e, 0x73, 0x65,
  0x2f, 0x42, 0x69, 0x61, 0x73, 0x41, 0x64, 0x64, 0x2f, 0x52, 0x65, 0x61,
  0x64, 0x56, 0x61, 0x72, 0x69, 0x61, 0x62, 0x6c, 0x65, 0x4f, 0x70, 0x2f,
  0x72, 0x65, 0x73, 0x6f, 0x75, 0x72, 0x63, 0x65, 0x00, 0x00, 0x00, 0x00,
  0x4c, 0xfe, 0xff, 0xff, 0x56, 0xff, 0xff, 0xff, 0x04, 0x00, 0x00, 0x00,
  0x40, 0x00, 0x00, 0x00, 0x9f, 0x3a, 0xbf, 0xbe, 0xbc, 0xb7, 0xf8, 0xbd,
  0x81, 0x3e, 0xf9, 0xbd, 0xf0, 0xb4, 0x14, 0xbd, 0xfd, 0xfa, 0x1d, 0xbd,
  0xfe, 0x4e, 0xef, 0xbb, 0xff, 0x11, 0x43, 0xbd, 0x7c, 0x77, 0x66, 0xbe,
  0xd0, 0x5f, 0xd2, 0xbd, 0xcd, 0xfa, 0x8c, 0xbe, 0x75, 0x3a, 0x41, 0xbe,
  0xd2, 0x4b, 0xaf, 0x3b, 0xc8, 0x9a, 0xfc, 0xbe, 0x00, 0xb9, 0x99, 0xbd,
  0xf0, 0x22, 0x69, 0xbd, 0x77, 0x5c, 0x36, 0xbd, 0x6e, 0xff, 0xff, 0xff,
  0x10, 0x00, 0x00, 0x00, 0x03, 0x00, 0x00, 0x00, 0x10, 0x00, 0x00, 0x00,
  0x48, 0x00, 0x00, 0x00, 0x01, 0x00, 0x00, 0x00, 0x10, 0x00, 0x00, 0x00,
  0x33, 0x00, 0x00, 0x00, 0x73, 0x65, 0x71, 0x75, 0x65, 0x6e, 0x74, 0x69,
  0x61, 0x6c, 0x2f, 0x63, 0x6f, 0x6e, 0x76, 0x32, 0x64, 0x5f, 0x31, 0x2f,
  0x42, 0x69, 0x61, 0x73, 0x41, 0x64, 0x64, 0x2f, 0x52, 0x65, 0x61, 0x64,
  0x56, 0x61, 0x72, 0x69, 0x61, 0x62, 0x6c, 0x65, 0x4f, 0x70, 0x2f, 0x72,
  0x65, 0x73, 0x6f, 0x75, 0x72, 0x63, 0x65, 0x00, 0x04, 0x00, 0x06, 0x00,
  0x04, 0x00, 0x00, 0x00, 0x00, 0x00, 0x06, 0x00, 0x08, 0x00, 0x04, 0x00,
  0x06, 0x00, 0x00, 0x00, 0x04, 0x00, 0x00, 0x00, 0x20, 0x00, 0x00, 0x00,
  0x00, 0x00, 0x00, 0x00, 0x69, 0xc6, 0xc5, 0x3e, 0xe5, 0xf2, 0x46, 0xbf,
  0x44, 0x3c, 0x61, 0x3e, 0x43, 0x00, 0x70, 0x3d, 0x58, 0x9f, 0x45, 0xbf,
  0x9f, 0x08, 0xe0, 0x3c, 0xc8, 0x24, 0x4e, 0xbe, 0x00, 0x00, 0x0e, 0x00,
  0x14, 0x00, 0x04, 0x00, 0x00, 0x00, 0x08, 0x00, 0x0c, 0x00, 0x10, 0x00,
  0x0e, 0x00, 0x00, 0x00, 0x10, 0x00, 0x00, 0x00, 0x02, 0x00, 0x00, 0x00,
  0x10, 0x00, 0x00, 0x00, 0x44, 0x00, 0x00, 0x00, 0x01, 0x00, 0x00, 0x00,
  0x08, 0x00, 0x00, 0x00, 0x31, 0x00, 0x00, 0x00, 0x73, 0x65, 0x71, 0x75,
  0x65, 0x6e, 0x74, 0x69, 0x61, 0x6c, 0x2f, 0x63, 0x6f, 0x6e, 0x76, 0x32,
  0x64, 0x2f, 0x42, 0x69, 0x61, 0x73, 0x41, 0x64, 0x64, 0x2f, 0x52, 0x65,
  0x61, 0x64, 0x56, 0x61, 0x72, 0x69, 0x61, 0x62, 0x6c, 0x65, 0x4f, 0x70,
  0x2f, 0x72, 0x65, 0x73, 0x6f, 0x75, 0x72, 0x63, 0x65, 0x00, 0x00, 0x00,
  0x90, 0xff, 0xff, 0xff, 0x14, 0x00, 0x18, 0x00, 0x04, 0x00, 0x00, 0x00,
  0x08, 0x00, 0x0c, 0x00, 0x10, 0x00, 0x00, 0x00, 0x00, 0x00, 0x14, 0x00,
  0x14, 0x00, 0x00, 0x00, 0x14, 0x00, 0x00, 0x00, 0x01, 0x00, 0x00, 0x00,
  0x20, 0x00, 0x00, 0x00, 0x44, 0x00, 0x00, 0x00, 0x2c, 0x00, 0x00, 0x00,
  0x04, 0x00, 0x00, 0x00, 0x01, 0x00, 0x00, 0x00, 0x32, 0x00, 0x00, 0x00,
  0x03, 0x00, 0x00, 0x00, 0x01, 0x00, 0x00, 0x00, 0x0c, 0x00, 0x00, 0x00,
  0x63, 0x6f, 0x6e, 0x76, 0x32, 0x64, 0x5f, 0x69, 0x6e, 0x70, 0x75, 0x74,
  0x00, 0x00, 0x00, 0x00, 0x04, 0x00, 0x00, 0x00, 0xff, 0xff, 0xff, 0xff,
  0x32, 0x00, 0x00, 0x00, 0x03, 0x00, 0x00, 0x00, 0x01, 0x00, 0x00, 0x00,
  0xfc, 0xff, 0xff, 0xff, 0x04, 0x00, 0x04, 0x00, 0x04, 0x00, 0x00, 0x00
};
