const unsigned char model[] __attribute__((aligned(4))) = {
  0x1c, 0x00, 0x00, 0x00, 0x54, 0x46, 0x4c, 0x33, 0x00, 0x00, 0x12, 0x00,
  0x1c, 0x00, 0x04, 0x00, 0x08, 0x00, 0x0c, 0x00, 0x10, 0x00, 0x14, 0x00,
  0x00, 0x00, 0x18, 0x00, 0x12, 0x00, 0x00, 0x00, 0x03, 0x00, 0x00, 0x00,
  0x14, 0x00, 0x00, 0x00, 0x1c, 0x00, 0x00, 0x00, 0xa8, 0x00, 0x00, 0x00,
  0x1c, 0x00, 0x00, 0x00, 0x50, 0x00, 0x00, 0x00, 0x02, 0x00, 0x00, 0x00,
  0x24, 0x03, 0x00, 0x00, 0x6c, 0x01, 0x00, 0x00, 0x01, 0x00, 0x00, 0x00,
  0xb0, 0x00, 0x00, 0x00, 0x0d, 0x00, 0x00, 0x00, 0xd8, 0x12, 0x00, 0x00,
  0xd4, 0x12, 0x00, 0x00, 0xa0, 0x11, 0x00, 0x00, 0xf0, 0x10, 0x00, 0x00,
  0x50, 0x10, 0x00, 0x00, 0x1c, 0x0e, 0x00, 0x00, 0xc0, 0x06, 0x00, 0x00,
  0x60, 0x03, 0x00, 0x00, 0xb8, 0x12, 0x00, 0x00, 0xb4, 0x12, 0x00, 0x00,
  0xb0, 0x12, 0x00, 0x00, 0xac, 0x12, 0x00, 0x00, 0x38, 0x00, 0x00, 0x00,
  0x01, 0x00, 0x00, 0x00, 0x0c, 0x00, 0x00, 0x00, 0x08, 0x00, 0x0c, 0x00,
  0x04, 0x00, 0x08, 0x00, 0x08, 0x00, 0x00, 0x00, 0x08, 0x00, 0x00, 0x00,
  0x0c, 0x00, 0x00, 0x00, 0x13, 0x00, 0x00, 0x00, 0x6d, 0x69, 0x6e, 0x5f,
  0x72, 0x75, 0x6e, 0x74, 0x69, 0x6d, 0x65, 0x5f, 0x76, 0x65, 0x72, 0x73,
  0x69, 0x6f, 0x6e, 0x00, 0xc6, 0xee, 0xff, 0xff, 0x04, 0x00, 0x00, 0x00,
  0x10, 0x00, 0x00, 0x00, 0x31, 0x2e, 0x35, 0x2e, 0x30, 0x00, 0x00, 0x00,
  0x00, 0x00, 0x00, 0x00, 0x00, 0x00, 0x00, 0x00, 0x0f, 0x00, 0x00, 0x00,
  0x4d, 0x4c, 0x49, 0x52, 0x20, 0x43, 0x6f, 0x6e, 0x76, 0x65, 0x72, 0x74,
  0x65, 0x64, 0x2e, 0x00, 0x00, 0x00, 0x0e, 0x00, 0x18, 0x00, 0x04, 0x00,
  0x08, 0x00, 0x0c, 0x00, 0x10, 0x00, 0x14, 0x00, 0x0e, 0x00, 0x00, 0x00,
  0x14, 0x00, 0x00, 0x00, 0x40, 0x00, 0x00, 0x00, 0x44, 0x00, 0x00, 0x00,
  0x48, 0x00, 0x00, 0x00, 0x58, 0x00, 0x00, 0x00, 0x0b, 0x00, 0x00, 0x00,
  0xd8, 0x11, 0x00, 0x00, 0x64, 0x11, 0x00, 0x00, 0x78, 0x10, 0x00, 0x00,
  0xd0, 0x0f, 0x00, 0x00, 0x48, 0x0f, 0x00, 0x00, 0x14, 0x0d, 0x00, 0x00,
  0xb8, 0x05, 0x00, 0x00, 0x3c, 0x02, 0x00, 0x00, 0x74, 0x01, 0x00, 0x00,
  0xe4, 0x00, 0x00, 0x00, 0x7c, 0x00, 0x00, 0x00, 0x01, 0x00, 0x00, 0x00,
  0x00, 0x00, 0x00, 0x00, 0x01, 0x00, 0x00, 0x00, 0x0a, 0x00, 0x00, 0x00,
  0x04, 0x00, 0x00, 0x00, 0xc4, 0x01, 0x00, 0x00, 0x1c, 0x01, 0x00, 0x00,
  0x90, 0x00, 0x00, 0x00, 0x1c, 0x00, 0x00, 0x00, 0x04, 0x00, 0x00, 0x00,
  0x6d, 0x61, 0x69, 0x6e, 0x00, 0x00, 0x0e, 0x00, 0x18, 0x00, 0x08, 0x00,
  0x0c, 0x00, 0x10, 0x00, 0x07, 0x00, 0x14, 0x00, 0x0e, 0x00, 0x00, 0x00,
  0x00, 0x00, 0x00, 0x09, 0x01, 0x00, 0x00, 0x00, 0x1c, 0x00, 0x00, 0x00,
  0x10, 0x00, 0x00, 0x00, 0x04, 0x00, 0x00, 0x00, 0xa2, 0xef, 0xff, 0xff,
  0x00, 0x00, 0x80, 0x3f, 0x01, 0x00, 0x00, 0x00, 0x0a, 0x00, 0x00, 0x00,
  0x01, 0x00, 0x00, 0x00, 0x09, 0x00, 0x00, 0x00, 0x56, 0xfe, 0xff, 0xff,
  0x00, 0x00, 0x00, 0x19, 0x01, 0x00, 0x00, 0x00, 0xda, 0xee, 0xff, 0xff,
  0x10, 0x00, 0x00, 0x00, 0x0b, 0x00, 0x00, 0x00, 0x14, 0x00, 0x00, 0x00,
  0x20, 0x00, 0x00, 0x00, 0x02, 0x00, 0x00, 0x00, 0x01, 0x00, 0x00, 0x00,
  0x0d, 0x00, 0x00, 0x00, 0x08, 0x00, 0x00, 0x00, 0x49, 0x64, 0x65, 0x6e,
  0x74, 0x69, 0x74, 0x79, 0x00, 0x00, 0x00, 0x00, 0xc4, 0xee, 0xff, 0xff,
  0x86, 0xff, 0xff, 0xff, 0x00, 0x00, 0x00, 0x08, 0x18, 0x00, 0x00, 0x00,
  0x0c, 0x00, 0x00, 0x00, 0x04, 0x00, 0x00, 0x00, 0xdc, 0xee, 0xff, 0xff,
  0x01, 0x00, 0x00, 0x00, 0x09, 0x00, 0x00, 0x00, 0x03, 0x00, 0x00, 0x00,
  0x08, 0x00, 0x00, 0x00, 0x06, 0x00, 0x00, 0x00, 0x03, 0x00, 0x00, 0x00,
  0x3e, 0xef, 0xff, 0xff, 0x10, 0x00, 0x00, 0x00, 0x0a, 0x00, 0x00, 0x00,
  0x14, 0x00, 0x00, 0x00, 0x34, 0x00, 0x00, 0x00, 0x02, 0x00, 0x00, 0x00,
  0x01, 0x00, 0x00, 0x00, 0x0d, 0x00, 0x00, 0x00, 0x1c, 0x00, 0x00, 0x00,
  0x73, 0x65, 0x71, 0x75, 0x65, 0x6e, 0x74, 0x69, 0x61, 0x6c, 0x5f, 0x31,
  0x2f, 0x64, 0x65, 0x6e, 0x73, 0x65, 0x5f, 0x35, 0x2f, 0x42, 0x69, 0x61,
  0x73, 0x41, 0x64, 0x64, 0x00, 0x00, 0x00, 0x00, 0x8c, 0xef, 0xff, 0xff,
  0x00, 0x00, 0x0e, 0x00, 0x14, 0x00, 0x00, 0x00, 0x08, 0x00, 0x0c, 0x00,
  0x07, 0x00, 0x10, 0x00, 0x0e, 0x00, 0x00, 0x00, 0x00, 0x00, 0x00, 0x08,
  0x1c, 0x00, 0x00, 0x00, 0x10, 0x00, 0x00, 0x00, 0x04, 0x00, 0x00, 0x00,
  0x5a, 0xff, 0xff, 0xff, 0x00, 0x00, 0x00, 0x01, 0x01, 0x00, 0x00, 0x00,
  0x08, 0x00, 0x00, 0x00, 0x03, 0x00, 0x00, 0x00, 0x07, 0x00, 0x00, 0x00,
  0x05, 0x00, 0x00, 0x00, 0x02, 0x00, 0x00, 0x00, 0xca, 0xef, 0xff, 0xff,
  0x10, 0x00, 0x00, 0x00, 0x09, 0x00, 0x00, 0x00, 0x14, 0x00, 0x00, 0x00,
  0x4c, 0x00, 0x00, 0x00, 0x02, 0x00, 0x00, 0x00, 0x01, 0x00, 0x00, 0x00,
  0x0f, 0x00, 0x00, 0x00, 0x36, 0x00, 0x00, 0x00, 0x73, 0x65, 0x71, 0x75,
  0x65, 0x6e, 0x74, 0x69, 0x61, 0x6c, 0x5f, 0x31, 0x2f, 0x64, 0x65, 0x6e,
  0x73, 0x65, 0x5f, 0x34, 0x2f, 0x52, 0x65, 0x6c, 0x75, 0x3b, 0x73, 0x65,
  0x71, 0x75, 0x65, 0x6e, 0x74, 0x69, 0x61, 0x6c, 0x5f, 0x31, 0x2f, 0x64,
  0x65, 0x6e, 0x73, 0x65, 0x5f, 0x34, 0x2f, 0x42, 0x69, 0x61, 0x73, 0x41,
  0x64, 0x64, 0x00, 0x00, 0x30, 0xf0, 0xff, 0xff, 0x00, 0x00, 0x0e, 0x00,
  0x16, 0x00, 0x00, 0x00, 0x08, 0x00, 0x0c, 0x00, 0x07, 0x00, 0x10, 0x00,
  0x0e, 0x00, 0x00, 0x00, 0x00, 0x00, 0x00, 0x08, 0x24, 0x00, 0x00, 0x00,
  0x18, 0x00, 0x00, 0x00, 0x0c, 0x00, 0x00, 0x00, 0x00, 0x00, 0x06, 0x00,
  0x08, 0x00, 0x07, 0x00, 0x06, 0x00, 0x00, 0x00, 0x00, 0x00, 0x00, 0x01,
  0x01, 0x00, 0x00, 0x00, 0x07, 0x00, 0x00, 0x00, 0x03, 0x00, 0x00, 0x00,
  0x00, 0x00, 0x00, 0x00, 0x04, 0x00, 0x00, 0x00, 0x01, 0x00, 0x00, 0x00,
  0x00, 0x00, 0x0a, 0x00, 0x0c, 0x00, 0x07, 0x00, 0x00, 0x00, 0x08, 0x00,
  0x0a, 0x00, 0x00, 0x00, 0x00, 0x00, 0x00, 0x09, 0x01, 0x00, 0x00, 0x00,
  0x8e, 0xf0, 0xff, 0xff, 0x10, 0x00, 0x00, 0x00, 0x08, 0x00, 0x00, 0x00,
  0x14, 0x00, 0x00, 0x00, 0x4c, 0x00, 0x00, 0x00, 0x02, 0x00, 0x00, 0x00,
  0x01, 0x00, 0x00, 0x00, 0x1e, 0x00, 0x00, 0x00, 0x36, 0x00, 0x00, 0x00,
  0x73, 0x65, 0x71, 0x75, 0x65, 0x6e, 0x74, 0x69, 0x61, 0x6c, 0x5f, 0x31,
  0x2f, 0x64, 0x65, 0x6e, 0x73, 0x65, 0x5f, 0x33, 0x2f, 0x52, 0x65, 0x6c,
  0x75, 0x3b, 0x73, 0x65, 0x71, 0x75, 0x65, 0x6e, 0x74, 0x69, 0x61, 0x6c,
  0x5f, 0x31, 0x2f, 0x64, 0x65, 0x6e, 0x73, 0x65, 0x5f, 0x33, 0x2f, 0x42,
  0x69, 0x61, 0x73, 0x41, 0x64, 0x64, 0x00, 0x00, 0xa4, 0xf0, 0xff, 0xff,
  0xda, 0xf1, 0xff, 0xff, 0x04, 0x00, 0x00, 0x00, 0x0c, 0x03, 0x00, 0x00,
  0xb5, 0x9a, 0x58, 0xc0, 0x3c, 0xa6, 0xce, 0xbf, 0x27, 0x5f, 0x89, 0xc0,
  0xce, 0x2f, 0x6a, 0x3f, 0x0a, 0x7e, 0xae, 0xbf, 0x3a, 0x00, 0x93, 0xbf,
  0xf9, 0xbc, 0xb7, 0xbf, 0x59, 0xaa, 0xb1, 0xbf, 0xb6, 0x00, 0xd3, 0x3d,
  0xe4, 0x8e, 0xcc, 0xbf, 0xb8, 0xa5, 0x28, 0x3e, 0xb4, 0x5f, 0x6b, 0xc0,
  0x98, 0x3c, 0x45, 0xc0, 0x38, 0x32, 0xd3, 0x3d, 0x52, 0x99, 0x3e, 0xbf,
  0xa2, 0x4a, 0x1d, 0xc0, 0xc9, 0x05, 0xba, 0xbf, 0x14, 0xb1, 0xed, 0xc0,
  0xc1, 0x01, 0x9b, 0xbf, 0xad, 0x7e, 0x57, 0xc0, 0x14, 0xca, 0x88, 0xbf,
  0x80, 0x15, 0xdc, 0xbf, 0x8f, 0x54, 0x9d, 0xbf, 0x72, 0xff, 0x52, 0xc0,
  0x6a, 0x4f, 0xea, 0xbf, 0xf0, 0x13, 0x14, 0xbe, 0xef, 0xa6, 0x21, 0xc0,
  0x7a, 0x29, 0x04, 0xc0, 0x54, 0xec, 0x8b, 0x3e, 0x7b, 0x4f, 0xa6, 0xbd,
  0xa3, 0xfc, 0x49, 0xbf, 0x16, 0x79, 0x68, 0xc0, 0xc9, 0xf7, 0x93, 0xc0,
  0x42, 0x7f, 0x38, 0xc0, 0x3b, 0xe3, 0xba, 0xbf, 0xf9, 0xa8, 0x3b, 0xbf,
  0x35, 0xc1, 0x92, 0xbf, 0x3d, 0xe9, 0x2f, 0xbf, 0x30, 0x1b, 0x9c, 0xc0,
  0x16, 0x4d, 0xaa, 0xbf, 0x94, 0x64, 0x9b, 0xbe, 0x85, 0xd6, 0xc9, 0xbf,
  0x74, 0x63, 0xdb, 0xbf, 0x8e, 0x33, 0x8b, 0x3e, 0x55, 0xfe, 0x0b, 0xc0,
  0x63, 0x8a, 0xb1, 0x3e, 0x38, 0x0d, 0x5f, 0xbe, 0xa2, 0xf4, 0x08, 0x40,
  0x42, 0xe3, 0x8f, 0xbf, 0x4a, 0x39, 0xa2, 0xbe, 0x09, 0xc4, 0xc4, 0x3f,
  0x04, 0x9e, 0x75, 0xc0, 0x34, 0xce, 0x59, 0xbf, 0xf2, 0x7e, 0x39, 0x3f,
  0x88, 0x2e, 0x75, 0xc0, 0xb8, 0xa2, 0x0d, 0x3d, 0x40, 0x44, 0x9a, 0xbf,
  0xf0, 0x14, 0x2e, 0xc0, 0x7a, 0xfc, 0xcf, 0x3e, 0x19, 0xf7, 0x18, 0x40,
  0x77, 0xd5, 0xc6, 0xbf, 0x81, 0x18, 0x4d, 0xc0, 0x55, 0x0a, 0x47, 0x3d,
  0xf2, 0xc6, 0x2b, 0xbf, 0x33, 0xe6, 0x7d, 0xbf, 0x0b, 0x69, 0x9d, 0xc0,
  0x8a, 0x48, 0xd4, 0xbf, 0x79, 0x0d, 0xaa, 0xc0, 0x4d, 0xcd, 0x92, 0xbf,
  0xfd, 0xd7, 0xb5, 0xbf, 0x39, 0xf6, 0x61, 0xbe, 0x25, 0xd0, 0xae, 0xbf,
  0x12, 0x98, 0x32, 0xc0, 0xd5, 0x8d, 0xdf, 0xbe, 0x76, 0x5a, 0x6e, 0xc0,
  0x49, 0xac, 0x53, 0xc0, 0xd9, 0x8c, 0x8d, 0x3b, 0xd8, 0xf7, 0xc0, 0x3e,
  0x2f, 0xe9, 0x24, 0xc0, 0x81, 0x65, 0x0c, 0xc0, 0xc8, 0xaa, 0x84, 0xbf,
  0xdc, 0x69, 0x20, 0xc0, 0x86, 0x7c, 0xbc, 0xbf, 0x2c, 0x36, 0x03, 0xc0,
  0x42, 0x63, 0xc5, 0xbf, 0x84, 0xc2, 0x2c, 0xbe, 0xf6, 0xc3, 0x7f, 0xc0,
  0x6b, 0xe7, 0x54, 0xbf, 0x44, 0xcf, 0x12, 0x3e, 0x03, 0x42, 0xb5, 0xbf,
  0x3f, 0xa1, 0x10, 0xc0, 0x52, 0xef, 0xe2, 0xbf, 0x25, 0x68, 0xa2, 0x3f,
  0xb1, 0xb4, 0x19, 0x3e, 0x25, 0x12, 0xad, 0xbe, 0x08, 0xc4, 0xa4, 0xc0,
  0xf6, 0x18, 0x1b, 0xc0, 0xa9, 0x69, 0xe9, 0x3c, 0xf6, 0xf0, 0x8b, 0x3e,
  0x9e, 0x03, 0xb6, 0xbf, 0xe0, 0x69, 0xb7, 0x3e, 0x34, 0x92, 0x17, 0xc0,
  0x67, 0xb5, 0x19, 0xc0, 0x7c, 0x26, 0x1c, 0x3e, 0x4d, 0xb1, 0x39, 0xc0,
  0x7c, 0x9d, 0xd2, 0xbe, 0x53, 0x6f, 0x78, 0xc0, 0x44, 0xb8, 0x4e, 0xbf,
  0xc3, 0xe5, 0x0b, 0x3e, 0x23, 0x9b, 0x7e, 0xbf, 0x1a, 0x86, 0x41, 0xc0,
  0x41, 0x7f, 0xbf, 0xbf, 0x53, 0xb7, 0x1d, 0xbf, 0x2f, 0x0d, 0x88, 0xbf,
  0xb7, 0xcd, 0xb4, 0xbf, 0x60, 0x65, 0x0a, 0x3e, 0x47, 0x16, 0x8c, 0xbf,
  0x81, 0xa6, 0x94, 0xc0, 0x02, 0x8f, 0xa7, 0xbe, 0x9e, 0x26, 0x03, 0x3f,
  0xf5, 0xe2, 0xf7, 0xbf, 0x2e, 0xda, 0x82, 0xc0, 0xee, 0xb4, 0x9e, 0xbf,
  0xa8, 0x0d, 0xaa, 0x3e, 0xae, 0xd1, 0x1f, 0xbf, 0xdc, 0x0e, 0x0d, 0xc0,
  0x88, 0x21, 0xbf, 0xbf, 0x05, 0x4d, 0x7f, 0xbf, 0x59, 0xba, 0x9e, 0xbf,
  0xb2, 0x2e, 0x93, 0xbf, 0xe2, 0x5b, 0xb9, 0x3e, 0x75, 0xb5, 0xe2, 0xbf,
  0xe5, 0xef, 0x19, 0xc0, 0xc8, 0xb4, 0xbb, 0x3e, 0x22, 0x31, 0x4f, 0xc0,
  0x17, 0xda, 0x11, 0xbe, 0x7b, 0x57, 0xac, 0xc0, 0xcd, 0x0f, 0x33, 0x3e,
  0xad, 0xed, 0x48, 0xc0, 0x10, 0x39, 0xf0, 0xbf, 0xfa, 0x7f, 0x7b, 0xbf,
  0x3b, 0x4d, 0x32, 0xbf, 0x32, 0xe6, 0x65, 0xbf, 0xb5, 0x90, 0x1b, 0xc0,
  0xaa, 0x59, 0xd2, 0xbf, 0x58, 0xc4, 0x39, 0x3e, 0x58, 0xe4, 0x31, 0xbf,
  0x4f, 0xea, 0x41, 0xc0, 0x32, 0xe9, 0xc3, 0x3e, 0xd9, 0x14, 0x21, 0xbf,
  0xa6, 0x41, 0x81, 0xbf, 0xbc, 0x5d, 0x10, 0xc0, 0xf8, 0x2f, 0x46, 0xc0,
  0x47, 0x22, 0x98, 0xbe, 0xf2, 0xc3, 0xa9, 0xc0, 0x1a, 0xef, 0x45, 0xbf,
  0x50, 0x8e, 0xaa, 0xbf, 0x5a, 0xa4, 0xbb, 0xbf, 0x3d, 0x42, 0x8f, 0xbf,
  0x2b, 0x93, 0x5b, 0xc0, 0x5c, 0x18, 0x7b, 0x3e, 0xe9, 0x8d, 0xbd, 0xbf,
  0xdd, 0x80, 0x7d, 0xc0, 0x20, 0xe3, 0xa6, 0xbc, 0xa3, 0x02, 0x48, 0xbf,
  0x5c, 0xaa, 0x8b, 0xbe, 0xd0, 0xce, 0x81, 0xc0, 0x3b, 0xf2, 0x2f, 0xbd,
  0x01, 0x4b, 0x3d, 0xc0, 0xb3, 0x0e, 0x97, 0xbf, 0xc4, 0x60, 0x1c, 0xc0,
  0x8c, 0xed, 0x11, 0xc0, 0x55, 0x6f, 0xbf, 0xbf, 0xbb, 0x92, 0x37, 0xc0,
  0x13, 0x71, 0xea, 0xbf, 0x6a, 0x50, 0xbd, 0xbe, 0x03, 0x76, 0xe9, 0xbe,
  0x84, 0x10, 0x54, 0xbf, 0xb2, 0xbd, 0xca, 0x3e, 0x4d, 0x8d, 0x50, 0xc0,
  0x27, 0x56, 0xad, 0xbf, 0x7b, 0x81, 0xb9, 0xbf, 0xc3, 0xb7, 0xba, 0x3f,
  0x36, 0xd6, 0x14, 0xc0, 0x6a, 0x2a, 0xa0, 0x3c, 0x3e, 0x50, 0xdd, 0xbf,
  0xc9, 0x89, 0x42, 0xc0, 0x91, 0x58, 0x4d, 0xbd, 0x68, 0xc9, 0x90, 0xbf,
  0x24, 0x3b, 0x16, 0xc0, 0x84, 0x96, 0x61, 0x3e, 0x66, 0x48, 0xd0, 0xbe,
  0xc9, 0x32, 0xd1, 0xbf, 0xf0, 0x79, 0x80, 0x3d, 0x00, 0x66, 0xed, 0xc0,
  0x06, 0xf4, 0xff, 0xff, 0x10, 0x00, 0x00, 0x00, 0x07, 0x00, 0x00, 0x00,
  0x14, 0x00, 0x00, 0x00, 0x30, 0x00, 0x00, 0x00, 0x02, 0x00, 0x00, 0x00,
  0x0d, 0x00, 0x00, 0x00, 0x0f, 0x00, 0x00, 0x00, 0x1b, 0x00, 0x00, 0x00,
  0x73, 0x65, 0x71, 0x75, 0x65, 0x6e, 0x74, 0x69, 0x61, 0x6c, 0x5f, 0x31,
  0x2f, 0x64, 0x65, 0x6e, 0x73, 0x65, 0x5f, 0x35, 0x2f, 0x4d, 0x61, 0x74,
  0x4d, 0x75, 0x6c, 0x00, 0x00, 0xf4, 0xff, 0xff, 0x36, 0xf5, 0xff, 0xff,
  0x04, 0x00, 0x00, 0x00, 0x08, 0x07, 0x00, 0x00, 0x0c, 0x72, 0x8f, 0x3e,
  0xdf, 0xd2, 0x53, 0xbe, 0xc1, 0xe8, 0x8a, 0xbe, 0x4b, 0x31, 0xdc, 0x3e,
  0x15, 0x6c, 0xb1, 0x3f, 0x5d, 0x16, 0x4f, 0x40, 0x94, 0xc7, 0x70, 0x40,
  0x10, 0xbd, 0xb8, 0x3e, 0x0a, 0xd2, 0x96, 0x3d, 0x8f, 0x3b, 0xfa, 0x3f,
  0xf3, 0xfe, 0xb0, 0x3f, 0xb8, 0x3f, 0x20, 0x40, 0xf0, 0x20, 0x0d, 0x40,
  0x72, 0x7d, 0x79, 0x3f, 0x50, 0xb5, 0xe1, 0x3f, 0x6f, 0x2d, 0xea, 0x3d,
  0x61, 0xaf, 0xb4, 0x3e, 0xab, 0xff, 0x14, 0x3f, 0xf6, 0x24, 0x6f, 0x40,
  0x20, 0x99, 0x0c, 0x40, 0x5e, 0xba, 0x9d, 0x3e, 0x67, 0xb1, 0x45, 0x3f,
  0xb4, 0xc7, 0xb0, 0x3f, 0x65, 0x69, 0xbb, 0x3f, 0xc4, 0xd4, 0x91, 0x3f,
  0x49, 0x09, 0x41, 0x3f, 0xf9, 0x2b, 0x03, 0x3e, 0x79, 0xbf, 0x64, 0x3f,
  0xe9, 0x03, 0x39, 0x3f, 0x65, 0xe5, 0xa4, 0xbf, 0xb9, 0xf3, 0x21, 0x40,
  0x19, 0xa1, 0xf9, 0x3f, 0x62, 0x80, 0xe3, 0x3f, 0xeb, 0x6a, 0x26, 0x3f,
  0xe5, 0xa5, 0xca, 0x3d, 0xe6, 0xeb, 0x88, 0x3f, 0x23, 0xe9, 0x8d, 0x3e,
  0xe9, 0xe1, 0xfc, 0x3f, 0xbf, 0x7a, 0xf8, 0x3e, 0xad, 0xd5, 0x90, 0x3f,
  0x6f, 0xeb, 0x98, 0x3c, 0x0b, 0x1e, 0x33, 0x3d, 0x33, 0x25, 0xd6, 0x3f,
  0xb8, 0x52, 0x10, 0x3f, 0x3d, 0xa2, 0x80, 0x3f, 0x5d, 0x08, 0x19, 0x40,
  0x18, 0xd6, 0x1a, 0x40, 0x68, 0x0f, 0x54, 0x40, 0x70, 0x3d, 0x9a, 0x3f,
  0xb2, 0x25, 0x96, 0xbf, 0xc8, 0x98, 0x53, 0x3e, 0x0a, 0x6c, 0xc0, 0xbf,
  0x5a, 0xcd, 0x68, 0xbe, 0x05, 0xdb, 0xd1, 0x3f, 0x2f, 0x66, 0x3d, 0x40,
  0x2b, 0xda, 0xe4, 0x3f, 0x9d, 0xd8, 0x16, 0x40, 0xb8, 0xa5, 0x1f, 0x40,
  0x28, 0xa8, 0x16, 0x40, 0x72, 0x04, 0x52, 0x40, 0xc3, 0xc1, 0x73, 0x3f,
  0x57, 0xd6, 0xa3, 0xbe, 0x7d, 0x4a, 0x09, 0xbf, 0xff, 0x5c, 0xec, 0x3e,
  0x09, 0x7d, 0x74, 0x3f, 0x49, 0x11, 0x09, 0x3f, 0xb8, 0xfa, 0x48, 0x3f,
  0x4c, 0x3b, 0x9f, 0x3e, 0x98, 0x49, 0xfc, 0x3e, 0xfa, 0x44, 0xc3, 0xbd,
  0x05, 0x9a, 0x6b, 0xbe, 0x71, 0x38, 0x06, 0x3f, 0x0a, 0xcb, 0x83, 0x3d,
  0xad, 0x9a, 0xfc, 0xbd, 0x23, 0x2e, 0xa0, 0x3e, 0xf0, 0xae, 0x0d, 0x3f,
  0x44, 0x7f, 0x05, 0xbf, 0x8a, 0x47, 0xa7, 0x3e, 0x7f, 0x62, 0x3f, 0x3f,
  0xb2, 0xb6, 0xe2, 0xbf, 0x6a, 0x56, 0x50, 0xbe, 0x13, 0xe9, 0xac, 0x3e,
  0x25, 0xa8, 0x7e, 0x3f, 0x1a, 0x6e, 0x86, 0x3f, 0x48, 0x4c, 0xbf, 0x3e,
  0x89, 0x5e, 0x28, 0x3f, 0xae, 0x52, 0x93, 0x3e, 0x22, 0xc3, 0xec, 0xbe,
  0x9a, 0xaf, 0x81, 0x3f, 0x88, 0xc3, 0xab, 0xbc, 0x56, 0x51, 0xa3, 0x3f,
  0x5d, 0xf5, 0xf9, 0x3f, 0x2c, 0x37, 0x02, 0x40, 0x3c, 0x0c, 0x17, 0x40,
  0x94, 0x43, 0x1a, 0x40, 0x18, 0x5c, 0xa2, 0x3f, 0x25, 0x18, 0x06, 0x3e,
  0xb3, 0x1b, 0xf0, 0x3f, 0xbd, 0xcc, 0x14, 0x40, 0xf3, 0x36, 0x85, 0x3f,
  0xdf, 0xa9, 0xdb, 0x3f, 0xf6, 0xe3, 0xb4, 0x3f, 0x15, 0x29, 0x7d, 0x3f,
  0x61, 0x97, 0xdb, 0x3f, 0xdb, 0x3f, 0x9c, 0x3f, 0x82, 0x5b, 0xd4, 0x3f,
  0xa6, 0x7c, 0xb2, 0x3f, 0x41, 0xd4, 0x92, 0x3f, 0xc9, 0x70, 0x47, 0x3f,
  0x02, 0x88, 0x28, 0x40, 0xab, 0x52, 0x9a, 0xbe, 0xf6, 0x55, 0x77, 0x40,
  0x89, 0x04, 0x22, 0x40, 0x99, 0xcd, 0x74, 0x3f, 0xde, 0xe6, 0x77, 0x3e,
  0xe0, 0xac, 0xb3, 0x3f, 0xaa, 0x9c, 0x0a, 0x3f, 0x6c, 0xd6, 0xf2, 0x3f,
  0xb2, 0xbb, 0xd1, 0x3f, 0xa7, 0xaf, 0xaf, 0x3f, 0x73, 0xa3, 0x7b, 0x3f,
  0xf2, 0x18, 0x22, 0x3f, 0x41, 0x46, 0xa3, 0xbf, 0x5c, 0x4b, 0x86, 0x3f,
  0xe5, 0xa7, 0xcf, 0x3f, 0xfd, 0x98, 0xee, 0xbe, 0xc2, 0xf8, 0x60, 0xbf,
  0x8d, 0x7c, 0x29, 0xbd, 0x97, 0x38, 0x89, 0x3c, 0x35, 0x8d, 0xd5, 0x3d,
  0x83, 0x15, 0x5a, 0x3f, 0x0d, 0xfc, 0x17, 0xbf, 0x56, 0x4d, 0x37, 0x3f,
  0x50, 0x78, 0xc2, 0x3e, 0xc2, 0x65, 0xe6, 0xbe, 0x26, 0x55, 0x60, 0x3f,
  0x0a, 0x71, 0x30, 0xbf, 0x32, 0xf4, 0xb0, 0xbf, 0x6d, 0x6e, 0x3f, 0xbf,
  0x32, 0x15, 0xd4, 0xbf, 0x4c, 0xb0, 0xe8, 0x3d, 0xe2, 0xec, 0xe2, 0x3f,
  0xc6, 0x61, 0x01, 0x40, 0x4f, 0x69, 0x88, 0x3f, 0x40, 0xb5, 0xbd, 0x3e,
  0xc9, 0x61, 0x39, 0x3f, 0x6c, 0xa9, 0xbb, 0x3e, 0xee, 0x26, 0x9b, 0xbf,
  0x89, 0x8a, 0x4b, 0x3f, 0xd4, 0x83, 0xa4, 0x3e, 0x16, 0x69, 0x85, 0x3d,
  0xd8, 0x9a, 0x28, 0xbe, 0x84, 0x5a, 0x80, 0x3f, 0xd9, 0xf8, 0x4c, 0xbf,
  0x62, 0x73, 0x18, 0xc0, 0x49, 0x36, 0x44, 0x3f, 0x73, 0x52, 0x6d, 0xbe,
  0x26, 0x95, 0xae, 0x3e, 0x6f, 0x3f, 0xc9, 0xbf, 0x3c, 0x76, 0xac, 0x3f,
  0x53, 0x26, 0x77, 0xbf, 0x2a, 0x25, 0x71, 0xbe, 0x5f, 0x91, 0x87, 0xbf,
  0xd6, 0xe1, 0x4a, 0xbf, 0x65, 0xc1, 0x75, 0xbe, 0x41, 0x07, 0x0f, 0x3c,
  0xfd, 0x89, 0x80, 0x3f, 0xe6, 0xdf, 0xd4, 0x3f, 0x51, 0x23, 0xad, 0xbd,
  0x63, 0xd4, 0x50, 0x3f, 0x40, 0xf4, 0x9f, 0xbe, 0xe0, 0x62, 0xe7, 0xbf,
  0xfa, 0xb0, 0x0f, 0xc0, 0xb3, 0x06, 0x9e, 0xbe, 0x80, 0xcf, 0x5a, 0xbe,
  0x1e, 0xdd, 0x47, 0xbe, 0x17, 0xa5, 0xd0, 0x3d, 0xee, 0xcf, 0xb3, 0x3f,
  0x50, 0x13, 0x28, 0xbf, 0x0c, 0x17, 0xd9, 0x3e, 0xf1, 0x9a, 0x81, 0x40,
  0xa8, 0xb8, 0x93, 0x40, 0xd2, 0xb8, 0xaf, 0x40, 0xa3, 0x37, 0xad, 0x40,
  0x90, 0x3c, 0xa0, 0x40, 0xf9, 0x3c, 0x8a, 0x40, 0x6f, 0x87, 0x69, 0x40,
  0xc7, 0x8e, 0x99, 0x40, 0xc5, 0x0f, 0x90, 0x40, 0x3b, 0x0e, 0xaa, 0x40,
  0x35, 0xa6, 0xad, 0x40, 0x69, 0x17, 0x82, 0x40, 0x54, 0x8b, 0x0c, 0x40,
  0x2d, 0x5c, 0xa6, 0x40, 0x1d, 0x7e, 0x79, 0x40, 0x5f, 0xa4, 0x8d, 0x40,
  0x04, 0xd5, 0x90, 0x40, 0xc6, 0x3d, 0x73, 0x40, 0xfb, 0x56, 0x5e, 0x40,
  0x4a, 0x1d, 0xd9, 0x40, 0xe5, 0xf7, 0x0b, 0xbe, 0xd0, 0xe4, 0x9b, 0x40,
  0xd2, 0x52, 0x90, 0x40, 0x75, 0x6a, 0x87, 0x40, 0x8b, 0xf5, 0x4a, 0x40,
  0x8b, 0x43, 0x5f, 0x40, 0x8a, 0x3e, 0x67, 0x40, 0x4d, 0x47, 0x9d, 0x40,
  0x8a, 0x56, 0x53, 0x40, 0xae, 0x4c, 0x7b, 0x40, 0xb4, 0x2e, 0x87, 0xbe,
  0xce, 0xc9, 0x78, 0xbe, 0x5e, 0xb7, 0x07, 0xbf, 0x1d, 0xcc, 0x27, 0x3f,
  0xce, 0x89, 0x61, 0xbe, 0x59, 0x58, 0x0d, 0x3f, 0xf0, 0x0c, 0x2e, 0x3f,
  0x76, 0xaf, 0xeb, 0xbd, 0x15, 0xad, 0x72, 0xbf, 0x5d, 0x64, 0x9e, 0x3e,
  0xda, 0xf3, 0x83, 0xbb, 0xe0, 0x48, 0x53, 0xbf, 0x02, 0x3c, 0x1b, 0x3e,
  0xbe, 0x12, 0x88, 0x3e, 0xfc, 0x3e, 0xf4, 0xbe, 0xf1, 0x37, 0x01, 0xbf,
  0xfa, 0x91, 0x04, 0x3f, 0x73, 0xda, 0x81, 0x3f, 0x57, 0x4e, 0x7d, 0x3d,
  0x0b, 0x2b, 0x9d, 0x3f, 0xe8, 0x3c, 0x68, 0x3e, 0xcc, 0x29, 0x57, 0xbf,
  0xb2, 0x2c, 0x27, 0xbf, 0x38, 0x4a, 0x46, 0xbf, 0x57, 0x73, 0xe8, 0x3d,
  0x63, 0x86, 0x9c, 0x3e, 0x17, 0xd3, 0x1d, 0x3f, 0x63, 0x7a, 0x36, 0x3f,
  0x03, 0xc5, 0x99, 0xbe, 0x96, 0xe0, 0x88, 0x3e, 0x73, 0x3f, 0x3f, 0xbc,
  0x04, 0xde, 0x64, 0x3f, 0x63, 0x5e, 0x2e, 0x40, 0xa8, 0xa2, 0x6f, 0x40,
  0x2e, 0x50, 0x80, 0x40, 0xae, 0x20, 0xe0, 0xbf, 0x44, 0x73, 0x39, 0xbf,
  0xd5, 0x53, 0x5a, 0x3f, 0xf3, 0x1e, 0x81, 0x40, 0xcd, 0x93, 0xb0, 0xbf,
  0x7d, 0xd5, 0x56, 0x3e, 0xf9, 0x14, 0xb0, 0xbe, 0xb8, 0x26, 0x05, 0x40,
  0x92, 0x95, 0xeb, 0x3e, 0xd4, 0x9b, 0x8e, 0x3d, 0xce, 0x93, 0xf8, 0x3e,
  0x9d, 0x95, 0x4d, 0xbf, 0x99, 0x16, 0x35, 0xbf, 0xc6, 0xeb, 0x7a, 0x3e,
  0x1b, 0xe8, 0x54, 0xbf, 0xe3, 0xf0, 0x6d, 0xbe, 0x80, 0xb7, 0x95, 0x40,
  0xfe, 0xb3, 0x85, 0x40, 0x7b, 0xec, 0xc7, 0x3e, 0x7a, 0x74, 0x34, 0xbf,
  0x2e, 0x8e, 0x2a, 0xbf, 0x8f, 0x4a, 0x5e, 0xbf, 0x31, 0xaa, 0xc2, 0x3e,
  0xf5, 0x23, 0xb9, 0x3f, 0xdf, 0xf6, 0xaa, 0xbe, 0x1f, 0x0c, 0x17, 0x3f,
  0xbc, 0x8a, 0xdd, 0x3f, 0xaa, 0xc4, 0xf0, 0x3f, 0x0c, 0x9d, 0x05, 0x40,
  0x09, 0xf0, 0x98, 0x3f, 0x33, 0x86, 0x4a, 0xbf, 0x68, 0x65, 0x18, 0x3e,
  0x87, 0xaf, 0xb3, 0x3f, 0xd5, 0x30, 0x6d, 0x3f, 0x8c, 0xa0, 0xd8, 0x3d,
  0x44, 0xcb, 0x79, 0x3f, 0xcc, 0xaa, 0x93, 0x3f, 0x34, 0x1c, 0x30, 0xbd,
  0xe1, 0x45, 0xdf, 0x3f, 0x8b, 0x07, 0xe6, 0x3d, 0x8d, 0x3c, 0x05, 0x40,
  0xe9, 0xda, 0xd6, 0x3e, 0xf1, 0xd3, 0xee, 0x3e, 0x06, 0x23, 0xe7, 0x3c,
  0xd9, 0x28, 0x6f, 0x3f, 0x84, 0xb2, 0xbb, 0xbd, 0xd3, 0xbd, 0x07, 0x40,
  0xa7, 0x6c, 0xb5, 0x3f, 0xe9, 0xd2, 0x87, 0x3f, 0x18, 0xf7, 0x57, 0x3f,
  0x9e, 0x99, 0x98, 0x3f, 0x45, 0x69, 0x88, 0x3f, 0x15, 0xbc, 0x50, 0x3f,
  0x41, 0xa1, 0x8a, 0x3f, 0xd4, 0x45, 0xb6, 0x3f, 0x24, 0x6f, 0x20, 0x3e,
  0x47, 0xaf, 0x13, 0xbe, 0xb5, 0x2d, 0x9d, 0xbe, 0x4b, 0x81, 0x6f, 0xbe,
  0x28, 0x72, 0x79, 0xbd, 0xa8, 0x48, 0x60, 0x3d, 0x64, 0x0b, 0xf2, 0x3d,
  0x10, 0x83, 0x06, 0x3e, 0x98, 0xec, 0xac, 0x3e, 0x33, 0x78, 0x01, 0xbe,
  0x20, 0xf7, 0xe1, 0xbd, 0x50, 0x55, 0xd8, 0x3c, 0x68, 0x1b, 0xcf, 0xbd,
  0x90, 0xac, 0x08, 0xbe, 0x05, 0x9d, 0x9d, 0xbe, 0x3d, 0x2e, 0x9f, 0xbe,
  0x57, 0xff, 0x0d, 0xbe, 0xb6, 0xce, 0x95, 0xbe, 0xac, 0xbd, 0x63, 0x3e,
  0x8c, 0x86, 0xf9, 0x3d, 0xe9, 0xde, 0x9e, 0xbe, 0xd2, 0xd6, 0x9e, 0xbe,
  0x50, 0x33, 0x96, 0xbd, 0x10, 0x1b, 0xeb, 0x3c, 0x6e, 0x16, 0x85, 0xbe,
  0x34, 0x92, 0x35, 0x3e, 0xd8, 0x8c, 0x28, 0x3d, 0x80, 0x7a, 0xdd, 0xbd,
  0x21, 0x8f, 0x66, 0xbe, 0x0c, 0x2d, 0x96, 0x3e, 0x45, 0x89, 0xcc, 0x3f,
  0x4d, 0x59, 0xd8, 0x3f, 0x2e, 0x56, 0x90, 0x3b, 0xaf, 0x76, 0xfc, 0x3f,
  0xc5, 0xa5, 0x38, 0x40, 0x9a, 0x51, 0xa2, 0x40, 0xfa, 0x69, 0x9f, 0x40,
  0x28, 0x2b, 0xec, 0x3f, 0xae, 0x57, 0x92, 0x3f, 0xbb, 0x03, 0x2a, 0x40,
  0x1b, 0x84, 0x4c, 0x40, 0x76, 0x79, 0x8b, 0x40, 0x5d, 0xcb, 0x7f, 0x40,
  0x82, 0x8b, 0x1c, 0x40, 0x17, 0xde, 0x58, 0x40, 0x34, 0x31, 0xdd, 0x3f,
  0xf2, 0xb3, 0xdf, 0x3f, 0x07, 0x66, 0xb0, 0x3f, 0xf5, 0x25, 0xa6, 0x40,
  0x92, 0x1d, 0x7d, 0x40, 0x67, 0x26, 0xb5, 0xbe, 0xf5, 0xa9, 0x02, 0x40,
  0x04, 0xee, 0x40, 0x40, 0x26, 0x34, 0x41, 0x40, 0xb4, 0xa2, 0x1b, 0x40,
  0x77, 0xf2, 0x40, 0x40, 0x7e, 0x81, 0xd7, 0x3f, 0x4a, 0xd5, 0xa7, 0x3f,
  0xa0, 0x04, 0x24, 0x40, 0xfa, 0x85, 0x22, 0x3f, 0xbf, 0x1e, 0x42, 0x40,
  0x60, 0x8f, 0xe7, 0x3f, 0x84, 0xd9, 0xad, 0xbf, 0x5e, 0x29, 0x8c, 0xbf,
  0xf6, 0xde, 0x09, 0xbf, 0xb4, 0x3b, 0x8b, 0x3f, 0xfb, 0x89, 0xa9, 0x3e,
  0x71, 0x9a, 0xd1, 0x3f, 0x02, 0xb5, 0x0e, 0xc0, 0x84, 0xc9, 0x09, 0x40,
  0xbb, 0x08, 0x86, 0x3f, 0x3e, 0xdb, 0xb2, 0x3e, 0xa5, 0xea, 0xa7, 0x3f,
  0xc1, 0xaa, 0x9d, 0x3f, 0x89, 0x7c, 0x69, 0x3f, 0xae, 0xf3, 0x17, 0x40,
  0x2a, 0xcd, 0x1b, 0x40, 0xff, 0xa8, 0x32, 0x40, 0x6a, 0x4d, 0x6e, 0xbe,
  0xa8, 0xbd, 0xe2, 0xbe, 0xd4, 0x4e, 0x14, 0x3e, 0x02, 0x50, 0x01, 0xc0,
  0xed, 0xd1, 0x38, 0xbf, 0xe8, 0x3a, 0x0e, 0x40, 0x89, 0x2d, 0x5d, 0x40,
  0x04, 0x62, 0x45, 0x40, 0xec, 0x34, 0x52, 0x40, 0xff, 0x7c, 0xc4, 0x3f,
  0x81, 0xe2, 0x00, 0x40, 0x63, 0x8e, 0x3c, 0x40, 0x6c, 0xdd, 0x43, 0xbe,
  0x00, 0x78, 0x95, 0x3e, 0xac, 0xf8, 0x3d, 0xbe, 0x80, 0x59, 0xb2, 0xbb,
  0x06, 0xca, 0x88, 0xbe, 0x9c, 0x3a, 0xe7, 0x3d, 0x98, 0x1c, 0x1c, 0x3e,
  0x62, 0x4c, 0x49, 0xbe, 0x54, 0x39, 0xbe, 0xbd, 0x84, 0x73, 0x91, 0xbe,
  0xb4, 0x85, 0x50, 0xbe, 0x30, 0xdd, 0x22, 0x3d, 0xe7, 0xc3, 0x86, 0xbe,
  0x0b, 0xa5, 0x88, 0xbe, 0x30, 0x6e, 0x71, 0x3d, 0x20, 0x41, 0x66, 0x3c,
  0xdf, 0x3a, 0x66, 0xbe, 0xe9, 0x18, 0x9f, 0xbe, 0xf4, 0x27, 0xcf, 0x3d,
  0x3b, 0x19, 0x83, 0xbe, 0xe8, 0x6f, 0x15, 0x3e, 0x68, 0xd0, 0x78, 0x3e,
  0x00, 0xad, 0xa0, 0x3d, 0x88, 0x74, 0x11, 0xbe, 0x40, 0xde, 0x59, 0x3c,
  0x7e, 0x72, 0xb6, 0xbe, 0x60, 0x3c, 0x67, 0xbc, 0x90, 0x6b, 0x6c, 0x3e,
  0x2d, 0x2c, 0x92, 0xbe, 0x3b, 0xdd, 0x1d, 0xbe, 0x22, 0x25, 0x80, 0xbe,
  0x89, 0xca, 0xde, 0xbd, 0x02, 0x1f, 0xa1, 0x3f, 0x2b, 0x89, 0xad, 0x3f,
  0x1a, 0x98, 0x85, 0xbe, 0xc4, 0x67, 0xdb, 0x3f, 0x74, 0xa7, 0xc5, 0x3f,
  0xb0, 0x12, 0x43, 0x3f, 0x39, 0x8b, 0x2e, 0x3d, 0xe7, 0x19, 0xfc, 0xbe,
  0x10, 0xe4, 0x16, 0xbf, 0x63, 0x59, 0x2d, 0x3f, 0x47, 0x16, 0x8f, 0x3f,
  0x20, 0x73, 0x47, 0x3b, 0x63, 0x7c, 0xf3, 0x3e, 0xd9, 0x00, 0x3a, 0x3e,
  0x4c, 0x10, 0xba, 0xbd, 0xd8, 0x44, 0x2d, 0x3f, 0x84, 0x3f, 0xdf, 0x3f,
  0x35, 0x87, 0xb8, 0xbd, 0xa8, 0x30, 0x77, 0xbd, 0x5b, 0x58, 0x12, 0xbf,
  0x7f, 0x4a, 0x15, 0xbf, 0x83, 0x10, 0x60, 0xbe, 0x2e, 0xdc, 0x01, 0xbe,
  0x23, 0xa7, 0x32, 0xbf, 0x01, 0x1c, 0x10, 0x3e, 0xe5, 0x72, 0x40, 0x3f,
  0x48, 0xa1, 0x70, 0x3e, 0x0a, 0xef, 0x00, 0xbe, 0x5e, 0xfb, 0xff, 0xff,
  0x10, 0x00, 0x00, 0x00, 0x06, 0x00, 0x00, 0x00, 0x14, 0x00, 0x00, 0x00,
  0x30, 0x00, 0x00, 0x00, 0x02, 0x00, 0x00, 0x00, 0x0f, 0x00, 0x00, 0x00,
  0x1e, 0x00, 0x00, 0x00, 0x1b, 0x00, 0x00, 0x00, 0x73, 0x65, 0x71, 0x75,
  0x65, 0x6e, 0x74, 0x69, 0x61, 0x6c, 0x5f, 0x31, 0x2f, 0x64, 0x65, 0x6e,
  0x73, 0x65, 0x5f, 0x34, 0x2f, 0x4d, 0x61, 0x74, 0x4d, 0x75, 0x6c, 0x00,
  0x58, 0xfb, 0xff, 0xff, 0x8e, 0xfc, 0xff, 0xff, 0x04, 0x00, 0x00, 0x00,
  0xe0, 0x01, 0x00, 0x00, 0xe4, 0xb2, 0x1c, 0xbf, 0xf2, 0x9f, 0xfd, 0x3f,
  0x29, 0x96, 0x59, 0xbe, 0x5f, 0xb9, 0x7b, 0x3f, 0x81, 0x20, 0x07, 0x3f,
  0x2f, 0xca, 0x15, 0x40, 0xab, 0x9a, 0xff, 0x3e, 0x8f, 0x4a, 0xfe, 0x3e,
  0x84, 0xee, 0xb3, 0x3f, 0x94, 0xdb, 0x0a, 0xbe, 0x3c, 0xa2, 0x85, 0x3f,
  0x37, 0x3c, 0x8c, 0xbf, 0xf8, 0x71, 0xb6, 0x3f, 0xa5, 0x29, 0xfa, 0x3e,
  0xea, 0x25, 0x98, 0x3e, 0xd0, 0xdb, 0x75, 0xbe, 0xf6, 0x89, 0xb6, 0x3f,
  0x9b, 0xd2, 0x13, 0xbf, 0xa7, 0x5a, 0xb2, 0x3e, 0x08, 0xff, 0x43, 0x3e,
  0xe8, 0x85, 0x51, 0xbf, 0x7c, 0x35, 0x8a, 0xbf, 0x42, 0x96, 0x26, 0x3f,
  0xd2, 0xc3, 0x76, 0x3f, 0xfd, 0x57, 0x32, 0xbe, 0x87, 0x05, 0xe8, 0xbf,
  0x8c, 0xfa, 0x88, 0x3f, 0xb0, 0xcf, 0x1c, 0x3f, 0x93, 0x27, 0x59, 0x40,
  0xa5, 0x64, 0x8e, 0x40, 0x62, 0x6d, 0x5f, 0x40, 0x34, 0x5b, 0x37, 0x3f,
  0x6e, 0x6e, 0x64, 0x3f, 0xff, 0x3c, 0xaf, 0xbf, 0x75, 0x10, 0x5a, 0x3f,
  0x0f, 0xfc, 0x2c, 0xbf, 0x67, 0xe8, 0x41, 0xbf, 0xe6, 0x69, 0x21, 0xbd,
  0x54, 0xa9, 0xa3, 0x3f, 0xe4, 0x15, 0xc9, 0x3e, 0xdf, 0xb8, 0x48, 0x3f,
  0x70, 0xa6, 0x36, 0xbf, 0x33, 0x95, 0x50, 0x3f, 0x27, 0xcc, 0xa8, 0x3f,
  0x93, 0x33, 0x0e, 0x3e, 0x62, 0xa4, 0xc5, 0xbf, 0x97, 0xdd, 0x4a, 0x3f,
  0xdf, 0x10, 0xc8, 0x3f, 0xdb, 0x63, 0xa4, 0x3f, 0x47, 0x38, 0x82, 0xbe,
  0xd8, 0x7c, 0xdd, 0x3e, 0xd1, 0x3b, 0x1c, 0x40, 0xf2, 0x46, 0x8c, 0x3f,
  0x5a, 0x9e, 0x98, 0xbd, 0xb2, 0x5f, 0x9d, 0x3f, 0xb7, 0x6c, 0x79, 0x3f,
  0xbb, 0xd6, 0x81, 0x3e, 0xda, 0xe1, 0x07, 0xc0, 0xbe, 0x87, 0x3f, 0x3f,
  0xfa, 0x23, 0x92, 0x3f, 0x0b, 0xa2, 0x0f, 0x40, 0x10, 0xbd, 0x8d, 0x40,
  0x04, 0xd6, 0xf2, 0x3e, 0x0b, 0x57, 0x53, 0x3f, 0xbb, 0x0a, 0xa2, 0x3e,
  0xa2, 0xb8, 0x38, 0x40, 0x10, 0xbb, 0x19, 0x40, 0x54, 0x6b, 0x59, 0x3f,
  0xcd, 0x63, 0x09, 0xbe, 0x85, 0x97, 0x13, 0x40, 0x33, 0xf1, 0xf6, 0x3f,
  0x9b, 0x5c, 0x56, 0xbe, 0x6e, 0xf7, 0xe5, 0xbe, 0xf2, 0x33, 0x25, 0xc0,
  0x47, 0xae, 0x7c, 0x3f, 0x58, 0x95, 0x58, 0x3e, 0xaf, 0x73, 0x58, 0x3c,
  0xb6, 0x69, 0x57, 0xbf, 0x7a, 0x2c, 0xb9, 0x3f, 0x37, 0x25, 0x1d, 0x3e,
  0x98, 0x12, 0x94, 0x3d, 0xec, 0x60, 0xc0, 0xbd, 0x48, 0x60, 0xd8, 0xbd,
  0x1a, 0x87, 0x70, 0xbe, 0xc8, 0x53, 0x98, 0x3f, 0x81, 0x13, 0x83, 0xbf,
  0xc8, 0xb6, 0x3b, 0x3f, 0x95, 0xe9, 0x59, 0xbd, 0x2f, 0xa6, 0xc2, 0x3f,
  0xa3, 0x61, 0x45, 0xbf, 0xec, 0xed, 0xca, 0x3d, 0x8f, 0xa2, 0x60, 0xbd,
  0x35, 0x61, 0x67, 0x3f, 0x6d, 0xdc, 0xc7, 0x3e, 0x3e, 0x68, 0x42, 0xbf,
  0xcd, 0x9c, 0x1e, 0x40, 0xe6, 0x96, 0x05, 0x3f, 0x6a, 0x27, 0x41, 0x40,
  0xb5, 0x4a, 0x27, 0x3f, 0x60, 0x7d, 0x04, 0x40, 0x98, 0xc2, 0x8b, 0x3e,
  0xb1, 0xb8, 0x2c, 0x40, 0x96, 0x29, 0x9e, 0x3e, 0x8e, 0x77, 0x28, 0x40,
  0x7e, 0x6a, 0x11, 0x3f, 0x76, 0xeb, 0x54, 0x40, 0x2e, 0xb2, 0x8c, 0x3f,
  0x7e, 0x4a, 0xd6, 0x3f, 0x92, 0x4b, 0xd7, 0x3e, 0x64, 0x39, 0x20, 0x40,
  0x88, 0x77, 0x2f, 0x40, 0x57, 0x7d, 0x52, 0xbf, 0x8d, 0xf4, 0x19, 0x3f,
  0xe9, 0x80, 0x27, 0x3f, 0xda, 0x1f, 0xf7, 0xbf, 0x13, 0x52, 0x29, 0x3f,
  0x25, 0x65, 0xdb, 0x3e, 0xd0, 0x22, 0x71, 0x40, 0x05, 0x05, 0x56, 0x3f,
  0x5a, 0x6a, 0xea, 0xbd, 0x8e, 0xfd, 0xff, 0xff, 0x10, 0x00, 0x00, 0x00,
  0x05, 0x00, 0x00, 0x00, 0x14, 0x00, 0x00, 0x00, 0x30, 0x00, 0x00, 0x00,
  0x02, 0x00, 0x00, 0x00, 0x1e, 0x00, 0x00, 0x00, 0x04, 0x00, 0x00, 0x00,
  0x1b, 0x00, 0x00, 0x00, 0x73, 0x65, 0x71, 0x75, 0x65, 0x6e, 0x74, 0x69,
  0x61, 0x6c, 0x5f, 0x31, 0x2f, 0x64, 0x65, 0x6e, 0x73, 0x65, 0x5f, 0x33,
  0x2f, 0x4d, 0x61, 0x74, 0x4d, 0x75, 0x6c, 0x00, 0x88, 0xfd, 0xff, 0xff,
  0xbe, 0xfe, 0xff, 0xff, 0x04, 0x00, 0x00, 0x00, 0x34, 0x00, 0x00, 0x00,
  0x0e, 0xf6, 0xa7, 0xbf, 0x56, 0xdd, 0x14, 0xc0, 0x72, 0x0e, 0x4b, 0xbf,
  0xe2, 0x1e, 0x10, 0x40, 0x10, 0x26, 0xdd, 0xbf, 0x3d, 0xfd, 0xf8, 0xbf,
  0xef, 0xff, 0x4d, 0x3f, 0x7c, 0x1f, 0x5d, 0xbc, 0x61, 0xe4, 0x05, 0xc0,
  0x49, 0x9e, 0x9f, 0xbf, 0x6f, 0x8a, 0xa3, 0xbf, 0xdb, 0xc9, 0x7d, 0xbf,
  0x44, 0xbd, 0x9a, 0x3e, 0x12, 0xfe, 0xff, 0xff, 0x10, 0x00, 0x00, 0x00,
  0x04, 0x00, 0x00, 0x00, 0x10, 0x00, 0x00, 0x00, 0x48, 0x00, 0x00, 0x00,
  0x01, 0x00, 0x00, 0x00, 0x0d, 0x00, 0x00, 0x00, 0x34, 0x00, 0x00, 0x00,
  0x73, 0x65, 0x71, 0x75, 0x65, 0x6e, 0x74, 0x69, 0x61, 0x6c, 0x5f, 0x31,
  0x2f, 0x64, 0x65, 0x6e, 0x73, 0x65, 0x5f, 0x35, 0x2f, 0x42, 0x69, 0x61,
  0x73, 0x41, 0x64, 0x64, 0x2f, 0x52, 0x65, 0x61, 0x64, 0x56, 0x61, 0x72,
  0x69, 0x61, 0x62, 0x6c, 0x65, 0x4f, 0x70, 0x2f, 0x72, 0x65, 0x73, 0x6f,
  0x75, 0x72, 0x63, 0x65, 0x00, 0x00, 0x00, 0x00, 0x24, 0xfe, 0xff, 0xff,
  0x5a, 0xff, 0xff, 0xff, 0x04, 0x00, 0x00, 0x00, 0x3c, 0x00, 0x00, 0x00,
  0xc3, 0x19, 0x98, 0x3f, 0x57, 0x94, 0x07, 0x40, 0x4a, 0x8f, 0x13, 0x3f,
  0xe6, 0x34, 0x7d, 0x3f, 0x09, 0x72, 0xe1, 0xbd, 0x82, 0x30, 0x9e, 0xbe,
  0x82, 0x66, 0x7a, 0x40, 0xe9, 0x50, 0x4d, 0xbe, 0x57, 0xc2, 0x9b, 0x3e,
  0x5e, 0xbd, 0x2b, 0x3f, 0x00, 0x00, 0x00, 0x00, 0xa3, 0xc0, 0x26, 0x40,
  0x57, 0x16, 0x02, 0x40, 0x00, 0x00, 0x00, 0x00, 0x2c, 0xe6, 0x81, 0x3e,
  0xb6, 0xfe, 0xff, 0xff, 0x10, 0x00, 0x00, 0x00, 0x03, 0x00, 0x00, 0x00,
  0x10, 0x00, 0x00, 0x00, 0x48, 0x00, 0x00, 0x00, 0x01, 0x00, 0x00, 0x00,
  0x0f, 0x00, 0x00, 0x00, 0x34, 0x00, 0x00, 0x00, 0x73, 0x65, 0x71, 0x75,
  0x65, 0x6e, 0x74, 0x69, 0x61, 0x6c, 0x5f, 0x31, 0x2f, 0x64, 0x65, 0x6e,
  0x73, 0x65, 0x5f, 0x34, 0x2f, 0x42, 0x69, 0x61, 0x73, 0x41, 0x64, 0x64,
  0x2f, 0x52, 0x65, 0x61, 0x64, 0x56, 0x61, 0x72, 0x69, 0x61, 0x62, 0x6c,
  0x65, 0x4f, 0x70, 0x2f, 0x72, 0x65, 0x73, 0x6f, 0x75, 0x72, 0x63, 0x65,
  0x00, 0x00, 0x00, 0x00, 0x18, 0xff, 0xff, 0xff, 0x00, 0x00, 0x06, 0x00,
  0x08, 0x00, 0x04, 0x00, 0x06, 0x00, 0x00, 0x00, 0x04, 0x00, 0x00, 0x00,
  0x78, 0x00, 0x00, 0x00, 0x74, 0x30, 0x42, 0x3f, 0x97, 0x48, 0x50, 0xbf,
  0xec, 0xb8, 0x21, 0x3e, 0x11, 0x5c, 0xed, 0xbe, 0x5b, 0xa1, 0x94, 0xbd,
  0xd0, 0x30, 0x0c, 0x3f, 0xd8, 0xdd, 0x3f, 0x3f, 0x84, 0xdf, 0x1e, 0x40,
  0x7a, 0x99, 0x4a, 0x3e, 0x25, 0xa0, 0xd8, 0x3c, 0x09, 0x50, 0x72, 0xbe,
  0x7d, 0x3a, 0x48, 0x3f, 0xa1, 0x8c, 0xd4, 0x3f, 0x7d, 0x13, 0xc9, 0xbe,
  0x70, 0x83, 0x1d, 0x3f, 0xbf, 0x18, 0xd9, 0x3f, 0xb7, 0xd6, 0xca, 0x3f,
  0x42, 0x8a, 0xc5, 0x3f, 0x98, 0xbb, 0x56, 0x3f, 0xb1, 0xbd, 0x13, 0xbe,
  0x00, 0x00, 0x00, 0x00, 0x4b, 0x46, 0xc8, 0xbe, 0x20, 0xf8, 0x22, 0xbe,
  0x3e, 0xa0, 0xaa, 0x3f, 0x08, 0xf6, 0x04, 0x40, 0x42, 0x32, 0xb8, 0x3f,
  0xff, 0x57, 0xf3, 0x3f, 0xa0, 0x48, 0x8d, 0x3f, 0x90, 0x72, 0xe5, 0x3d,
  0xdc, 0x9f, 0x82, 0x3f, 0x9e, 0xff, 0xff, 0xff, 0x10, 0x00, 0x00, 0x00,
  0x02, 0x00, 0x00, 0x00, 0x10, 0x00, 0x00, 0x00, 0x4c, 0x00, 0x00, 0x00,
  0x01, 0x00, 0x00, 0x00, 0x1e, 0x00, 0x00, 0x00, 0x34, 0x00, 0x00, 0x00,
  0x73, 0x65, 0x71, 0x75, 0x65, 0x6e, 0x74, 0x69, 0x61, 0x6c, 0x5f, 0x31,
  0x2f, 0x64, 0x65, 0x6e, 0x73, 0x65, 0x5f, 0x33, 0x2f, 0x42, 0x69, 0x61,
  0x73, 0x41, 0x64, 0x64, 0x2f, 0x52, 0x65, 0x61, 0x64, 0x56, 0x61, 0x72,
  0x69, 0x61, 0x62, 0x6c, 0x65, 0x4f, 0x70, 0x2f, 0x72, 0x65, 0x73, 0x6f,
  0x75, 0x72, 0x63, 0x65, 0x00, 0x00, 0x00, 0x00, 0x04, 0x00, 0x06, 0x00,
  0x04, 0x00, 0x00, 0x00, 0x00, 0x00, 0x0e, 0x00, 0x14, 0x00, 0x04, 0x00,
  0x00, 0x00, 0x08, 0x00, 0x0c, 0x00, 0x10, 0x00, 0x0e, 0x00, 0x00, 0x00,
  0x10, 0x00, 0x00, 0x00, 0x01, 0x00, 0x00, 0x00, 0x14, 0x00, 0x00, 0x00,
  0x24, 0x00, 0x00, 0x00, 0x02, 0x00, 0x00, 0x00, 0x01, 0x00, 0x00, 0x00,
  0x04, 0x00, 0x00, 0x00, 0x0d, 0x00, 0x00, 0x00, 0x64, 0x65, 0x6e, 0x73,
  0x65, 0x5f, 0x33, 0x5f, 0x69, 0x6e, 0x70, 0x75, 0x74, 0x00, 0x00, 0x00,
  0xfc, 0xff, 0xff, 0xff, 0x04, 0x00, 0x04, 0x00, 0x04, 0x00, 0x00, 0x00
};
