//TFLM model that detects either up motion or down motion
#include "motion_model.h"

// array to map gesture index to a name
const char* GESTURES[] = {
  "strum",
  "no_strum"
};

const int num_gestures =  (sizeof(GESTURES) / sizeof(GESTURES[0]));


const unsigned char g_motion_model[] __attribute__((aligned(4))) = {
 0x1c, 0x00, 0x00, 0x00, 0x54, 0x46, 0x4c, 0x33, 0x00, 0x00, 0x12, 0x00,
  0x1c, 0x00, 0x04, 0x00, 0x08, 0x00, 0x0c, 0x00, 0x10, 0x00, 0x14, 0x00,
  0x00, 0x00, 0x18, 0x00, 0x12, 0x00, 0x00, 0x00, 0x03, 0x00, 0x00, 0x00,
  0x14, 0x00, 0x00, 0x00, 0x1c, 0x00, 0x00, 0x00, 0xa8, 0x00, 0x00, 0x00,
  0x1c, 0x00, 0x00, 0x00, 0x50, 0x00, 0x00, 0x00, 0x02, 0x00, 0x00, 0x00,
  0x1c, 0x03, 0x00, 0x00, 0x6c, 0x01, 0x00, 0x00, 0x01, 0x00, 0x00, 0x00,
  0xb0, 0x00, 0x00, 0x00, 0x0d, 0x00, 0x00, 0x00, 0x64, 0x54, 0x00, 0x00,
  0x60, 0x54, 0x00, 0x00, 0x34, 0x53, 0x00, 0x00, 0x88, 0x52, 0x00, 0x00,
  0x18, 0x52, 0x00, 0x00, 0x78, 0x0b, 0x00, 0x00, 0x1c, 0x04, 0x00, 0x00,
  0x50, 0x03, 0x00, 0x00, 0x44, 0x54, 0x00, 0x00, 0x40, 0x54, 0x00, 0x00,
  0x3c, 0x54, 0x00, 0x00, 0x38, 0x54, 0x00, 0x00, 0x38, 0x00, 0x00, 0x00,
  0x01, 0x00, 0x00, 0x00, 0x0c, 0x00, 0x00, 0x00, 0x08, 0x00, 0x0c, 0x00,
  0x04, 0x00, 0x08, 0x00, 0x08, 0x00, 0x00, 0x00, 0x08, 0x00, 0x00, 0x00,
  0x0c, 0x00, 0x00, 0x00, 0x13, 0x00, 0x00, 0x00, 0x6d, 0x69, 0x6e, 0x5f,
  0x72, 0x75, 0x6e, 0x74, 0x69, 0x6d, 0x65, 0x5f, 0x76, 0x65, 0x72, 0x73,
  0x69, 0x6f, 0x6e, 0x00, 0x32, 0xad, 0xff, 0xff, 0x04, 0x00, 0x00, 0x00,
  0x10, 0x00, 0x00, 0x00, 0x31, 0x2e, 0x35, 0x2e, 0x30, 0x00, 0x00, 0x00,
  0x00, 0x00, 0x00, 0x00, 0x00, 0x00, 0x00, 0x00, 0x0f, 0x00, 0x00, 0x00,
  0x4d, 0x4c, 0x49, 0x52, 0x20, 0x43, 0x6f, 0x6e, 0x76, 0x65, 0x72, 0x74,
  0x65, 0x64, 0x2e, 0x00, 0x00, 0x00, 0x0e, 0x00, 0x18, 0x00, 0x04, 0x00,
  0x08, 0x00, 0x0c, 0x00, 0x10, 0x00, 0x14, 0x00, 0x0e, 0x00, 0x00, 0x00,
  0x14, 0x00, 0x00, 0x00, 0x40, 0x00, 0x00, 0x00, 0x44, 0x00, 0x00, 0x00,
  0x48, 0x00, 0x00, 0x00, 0x58, 0x00, 0x00, 0x00, 0x0b, 0x00, 0x00, 0x00,
  0x68, 0x53, 0x00, 0x00, 0xf8, 0x52, 0x00, 0x00, 0x10, 0x52, 0x00, 0x00,
  0x6c, 0x51, 0x00, 0x00, 0x14, 0x51, 0x00, 0x00, 0x70, 0x0a, 0x00, 0x00,
  0x14, 0x03, 0x00, 0x00, 0x34, 0x02, 0x00, 0x00, 0x70, 0x01, 0x00, 0x00,
  0xe4, 0x00, 0x00, 0x00, 0x7c, 0x00, 0x00, 0x00, 0x01, 0x00, 0x00, 0x00,
  0x00, 0x00, 0x00, 0x00, 0x01, 0x00, 0x00, 0x00, 0x0a, 0x00, 0x00, 0x00,
  0x04, 0x00, 0x00, 0x00, 0xbc, 0x01, 0x00, 0x00, 0x18, 0x01, 0x00, 0x00,
  0x90, 0x00, 0x00, 0x00, 0x1c, 0x00, 0x00, 0x00, 0x04, 0x00, 0x00, 0x00,
  0x6d, 0x61, 0x69, 0x6e, 0x00, 0x00, 0x0e, 0x00, 0x18, 0x00, 0x08, 0x00,
  0x0c, 0x00, 0x10, 0x00, 0x07, 0x00, 0x14, 0x00, 0x0e, 0x00, 0x00, 0x00,
  0x00, 0x00, 0x00, 0x09, 0x01, 0x00, 0x00, 0x00, 0x1c, 0x00, 0x00, 0x00,
  0x10, 0x00, 0x00, 0x00, 0x04, 0x00, 0x00, 0x00, 0x0e, 0xae, 0xff, 0xff,
  0x00, 0x00, 0x80, 0x3f, 0x01, 0x00, 0x00, 0x00, 0x0a, 0x00, 0x00, 0x00,
  0x01, 0x00, 0x00, 0x00, 0x09, 0x00, 0x00, 0x00, 0x5e, 0xfe, 0xff, 0xff,
  0x00, 0x00, 0x00, 0x19, 0x01, 0x00, 0x00, 0x00, 0x4a, 0xad, 0xff, 0xff,
  0x10, 0x00, 0x00, 0x00, 0x0b, 0x00, 0x00, 0x00, 0x14, 0x00, 0x00, 0x00,
  0x20, 0x00, 0x00, 0x00, 0x02, 0x00, 0x00, 0x00, 0x01, 0x00, 0x00, 0x00,
  0x02, 0x00, 0x00, 0x00, 0x08, 0x00, 0x00, 0x00, 0x49, 0x64, 0x65, 0x6e,
  0x74, 0x69, 0x74, 0x79, 0x00, 0x00, 0x00, 0x00, 0x38, 0xad, 0xff, 0xff,
  0x8a, 0xff, 0xff, 0xff, 0x00, 0x00, 0x00, 0x08, 0x18, 0x00, 0x00, 0x00,
  0x0c, 0x00, 0x00, 0x00, 0x04, 0x00, 0x00, 0x00, 0x50, 0xad, 0xff, 0xff,
  0x01, 0x00, 0x00, 0x00, 0x09, 0x00, 0x00, 0x00, 0x03, 0x00, 0x00, 0x00,
  0x08, 0x00, 0x00, 0x00, 0x06, 0x00, 0x00, 0x00, 0x03, 0x00, 0x00, 0x00,
  0xae, 0xad, 0xff, 0xff, 0x10, 0x00, 0x00, 0x00, 0x0a, 0x00, 0x00, 0x00,
  0x14, 0x00, 0x00, 0x00, 0x30, 0x00, 0x00, 0x00, 0x02, 0x00, 0x00, 0x00,
  0x01, 0x00, 0x00, 0x00, 0x02, 0x00, 0x00, 0x00, 0x1a, 0x00, 0x00, 0x00,
  0x73, 0x65, 0x71, 0x75, 0x65, 0x6e, 0x74, 0x69, 0x61, 0x6c, 0x2f, 0x64,
  0x65, 0x6e, 0x73, 0x65, 0x5f, 0x32, 0x2f, 0x42, 0x69, 0x61, 0x73, 0x41,
  0x64, 0x64, 0x00, 0x00, 0xf8, 0xad, 0xff, 0xff, 0x00, 0x00, 0x0e, 0x00,
  0x14, 0x00, 0x00, 0x00, 0x08, 0x00, 0x0c, 0x00, 0x07, 0x00, 0x10, 0x00,
  0x0e, 0x00, 0x00, 0x00, 0x00, 0x00, 0x00, 0x08, 0x1c, 0x00, 0x00, 0x00,
  0x10, 0x00, 0x00, 0x00, 0x04, 0x00, 0x00, 0x00, 0x5e, 0xff, 0xff, 0xff,
  0x00, 0x00, 0x00, 0x01, 0x01, 0x00, 0x00, 0x00, 0x08, 0x00, 0x00, 0x00,
  0x03, 0x00, 0x00, 0x00, 0x07, 0x00, 0x00, 0x00, 0x05, 0x00, 0x00, 0x00,
  0x02, 0x00, 0x00, 0x00, 0x36, 0xae, 0xff, 0xff, 0x10, 0x00, 0x00, 0x00,
  0x09, 0x00, 0x00, 0x00, 0x14, 0x00, 0x00, 0x00, 0x48, 0x00, 0x00, 0x00,
  0x02, 0x00, 0x00, 0x00, 0x01, 0x00, 0x00, 0x00, 0x0f, 0x00, 0x00, 0x00,
  0x32, 0x00, 0x00, 0x00, 0x73, 0x65, 0x71, 0x75, 0x65, 0x6e, 0x74, 0x69,
  0x61, 0x6c, 0x2f, 0x64, 0x65, 0x6e, 0x73, 0x65, 0x5f, 0x31, 0x2f, 0x52,
  0x65, 0x6c, 0x75, 0x3b, 0x73, 0x65, 0x71, 0x75, 0x65, 0x6e, 0x74, 0x69,
  0x61, 0x6c, 0x2f, 0x64, 0x65, 0x6e, 0x73, 0x65, 0x5f, 0x31, 0x2f, 0x42,
  0x69, 0x61, 0x73, 0x41, 0x64, 0x64, 0x00, 0x00, 0x98, 0xae, 0xff, 0xff,
  0x00, 0x00, 0x0e, 0x00, 0x16, 0x00, 0x00, 0x00, 0x08, 0x00, 0x0c, 0x00,
  0x07, 0x00, 0x10, 0x00, 0x0e, 0x00, 0x00, 0x00, 0x00, 0x00, 0x00, 0x08,
  0x24, 0x00, 0x00, 0x00, 0x18, 0x00, 0x00, 0x00, 0x0c, 0x00, 0x00, 0x00,
  0x00, 0x00, 0x06, 0x00, 0x08, 0x00, 0x07, 0x00, 0x06, 0x00, 0x00, 0x00,
  0x00, 0x00, 0x00, 0x01, 0x01, 0x00, 0x00, 0x00, 0x07, 0x00, 0x00, 0x00,
  0x03, 0x00, 0x00, 0x00, 0x00, 0x00, 0x00, 0x00, 0x04, 0x00, 0x00, 0x00,
  0x01, 0x00, 0x00, 0x00, 0x00, 0x00, 0x0a, 0x00, 0x0c, 0x00, 0x07, 0x00,
  0x00, 0x00, 0x08, 0x00, 0x0a, 0x00, 0x00, 0x00, 0x00, 0x00, 0x00, 0x09,
  0x01, 0x00, 0x00, 0x00, 0xf6, 0xae, 0xff, 0xff, 0x10, 0x00, 0x00, 0x00,
  0x08, 0x00, 0x00, 0x00, 0x14, 0x00, 0x00, 0x00, 0x44, 0x00, 0x00, 0x00,
  0x02, 0x00, 0x00, 0x00, 0x01, 0x00, 0x00, 0x00, 0x1e, 0x00, 0x00, 0x00,
  0x2e, 0x00, 0x00, 0x00, 0x73, 0x65, 0x71, 0x75, 0x65, 0x6e, 0x74, 0x69,
  0x61, 0x6c, 0x2f, 0x64, 0x65, 0x6e, 0x73, 0x65, 0x2f, 0x52, 0x65, 0x6c,
  0x75, 0x3b, 0x73, 0x65, 0x71, 0x75, 0x65, 0x6e, 0x74, 0x69, 0x61, 0x6c,
  0x2f, 0x64, 0x65, 0x6e, 0x73, 0x65, 0x2f, 0x42, 0x69, 0x61, 0x73, 0x41,
  0x64, 0x64, 0x00, 0x00, 0x08, 0xaf, 0xff, 0xff, 0x36, 0xb0, 0xff, 0xff,
  0x04, 0x00, 0x00, 0x00, 0x78, 0x00, 0x00, 0x00, 0xef, 0x92, 0x1e, 0x3e,
  0xae, 0x6f, 0xd6, 0x3f, 0x81, 0x0b, 0x93, 0x3f, 0x93, 0x6b, 0x04, 0xbf,
  0xa8, 0xdb, 0x02, 0x40, 0x82, 0x48, 0x06, 0x40, 0x8b, 0x87, 0x2a, 0xbe,
  0x77, 0xd1, 0x04, 0x40, 0x5b, 0xa8, 0xbc, 0x3f, 0x9a, 0x12, 0x0f, 0x40,
  0xe4, 0x61, 0xe0, 0x3f, 0x37, 0xb5, 0xe2, 0xbe, 0xb2, 0xeb, 0x1f, 0xbe,
  0x37, 0x18, 0x42, 0x3f, 0x65, 0xd3, 0x43, 0x3e, 0xf2, 0x8c, 0x81, 0x3e,
  0x8c, 0x34, 0x89, 0xbf, 0xd0, 0xf0, 0xe9, 0xbf, 0x42, 0x97, 0xb5, 0x3c,
  0x78, 0x5a, 0x8e, 0xbf, 0xe4, 0xea, 0x9e, 0xbf, 0xfa, 0x77, 0xbf, 0x3e,
  0x8b, 0x3d, 0x09, 0xc0, 0xab, 0xaf, 0x7a, 0xbf, 0xcb, 0x24, 0xf4, 0xbf,
  0xc2, 0xa8, 0xae, 0xbf, 0x09, 0x62, 0x83, 0xbd, 0xc7, 0x92, 0xcb, 0xbd,
  0x1b, 0x55, 0xbe, 0xbf, 0x4c, 0x28, 0x51, 0x3f, 0xd2, 0xaf, 0xff, 0xff,
  0x10, 0x00, 0x00, 0x00, 0x07, 0x00, 0x00, 0x00, 0x14, 0x00, 0x00, 0x00,
  0x30, 0x00, 0x00, 0x00, 0x02, 0x00, 0x00, 0x00, 0x02, 0x00, 0x00, 0x00,
  0x0f, 0x00, 0x00, 0x00, 0x19, 0x00, 0x00, 0x00, 0x73, 0x65, 0x71, 0x75,
  0x65, 0x6e, 0x74, 0x69, 0x61, 0x6c, 0x2f, 0x64, 0x65, 0x6e, 0x73, 0x65,
  0x5f, 0x32, 0x2f, 0x4d, 0x61, 0x74, 0x4d, 0x75, 0x6c, 0x00, 0x00, 0x00,
  0xd0, 0xaf, 0xff, 0xff, 0xfe, 0xb0, 0xff, 0xff, 0x04, 0x00, 0x00, 0x00,
  0x08, 0x07, 0x00, 0x00, 0x3a, 0x9e, 0xe7, 0x3d, 0x2e, 0x4f, 0x9d, 0xbe,
  0xe8, 0x58, 0x8b, 0x3f, 0x50, 0xb6, 0x10, 0xbe, 0x4e, 0x78, 0xf6, 0x3d,
  0x36, 0x9b, 0xe5, 0x3e, 0x26, 0xb7, 0x02, 0x3d, 0x0e, 0xfa, 0xda, 0xbd,
  0xda, 0xb6, 0x6d, 0xbe, 0x17, 0x11, 0x38, 0x3e, 0x84, 0x16, 0xd8, 0xbd,
  0x5c, 0xd7, 0x71, 0x3f, 0xd5, 0xa3, 0xc8, 0x3f, 0x39, 0xae, 0x5b, 0x3f,
  0xa9, 0x8a, 0xb2, 0xbe, 0x71, 0xba, 0x71, 0xbb, 0xfc, 0x28, 0x92, 0x3d,
  0x40, 0x43, 0xbf, 0x3d, 0x60, 0x73, 0xec, 0x3d, 0xa5, 0x68, 0xb8, 0xbe,
  0x5e, 0xba, 0x9d, 0x3e, 0xe4, 0x97, 0xcd, 0x3e, 0x08, 0xfb, 0x66, 0x3e,
  0x6f, 0xf2, 0x00, 0x3f, 0x38, 0xa5, 0x8a, 0x3e, 0xc6, 0xbf, 0x58, 0xbd,
  0xaa, 0x66, 0x26, 0xbe, 0xc0, 0x6d, 0x47, 0x3f, 0x6a, 0x40, 0x17, 0x3f,
  0x53, 0xc2, 0x65, 0x3f, 0xd6, 0x68, 0x28, 0x3e, 0xe0, 0x83, 0x69, 0x3c,
  0x0f, 0x1e, 0xcc, 0x3e, 0xf3, 0xb1, 0x46, 0xbe, 0xee, 0x5e, 0x11, 0xbf,
  0xc9, 0x75, 0x30, 0x3d, 0x2b, 0xdc, 0xd2, 0xbe, 0x9c, 0xc4, 0xdf, 0xbd,
  0x38, 0x14, 0xe6, 0xbd, 0x8a, 0xd0, 0x95, 0x3e, 0x80, 0x6b, 0x42, 0x3c,
  0x47, 0xe4, 0x22, 0x3f, 0xac, 0x06, 0x0e, 0x3f, 0xb4, 0x68, 0xdc, 0xbf,
  0x10, 0xaa, 0x31, 0x3d, 0x34, 0xe1, 0x88, 0x3e, 0x20, 0x1d, 0xfb, 0xbc,
  0x68, 0x1e, 0x96, 0x3e, 0xb8, 0x12, 0x96, 0x3d, 0x50, 0xa7, 0x81, 0x3e,
  0xc8, 0x98, 0x53, 0x3e, 0xe0, 0x0d, 0x6f, 0x3d, 0x68, 0xc1, 0x23, 0xbe,
  0x46, 0xe3, 0xe2, 0x3e, 0xe6, 0x23, 0x8e, 0x3e, 0x02, 0xce, 0x95, 0x3e,
  0xd1, 0x1b, 0x4c, 0xbe, 0x84, 0x6e, 0x71, 0xbc, 0x0f, 0x28, 0x62, 0xbf,
  0x04, 0xc2, 0x51, 0x3f, 0x9f, 0xcd, 0x95, 0x3e, 0x48, 0x7b, 0x8c, 0x3b,
  0x7d, 0x68, 0x78, 0xbf, 0x05, 0x76, 0xa9, 0x3e, 0xd5, 0xe6, 0x68, 0x3e,
  0x68, 0xe2, 0xe2, 0x3e, 0xf9, 0x44, 0x3c, 0x3d, 0xed, 0xca, 0x47, 0x3e,
  0xfc, 0x0c, 0x2f, 0xbe, 0xfd, 0x66, 0x60, 0xbe, 0xa0, 0xe2, 0x05, 0x3c,
  0x3a, 0x29, 0xcd, 0x3e, 0x01, 0x53, 0x69, 0xbe, 0x96, 0xbb, 0x8b, 0xbf,
  0x35, 0xad, 0x3f, 0xbe, 0x31, 0x97, 0x1f, 0x3e, 0xb7, 0x67, 0xb8, 0xbe,
  0x2d, 0x88, 0x30, 0xbe, 0x22, 0x55, 0xa2, 0x3e, 0x6c, 0xbe, 0x91, 0xbd,
  0x6a, 0x56, 0x50, 0xbe, 0x7b, 0x93, 0x0b, 0x40, 0x9c, 0x92, 0x3d, 0x3e,
  0xbe, 0xc0, 0x8c, 0x3d, 0x80, 0x03, 0x9f, 0xbe, 0xe8, 0x6e, 0xce, 0xbe,
  0x78, 0x22, 0x64, 0x3d, 0xe3, 0x8f, 0x11, 0xbf, 0x0f, 0x36, 0xeb, 0x3f,
  0x05, 0xe7, 0x93, 0xbe, 0x79, 0x49, 0x18, 0xbd, 0x0a, 0x8c, 0x08, 0xbe,
  0xce, 0xac, 0x98, 0x3f, 0x4a, 0x7a, 0x39, 0xbe, 0x99, 0xbc, 0x0f, 0x3f,
  0x9f, 0xdd, 0x06, 0x3f, 0x25, 0x22, 0x8b, 0xbb, 0xe9, 0x81, 0x4a, 0x3e,
  0x33, 0xf0, 0x8d, 0xbe, 0xae, 0x49, 0x8e, 0x3e, 0x84, 0x65, 0xde, 0x3d,
  0x78, 0x7d, 0x08, 0x3f, 0xea, 0x19, 0xe5, 0x3f, 0xb8, 0xb7, 0x30, 0x3f,
  0xa0, 0x7c, 0x14, 0xbc, 0x48, 0x24, 0x24, 0xbd, 0x9d, 0xfa, 0x05, 0xbe,
  0xc0, 0x32, 0x10, 0xbd, 0xeb, 0xb9, 0x45, 0xbe, 0x5f, 0x1f, 0x2b, 0x3e,
  0xab, 0x52, 0x9a, 0xbe, 0x31, 0x7a, 0x2e, 0xbe, 0xf0, 0xd3, 0x01, 0x3e,
  0x83, 0x73, 0x82, 0xbe, 0xc0, 0xfe, 0x95, 0xbe, 0x20, 0xd0, 0x04, 0x3e,
  0xe3, 0xb9, 0x6a, 0xbe, 0x3c, 0x72, 0x3b, 0x3f, 0x7d, 0x58, 0xcd, 0xbe,
  0xa5, 0xcd, 0x80, 0x3f, 0x47, 0x01, 0x96, 0x3e, 0xff, 0xa1, 0x9f, 0x3e,
  0x3a, 0xdc, 0x5f, 0x3e, 0xd6, 0xb9, 0xad, 0x3c, 0x12, 0xb6, 0x4d, 0xbf,
  0x79, 0x49, 0x81, 0xbe, 0x03, 0xfc, 0x57, 0xbe, 0x10, 0xc3, 0x05, 0xbd,
  0x36, 0xa9, 0x98, 0xbe, 0x14, 0xd8, 0x8e, 0xbe, 0xd0, 0xa2, 0xea, 0x3d,
  0x82, 0x59, 0x05, 0x3f, 0x9a, 0x9d, 0xa0, 0x3e, 0x63, 0xa4, 0x0a, 0xc0,
  0xf0, 0xa0, 0x16, 0x3d, 0x5f, 0x00, 0x36, 0x3e, 0x31, 0xcf, 0xa1, 0xbe,
  0x39, 0xc4, 0xa6, 0xbe, 0xe8, 0xdf, 0xd6, 0xbd, 0xdf, 0xc3, 0xa0, 0xbe,
  0x4c, 0xb0, 0xe8, 0x3d, 0x5f, 0xdd, 0xb4, 0x3e, 0x56, 0x15, 0x9b, 0x3e,
  0x52, 0xd6, 0xf7, 0x3e, 0x0e, 0x2e, 0xe2, 0x3d, 0x8c, 0x75, 0x7b, 0x3d,
  0x00, 0x41, 0x07, 0xbd, 0x8e, 0x8f, 0x33, 0xbe, 0x29, 0x43, 0x02, 0xbf,
  0x31, 0x6d, 0x3f, 0x3f, 0x30, 0xf9, 0xff, 0x3d, 0x8a, 0x8a, 0xc9, 0x3d,
  0x50, 0x45, 0x9c, 0x3d, 0x11, 0x96, 0x15, 0xbd, 0x9e, 0x92, 0x2a, 0xbf,
  0x9a, 0x82, 0x33, 0x3d, 0xe4, 0x71, 0xbc, 0x3d, 0x0e, 0x2e, 0x5e, 0xbe,
  0x58, 0x76, 0x99, 0xbc, 0xae, 0xfc, 0xa4, 0x3e, 0x28, 0xa1, 0x27, 0x3d,
  0x32, 0x57, 0x60, 0x3f, 0x76, 0xc5, 0x03, 0x3e, 0x53, 0x64, 0x17, 0xc0,
  0x8c, 0x97, 0x53, 0x3e, 0x8f, 0x27, 0x73, 0xbe, 0xf6, 0xd8, 0x51, 0xbe,
  0x64, 0xbc, 0x6b, 0x3e, 0x94, 0x2b, 0xd9, 0x3d, 0xef, 0xeb, 0xe7, 0x3d,
  0x40, 0xf4, 0x9f, 0xbe, 0xb4, 0x41, 0x3b, 0x3f, 0x88, 0x0f, 0x39, 0x3d,
  0x9a, 0xfd, 0x35, 0x3f, 0x0a, 0x7d, 0xb7, 0xbe, 0xa8, 0xf3, 0x61, 0x3c,
  0x06, 0xe0, 0x51, 0xbe, 0x6d, 0x48, 0x8e, 0x3e, 0x69, 0xf4, 0xd9, 0xbe,
  0xbd, 0x87, 0x63, 0x3f, 0x5a, 0xe3, 0x1b, 0x3e, 0x42, 0xb9, 0x98, 0x3e,
  0x9f, 0x25, 0xa2, 0x3f, 0x41, 0x6e, 0x8c, 0xbd, 0x4f, 0xd3, 0x90, 0x3e,
  0xfa, 0xbd, 0xe0, 0x3e, 0x16, 0x17, 0x1a, 0x3e, 0x19, 0xab, 0x8e, 0x3e,
  0xf0, 0xec, 0xe8, 0x3c, 0x77, 0xc7, 0xae, 0x3e, 0xf8, 0x83, 0x95, 0x3e,
  0x42, 0x70, 0x7b, 0x3f, 0xe2, 0xd3, 0xa4, 0x3f, 0x4c, 0x74, 0x95, 0x3f,
  0x34, 0x76, 0x3a, 0xbe, 0x70, 0x49, 0x01, 0x3e, 0xd2, 0x9d, 0x8d, 0x3e,
  0xbc, 0x84, 0x95, 0xbe, 0xac, 0xce, 0x31, 0x3e, 0xc8, 0x82, 0x2a, 0x3e,
  0xe5, 0xf7, 0x0b, 0xbe, 0x0e, 0x75, 0x0a, 0xbe, 0xe4, 0x6b, 0x5e, 0xbe,
  0x08, 0x8d, 0xbe, 0x3e, 0x30, 0x33, 0xbd, 0xbd, 0xe6, 0x9c, 0x71, 0xbe,
  0x53, 0xb4, 0x90, 0xbe, 0x52, 0xd1, 0x5f, 0x3f, 0x41, 0x1e, 0x87, 0x3e,
  0x2c, 0x7b, 0xa1, 0x3f, 0x01, 0xbf, 0x06, 0xbe, 0x35, 0x24, 0x52, 0x3e,
  0x93, 0x5c, 0x3d, 0x3e, 0xb2, 0xd2, 0x17, 0xbd, 0x67, 0x50, 0x46, 0xbd,
  0xda, 0x52, 0x14, 0x3f, 0xeb, 0x67, 0x9e, 0xbd, 0xe5, 0x96, 0x08, 0x3e,
  0x36, 0x8b, 0x22, 0xbd, 0x66, 0xb1, 0x69, 0xbb, 0x60, 0xb7, 0xbd, 0x3d,
  0x68, 0xe7, 0x3f, 0x3f, 0xe7, 0x26, 0x43, 0x3f, 0xf3, 0x59, 0xbc, 0x3e,
  0x00, 0x3a, 0xe9, 0xbd, 0x82, 0xf8, 0x4f, 0xbe, 0xf4, 0xb5, 0xc8, 0x3c,
  0xb4, 0x6a, 0x89, 0x3e, 0x70, 0x24, 0x58, 0x3e, 0x17, 0xb1, 0x5c, 0x3c,
  0xe8, 0x3c, 0x68, 0x3e, 0xce, 0x87, 0xbb, 0x3f, 0x69, 0x9b, 0x60, 0xbe,
  0xb9, 0x73, 0xb9, 0xbf, 0xf6, 0xa2, 0xac, 0xbc, 0xb9, 0xbf, 0x45, 0x3e,
  0x5c, 0x77, 0x4e, 0x3e, 0x58, 0x62, 0xbc, 0xbf, 0xa8, 0xd1, 0xca, 0x3f,
  0x45, 0x3d, 0x5a, 0x3f, 0xb6, 0x17, 0x20, 0x3b, 0x14, 0x0e, 0x60, 0x3e,
  0xaf, 0x8b, 0x0a, 0xbe, 0x24, 0x4d, 0x5d, 0x3e, 0x7d, 0x4e, 0x1b, 0x3e,
  0x05, 0x2c, 0x79, 0x3e, 0xe9, 0x5c, 0x0d, 0xbf, 0x44, 0xc9, 0x0e, 0x3e,
  0xfb, 0x1f, 0x03, 0x3e, 0x3a, 0x7d, 0x66, 0x3e, 0x50, 0xd5, 0x90, 0xbe,
  0x11, 0xf5, 0x1f, 0x3f, 0x56, 0xee, 0x00, 0x3f, 0xdc, 0x3d, 0xc8, 0xbe,
  0x54, 0xf8, 0x80, 0xbe, 0xb0, 0x7d, 0x34, 0x3d, 0x63, 0x11, 0x85, 0xbe,
  0x2c, 0xd7, 0x66, 0x3e, 0xf0, 0x54, 0xf6, 0x3d, 0xce, 0xd2, 0xae, 0xbe,
  0xe3, 0xf0, 0x6d, 0xbe, 0xf3, 0x9b, 0xd8, 0x3f, 0x0e, 0x55, 0x8f, 0x3e,
  0xc9, 0xbe, 0x50, 0xbf, 0x87, 0x82, 0xe4, 0x3d, 0x0c, 0x20, 0x4e, 0xbe,
  0x8a, 0x5b, 0x65, 0xbe, 0xcd, 0xb1, 0x8f, 0xbf, 0x0b, 0xfb, 0x03, 0x40,
  0xd0, 0xab, 0x86, 0x3d, 0xb6, 0x45, 0x30, 0xbd, 0x74, 0x03, 0x4d, 0x3e,
  0x17, 0xc5, 0x59, 0x3e, 0x5d, 0x7a, 0xcc, 0x3c, 0x4a, 0x58, 0xe2, 0xbb,
  0x91, 0xe4, 0x18, 0x3f, 0x0b, 0x69, 0x2e, 0xbf, 0xc4, 0xde, 0xfe, 0xbc,
  0x20, 0x54, 0xb7, 0xbe, 0xe5, 0xf9, 0x4f, 0x3e, 0x37, 0xbb, 0x48, 0xbe,
  0x0c, 0x46, 0x60, 0x3f, 0xfc, 0x60, 0x45, 0x3f, 0x75, 0xd4, 0xab, 0x3e,
  0xf8, 0x5a, 0xa6, 0xbe, 0xf8, 0x24, 0x60, 0x3e, 0xb3, 0x25, 0x9f, 0xbe,
  0x40, 0x5a, 0x29, 0xbd, 0x53, 0xf4, 0x55, 0xbe, 0x22, 0xe2, 0xe9, 0x3d,
  0x84, 0xb2, 0xbb, 0xbd, 0x32, 0xfb, 0xab, 0x3f, 0x58, 0x4b, 0x5c, 0x3d,
  0xfb, 0x98, 0xb1, 0xbf, 0x39, 0x96, 0x96, 0x3d, 0x43, 0xa3, 0xed, 0x3c,
  0x0e, 0xb6, 0x84, 0xbe, 0x51, 0x4b, 0x98, 0xbf, 0x1c, 0xa6, 0xc0, 0x3f,
  0xfb, 0x5b, 0x60, 0x3f, 0x22, 0x7a, 0x27, 0x3e, 0x47, 0xaf, 0x13, 0xbe,
  0x9b, 0xe8, 0x2d, 0xbe, 0x3a, 0x42, 0x2d, 0xbe, 0x68, 0x63, 0x04, 0xbf,
  0xb7, 0xf7, 0xa7, 0x3c, 0x80, 0xdc, 0x28, 0x3e, 0x10, 0x83, 0x06, 0x3e,
  0x98, 0xec, 0xac, 0x3e, 0x33, 0x78, 0x01, 0xbe, 0x20, 0xf7, 0xe1, 0xbd,
  0xc6, 0xa4, 0x11, 0x3f, 0xfc, 0xe0, 0xc2, 0x3d, 0x73, 0x2c, 0xf4, 0xbf,
  0x05, 0x9d, 0x9d, 0xbe, 0x3d, 0x2e, 0x9f, 0xbe, 0x57, 0xff, 0x0d, 0xbe,
  0xb6, 0xce, 0x95, 0xbe, 0xac, 0xbd, 0x63, 0x3e, 0xc2, 0x0c, 0xf3, 0x3d,
  0xe9, 0xde, 0x9e, 0xbe, 0x5b, 0xb9, 0x80, 0x3e, 0x50, 0x33, 0x96, 0xbd,
  0x01, 0xb5, 0xc5, 0x3e, 0x6e, 0x16, 0x85, 0xbe, 0x1d, 0xef, 0x98, 0x3e,
  0xd8, 0x8c, 0x28, 0x3d, 0x98, 0x98, 0xa7, 0xbc, 0xe9, 0xc7, 0x83, 0xbf,
  0xcc, 0x57, 0x6e, 0x3f, 0x19, 0x67, 0xd9, 0xbd, 0xf0, 0x68, 0x93, 0x3d,
  0xac, 0x7a, 0xb6, 0xbd, 0x19, 0x62, 0x14, 0xbe, 0xc2, 0x71, 0x90, 0xbe,
  0x1a, 0x00, 0x2a, 0x3e, 0x80, 0x6a, 0x16, 0x3e, 0x82, 0x98, 0x86, 0xbe,
  0x1c, 0xb7, 0xca, 0x3d, 0xd5, 0x80, 0x80, 0xbe, 0xfc, 0x31, 0xd1, 0xbd,
  0xcc, 0x9c, 0x0f, 0xbd, 0x31, 0xbf, 0x9d, 0x3d, 0xb2, 0x16, 0xc0, 0xbe,
  0x94, 0xca, 0x7a, 0xbe, 0xae, 0xe9, 0x97, 0xbe, 0xcb, 0x9a, 0x12, 0xbe,
  0x4c, 0x2d, 0x97, 0xbd, 0x50, 0x2d, 0xf8, 0x3d, 0x45, 0x5f, 0x82, 0x3e,
  0x67, 0x26, 0xb5, 0xbe, 0x3e, 0x23, 0x97, 0xbe, 0x9c, 0x9f, 0x70, 0x3e,
  0xd2, 0x0a, 0xd5, 0xbd, 0x24, 0x3c, 0xb0, 0x3d, 0xc5, 0x9c, 0x1e, 0x3e,
  0x7e, 0x38, 0xb6, 0xbe, 0x72, 0x99, 0x10, 0xbe, 0x5e, 0xa2, 0x8c, 0x3e,
  0xe0, 0xc8, 0x4e, 0x3e, 0x30, 0x32, 0x7c, 0x3e, 0x2a, 0xe8, 0x88, 0x3e,
  0x3e, 0xaa, 0x9a, 0xbe, 0x47, 0x6b, 0x4c, 0xbe, 0xd5, 0x5d, 0x13, 0xbf,
  0xd0, 0x31, 0xec, 0xbe, 0xb4, 0xd8, 0x1a, 0x3e, 0xf0, 0x87, 0xd7, 0x3c,
  0x58, 0x4c, 0xf8, 0x3d, 0x80, 0xb4, 0x8a, 0xbc, 0x30, 0x34, 0x87, 0xbd,
  0x0c, 0x18, 0x38, 0xbe, 0x83, 0x1c, 0x31, 0x3d, 0x6e, 0x3a, 0x54, 0xbe,
  0x44, 0xb9, 0x5a, 0xbe, 0x0a, 0x5c, 0x3d, 0x3e, 0x84, 0x67, 0x8c, 0xbd,
  0x8e, 0x7a, 0xb9, 0x3e, 0x02, 0x53, 0xb9, 0xbe, 0xde, 0x5b, 0x8e, 0xbe,
  0xd4, 0x4e, 0x14, 0x3e, 0xd9, 0x8b, 0x8a, 0xbe, 0xe1, 0x20, 0x84, 0xbe,
  0x20, 0x1e, 0x98, 0x3d, 0xa9, 0xb2, 0x6e, 0x3e, 0xfc, 0x58, 0xd2, 0x3c,
  0x24, 0xf8, 0x40, 0x3e, 0x98, 0x6b, 0xe6, 0xbe, 0x37, 0x45, 0x79, 0x3e,
  0x6e, 0x2b, 0xd4, 0xbe, 0x3d, 0x18, 0x47, 0xbe, 0x00, 0x78, 0x95, 0x3e,
  0x07, 0xb6, 0xa1, 0xbe, 0xc8, 0x49, 0x40, 0x3e, 0x0b, 0x32, 0xc1, 0xbe,
  0x98, 0x27, 0xd4, 0xbd, 0x2b, 0x1c, 0x57, 0x3e, 0x62, 0x4c, 0x49, 0xbe,
  0x54, 0x39, 0xbe, 0xbd, 0x84, 0x73, 0x91, 0xbe, 0xb4, 0x85, 0x50, 0xbe,
  0x89, 0x38, 0x77, 0x3e, 0x58, 0x86, 0xad, 0xbe, 0x57, 0xe1, 0xf8, 0xbf,
  0x30, 0x6e, 0x71, 0x3d, 0x20, 0x41, 0x66, 0x3c, 0xdf, 0x3a, 0x66, 0xbe,
  0xe9, 0x18, 0x9f, 0xbe, 0xf4, 0x27, 0xcf, 0x3d, 0x3b, 0x19, 0x83, 0xbe,
  0xe8, 0x6f, 0x15, 0x3e, 0x48, 0x01, 0xd1, 0x3f, 0x00, 0xad, 0xa0, 0x3d,
  0x29, 0x98, 0xf4, 0x3d, 0x40, 0xde, 0x59, 0x3c, 0xe6, 0x8f, 0x7d, 0xbe,
  0x60, 0x3c, 0x67, 0xbc, 0xb1, 0x8e, 0x0a, 0x3e, 0xb6, 0xb0, 0x35, 0x3f,
  0x36, 0xa8, 0x8d, 0x3e, 0xc5, 0x3c, 0x1a, 0x3d, 0x30, 0xbc, 0xcc, 0x3d,
  0x77, 0x6b, 0xc6, 0x3f, 0xba, 0x66, 0x2a, 0xbe, 0xbe, 0x46, 0xc7, 0x3e,
  0x74, 0x4c, 0x55, 0x3f, 0x30, 0x1c, 0xbb, 0x3e, 0x54, 0xfe, 0x91, 0x3e,
  0x3b, 0xdb, 0x58, 0xbe, 0xca, 0x4d, 0x8e, 0xbd, 0xc0, 0x1a, 0x53, 0x3c,
  0x17, 0x3d, 0x8d, 0x3f, 0x79, 0x6e, 0xee, 0x3f, 0x81, 0x10, 0x9f, 0x3f,
  0x84, 0xef, 0x68, 0x3e, 0xd8, 0x62, 0xe1, 0xbd, 0x41, 0x5b, 0x83, 0xbe,
  0xf4, 0x18, 0xa1, 0x3d, 0x80, 0x37, 0x77, 0x3d, 0x49, 0xe3, 0x8b, 0x3e,
  0xa8, 0x30, 0x77, 0xbd, 0xbe, 0xab, 0x77, 0x3e, 0xa7, 0x7e, 0x8a, 0xbe,
  0x85, 0x81, 0x05, 0x3e, 0x9f, 0x37, 0xa5, 0xbe, 0xdd, 0xdb, 0xf8, 0xbd,
  0x50, 0xb7, 0xfe, 0x3c, 0xd0, 0x87, 0x94, 0x3f, 0x29, 0xd9, 0x26, 0x3e,
  0x83, 0x3a, 0xb1, 0x3f, 0x2a, 0xb7, 0xff, 0xff, 0x10, 0x00, 0x00, 0x00,
  0x06, 0x00, 0x00, 0x00, 0x14, 0x00, 0x00, 0x00, 0x30, 0x00, 0x00, 0x00,
  0x02, 0x00, 0x00, 0x00, 0x0f, 0x00, 0x00, 0x00, 0x1e, 0x00, 0x00, 0x00,
  0x19, 0x00, 0x00, 0x00, 0x73, 0x65, 0x71, 0x75, 0x65, 0x6e, 0x74, 0x69,
  0x61, 0x6c, 0x2f, 0x64, 0x65, 0x6e, 0x73, 0x65, 0x5f, 0x31, 0x2f, 0x4d,
  0x61, 0x74, 0x4d, 0x75, 0x6c, 0x00, 0x00, 0x00, 0x28, 0xb7, 0xff, 0xff,
  0x56, 0xb8, 0xff, 0xff, 0x04, 0x00, 0x00, 0x00, 0x50, 0x46, 0x00, 0x00,
  0x55, 0x90, 0x82, 0xbd, 0x00, 0xd5, 0x01, 0x3e, 0x9a, 0x84, 0xf8, 0x3d,
  0xf6, 0x6a, 0x0d, 0xbd, 0xe7, 0xaf, 0x1c, 0x3e, 0x7e, 0xf2, 0x59, 0xbe,
  0xdf, 0xb0, 0x2d, 0x3d, 0x61, 0x44, 0xe3, 0x3d, 0x18, 0x86, 0xcb, 0xbd,
  0x1a, 0x8b, 0x24, 0xbe, 0x22, 0x9b, 0xbf, 0xbd, 0xb0, 0x9f, 0xf3, 0x3c,
  0x5a, 0x63, 0x1b, 0xbe, 0xee, 0x00, 0x0a, 0x3c, 0x85, 0x3e, 0x4d, 0xbe,
  0xa6, 0x8c, 0xcb, 0x3d, 0x5e, 0x14, 0x67, 0xbc, 0xa5, 0x91, 0xeb, 0x3d,
  0xcf, 0xef, 0x5b, 0xbe, 0x37, 0x9e, 0x7b, 0xbd, 0x9f, 0xd8, 0x52, 0xbe,
  0xaa, 0x7a, 0xfa, 0xbc, 0xa8, 0x8c, 0x29, 0xbc, 0x7c, 0xad, 0x05, 0x3d,
  0xe3, 0x70, 0x12, 0x3d, 0x52, 0x6b, 0x08, 0xbe, 0x9a, 0xab, 0x40, 0xbd,
  0x1f, 0xb9, 0xef, 0xbd, 0x5b, 0x8e, 0x14, 0xbd, 0x1a, 0xb3, 0x8a, 0x3d,
  0xd9, 0x2b, 0xeb, 0x3d, 0x48, 0xff, 0x4b, 0x3c, 0x9f, 0xfe, 0x0c, 0xbe,
  0xf3, 0xfc, 0xac, 0x3d, 0x1e, 0x7b, 0xcc, 0xbd, 0x2a, 0xa1, 0x53, 0xbe,
  0xd4, 0x24, 0x06, 0xbc, 0xfe, 0x19, 0xd0, 0x3d, 0x51, 0xc1, 0x67, 0x3c,
  0xee, 0x68, 0x40, 0xbc, 0xb2, 0xd9, 0xd3, 0x3d, 0xea, 0x4f, 0x74, 0x3c,
  0x97, 0x97, 0xff, 0x3d, 0x2f, 0xf2, 0x08, 0x3d, 0x22, 0xc1, 0x5f, 0x3d,
  0xb8, 0xdf, 0x43, 0xbd, 0xbf, 0xf8, 0x67, 0x3d, 0xa0, 0xed, 0xb2, 0x3a,
  0x9f, 0xfb, 0xe2, 0xbd, 0x1b, 0xb5, 0xd3, 0xbd, 0x47, 0x37, 0x33, 0x3c,
  0x50, 0xda, 0x99, 0x3d, 0x64, 0x00, 0xf4, 0xbd, 0x9e, 0x8a, 0xa3, 0xbd,
  0x4f, 0xf5, 0x23, 0x3d, 0x5a, 0x56, 0x21, 0xbe, 0xef, 0x12, 0xb2, 0x3c,
  0xb9, 0xd0, 0x18, 0xbe, 0xef, 0x0d, 0x20, 0xbe, 0x49, 0xdf, 0xa9, 0x3d,
  0xa2, 0xcd, 0x5c, 0xbd, 0xc2, 0x2d, 0xbd, 0x3d, 0x20, 0xa7, 0x2a, 0xbc,
  0xb4, 0xde, 0xe9, 0x3d, 0xb9, 0x60, 0x26, 0x3e, 0x85, 0xbc, 0x0d, 0x3e,
  0xcb, 0x30, 0x1e, 0xbe, 0xf8, 0x2c, 0x8c, 0x3b, 0x32, 0x22, 0x42, 0xbe,
  0x5a, 0xee, 0xdb, 0x3c, 0xba, 0x2a, 0x98, 0xbd, 0xc2, 0x8c, 0x80, 0xbd,
  0xfb, 0xac, 0x21, 0x3c, 0x3f, 0x39, 0x45, 0x3d, 0x4d, 0xa2, 0x08, 0xbe,
  0x42, 0x0e, 0x1b, 0xbe, 0x16, 0x14, 0x14, 0x3c, 0x27, 0xa8, 0xd0, 0x3d,
  0xe5, 0xd4, 0xcb, 0xbb, 0xb5, 0xde, 0x67, 0x3e, 0x0e, 0xa3, 0xcf, 0xbd,
  0x61, 0x47, 0xe3, 0xbd, 0x85, 0x76, 0xe4, 0xbd, 0x77, 0x1a, 0x87, 0xbc,
  0x14, 0x56, 0x4c, 0xbc, 0x75, 0x90, 0x39, 0x3d, 0xe5, 0xeb, 0x33, 0xbe,
  0x3e, 0x48, 0x09, 0x3d, 0x65, 0x29, 0x32, 0x3d, 0x64, 0x0f, 0x37, 0x3d,
  0xa0, 0xfe, 0x25, 0xbe, 0x90, 0xe5, 0x84, 0x3c, 0xf0, 0xb8, 0x0e, 0x3e,
  0xd1, 0xa2, 0xca, 0x3d, 0x50, 0x3b, 0x33, 0x3d, 0xda, 0x60, 0x05, 0xbe,
  0x71, 0xf8, 0x4a, 0x3e, 0x2a, 0x14, 0x04, 0x3e, 0x18, 0x6b, 0xb3, 0x3a,
  0x16, 0x11, 0xac, 0x3d, 0x94, 0x2d, 0x28, 0xbd, 0xdf, 0x31, 0x01, 0x3e,
  0xf3, 0xa9, 0x1e, 0x3d, 0x75, 0x86, 0xa5, 0xbd, 0x44, 0xba, 0x03, 0x3e,
  0xcf, 0x78, 0x7d, 0xbc, 0x95, 0xad, 0x16, 0xbe, 0x0d, 0xa2, 0x8e, 0x3d,
  0x38, 0xd2, 0x08, 0x3e, 0x82, 0x46, 0xe8, 0xbd, 0x0a, 0xff, 0x1a, 0xbd,
  0x44, 0x4a, 0x18, 0xbe, 0x9c, 0x06, 0x12, 0x3e, 0x07, 0x48, 0xb1, 0x3d,
  0x60, 0xd0, 0xb2, 0xbd, 0x53, 0x28, 0xb6, 0xbd, 0x9c, 0x36, 0x09, 0xbe,
  0x1f, 0xe2, 0x43, 0x3e, 0xff, 0x3b, 0xc6, 0x3d, 0xa6, 0xfb, 0x19, 0x3d,
  0xa7, 0xa9, 0x57, 0x3e, 0x23, 0xd0, 0x9f, 0xbd, 0xc7, 0x82, 0xbf, 0x3d,
  0x7a, 0x07, 0xbb, 0x3c, 0x92, 0x93, 0x85, 0x3b, 0xab, 0xfd, 0xc5, 0x3d,
  0xe9, 0x30, 0xdb, 0x3d, 0xb8, 0x28, 0x7d, 0xbd, 0x18, 0x06, 0x19, 0xbe,
  0x1f, 0x51, 0x4e, 0x3e, 0x3b, 0x84, 0xa5, 0xbd, 0xdc, 0x2a, 0xc0, 0xbd,
  0x65, 0xdc, 0x00, 0xbd, 0xd9, 0xe2, 0x55, 0x3d, 0xf2, 0x15, 0x00, 0xbe,
  0x0c, 0xb7, 0x94, 0xbd, 0x4e, 0xfa, 0x07, 0x3e, 0x67, 0x10, 0x11, 0x3e,
  0xcd, 0xaf, 0xe2, 0xbc, 0xf8, 0x53, 0x3f, 0xbc, 0xd2, 0x63, 0x82, 0xbc,
  0xfc, 0x12, 0x58, 0x3e, 0x84, 0x82, 0xb7, 0xbd, 0x12, 0x79, 0x99, 0xbd,
  0xc4, 0x16, 0x5a, 0xbd, 0x81, 0xd4, 0xd9, 0xbd, 0x28, 0xa1, 0xdd, 0x3a,
  0x56, 0xb0, 0xbf, 0xbd, 0x88, 0x0c, 0x62, 0x3d, 0xb1, 0x88, 0x9d, 0x3d,
  0x4d, 0xfc, 0x62, 0x3c, 0xf8, 0xb7, 0xb2, 0x3d, 0x91, 0x0c, 0x1b, 0x3e,
  0x51, 0x60, 0x1b, 0x3e, 0x2c, 0xaa, 0x3b, 0xbe, 0x79, 0x4e, 0x14, 0x3d,
  0x05, 0x63, 0x04, 0xbe, 0xaa, 0xd9, 0x91, 0x3d, 0xcd, 0xab, 0x80, 0x3d,
  0x53, 0xcf, 0xd1, 0xbd, 0x9b, 0x46, 0xc9, 0x3d, 0xa4, 0xcd, 0x13, 0xbe,
  0x65, 0x71, 0x29, 0x3e, 0x06, 0x99, 0x34, 0x3d, 0xcc, 0x98, 0xdf, 0xbd,
  0x1b, 0xd0, 0xec, 0xbd, 0x8c, 0xc7, 0x81, 0x3c, 0x62, 0x75, 0xfd, 0xbd,
  0x59, 0xd2, 0xaf, 0xbc, 0x92, 0x25, 0x21, 0x3e, 0x5e, 0xe8, 0x30, 0x3d,
  0x00, 0x29, 0xc5, 0xbd, 0x8a, 0xdf, 0x49, 0x3c, 0x9f, 0x49, 0x31, 0xbe,
  0x7c, 0x28, 0x8b, 0x3d, 0x48, 0x33, 0xf3, 0x3d, 0x62, 0x0c, 0x06, 0xbe,
  0xf0, 0xb6, 0x03, 0xbe, 0x6c, 0x3a, 0x00, 0xbd, 0xae, 0xcb, 0xe8, 0x3d,
  0xe4, 0xa4, 0x02, 0x3c, 0xe0, 0xc3, 0xf0, 0x3d, 0xd1, 0x2e, 0xe0, 0xbd,
  0x14, 0xbc, 0xac, 0xbc, 0x90, 0xb6, 0x44, 0xbc, 0x66, 0x05, 0x15, 0xbe,
  0x58, 0xca, 0x37, 0xbe, 0xc2, 0x30, 0x33, 0x3e, 0xbb, 0xde, 0x83, 0xbd,
  0xf4, 0x1b, 0x1b, 0x3e, 0xd2, 0xe1, 0x2b, 0x3e, 0x1d, 0x0d, 0x83, 0xbd,
  0x93, 0x73, 0x1b, 0xbe, 0x90, 0x7c, 0x0e, 0xbe, 0xbf, 0xb2, 0x50, 0x3c,
  0x87, 0x2e, 0xed, 0xbd, 0x0c, 0xc2, 0xce, 0xbd, 0x7c, 0x36, 0x0c, 0x3e,
  0x5d, 0xbe, 0xde, 0xbd, 0xb8, 0x8b, 0x23, 0x3e, 0x26, 0x67, 0xfb, 0x3d,
  0x51, 0x07, 0x26, 0xbe, 0x1c, 0xb0, 0x02, 0x3e, 0x35, 0x05, 0xbd, 0xbd,
  0x02, 0x27, 0x21, 0x3e, 0x93, 0x95, 0x85, 0x3d, 0x54, 0xfe, 0xd2, 0x3d,
  0xf4, 0x39, 0x1e, 0xbe, 0xad, 0xb9, 0xd8, 0x3d, 0x5c, 0xdf, 0x41, 0xbd,
  0xe6, 0x68, 0x48, 0x3d, 0xe2, 0x59, 0xb9, 0x3d, 0xa1, 0x7e, 0x00, 0x3c,
  0xd2, 0xb2, 0x51, 0x3b, 0x07, 0xca, 0x1b, 0x3e, 0xa3, 0xd7, 0xc5, 0x3d,
  0x66, 0xf0, 0xe6, 0xbc, 0x54, 0x90, 0xc4, 0xbd, 0xbe, 0x64, 0x36, 0xbe,
  0xd4, 0x15, 0x54, 0x3d, 0xc7, 0x83, 0xf3, 0x3d, 0x90, 0x7b, 0x04, 0xbe,
  0xd1, 0x05, 0x91, 0xbd, 0xb2, 0xe9, 0xda, 0x3d, 0x63, 0x20, 0x29, 0x3d,
  0x23, 0xd0, 0xc8, 0xbd, 0x10, 0x1e, 0x37, 0xba, 0xea, 0x75, 0x15, 0x3e,
  0xc4, 0x80, 0xc3, 0xbc, 0xad, 0xd3, 0xf9, 0x3c, 0xda, 0x71, 0x14, 0x3e,
  0x77, 0x10, 0xcf, 0x3c, 0xa5, 0xf7, 0xac, 0xbd, 0x24, 0x9d, 0xdd, 0xbd,
  0x95, 0xab, 0xf6, 0xbd, 0x69, 0x69, 0x23, 0xbe, 0x74, 0x54, 0x1c, 0xbe,
  0x1a, 0x31, 0x35, 0xbe, 0x3e, 0x24, 0xa6, 0x3d, 0xb8, 0x94, 0xb8, 0x3d,
  0xb6, 0x86, 0xbd, 0x3d, 0x44, 0x92, 0x9c, 0x3d, 0x4c, 0x0c, 0x67, 0x3d,
  0xc4, 0x96, 0x7a, 0xbd, 0xee, 0x7e, 0x68, 0x3b, 0x37, 0x8f, 0x3b, 0xbe,
  0x65, 0x3e, 0x30, 0xbe, 0x10, 0x86, 0x35, 0xbe, 0x24, 0x82, 0x5d, 0x3d,
  0x34, 0xc2, 0xc5, 0x3d, 0xbc, 0x00, 0x92, 0xbc, 0x75, 0x80, 0x6b, 0xbd,
  0x4c, 0xfd, 0x84, 0x3d, 0xa2, 0x27, 0x36, 0xbe, 0x90, 0x35, 0x19, 0xbe,
  0x61, 0x74, 0x7b, 0xbd, 0xbc, 0x84, 0x6e, 0x3d, 0x9e, 0x86, 0x84, 0xbd,
  0x99, 0xe2, 0x34, 0xbe, 0x63, 0xb7, 0x21, 0xbe, 0x96, 0x30, 0xcc, 0x3d,
  0x36, 0xd8, 0x92, 0xbd, 0x22, 0x08, 0xaa, 0xbd, 0xdd, 0xc3, 0xe1, 0x3d,
  0xbf, 0x24, 0x2d, 0xbe, 0x54, 0xaa, 0xcc, 0xbd, 0x0d, 0xd6, 0x9d, 0x3d,
  0x1f, 0x13, 0xd1, 0x3d, 0xe0, 0x78, 0x54, 0xbd, 0x05, 0x38, 0x2a, 0x3e,
  0x0e, 0xf7, 0x5d, 0xbb, 0x62, 0xa6, 0x0a, 0x3e, 0x8d, 0xa5, 0x1b, 0x3e,
  0x0c, 0xdc, 0xd7, 0xbd, 0x5c, 0x9d, 0x06, 0x3e, 0x1a, 0x6a, 0xf5, 0xbd,
  0x61, 0x5d, 0x5d, 0x3d, 0xc7, 0x5a, 0xfa, 0xbd, 0x8c, 0x98, 0xfa, 0xbd,
  0x34, 0xcc, 0xd7, 0x3d, 0xa0, 0x96, 0x20, 0x3e, 0x93, 0x8d, 0x39, 0x3d,
  0xe2, 0xbf, 0x88, 0x3c, 0x24, 0x89, 0x2b, 0xbe, 0xc0, 0x5e, 0x1c, 0x3e,
  0xca, 0xe2, 0x06, 0xbd, 0x4d, 0x15, 0x1c, 0xbd, 0xb2, 0x7b, 0x2d, 0x3d,
  0x61, 0x5f, 0xd2, 0x3d, 0x05, 0xfc, 0xa4, 0x3d, 0xd4, 0xa1, 0x4e, 0x3d,
  0x38, 0x31, 0xc0, 0xbc, 0x07, 0xe5, 0x0f, 0xbe, 0xae, 0xf4, 0x03, 0xbb,
  0x50, 0x75, 0x16, 0xbe, 0x93, 0x88, 0xf8, 0x3c, 0xa2, 0x77, 0x4d, 0x3d,
  0x5d, 0x47, 0xa1, 0x3d, 0x0a, 0xa9, 0xa1, 0x3d, 0x63, 0xf7, 0x94, 0x3d,
  0xbe, 0x3c, 0x53, 0x3e, 0xd2, 0xd2, 0xd9, 0xbd, 0xdc, 0x1d, 0xad, 0x3e,
  0x22, 0x5a, 0x17, 0xbc, 0x20, 0xc0, 0x84, 0x3e, 0x52, 0x4c, 0x66, 0xbd,
  0x20, 0x36, 0x06, 0x3c, 0xd2, 0x8f, 0x48, 0x3e, 0x8b, 0xa7, 0x1e, 0xbe,
  0x83, 0xa8, 0xb0, 0xbd, 0xaa, 0xc9, 0xd7, 0x3d, 0xa5, 0x82, 0x0b, 0x3d,
  0x56, 0x55, 0x1d, 0x3e, 0x0e, 0xe0, 0x0b, 0xbe, 0x6e, 0x6e, 0x2c, 0xbd,
  0xb7, 0x96, 0x79, 0xbd, 0xb2, 0x49, 0xc9, 0xbd, 0xb1, 0xa4, 0x02, 0xbe,
  0x61, 0x3f, 0xd6, 0xbd, 0x5a, 0xc0, 0x01, 0xbe, 0x9c, 0x31, 0xa3, 0xbb,
  0xcb, 0x4e, 0x80, 0x3d, 0x9e, 0xd5, 0xf9, 0x3d, 0xd2, 0x9d, 0x1b, 0x3e,
  0x45, 0x1b, 0xa9, 0x3e, 0x0d, 0x0f, 0xc7, 0xbd, 0xa5, 0x69, 0xce, 0x3c,
  0x99, 0x9e, 0x36, 0x3c, 0x4a, 0xe4, 0x0b, 0x3d, 0x4e, 0x69, 0xd6, 0x3d,
  0x5d, 0x2d, 0x95, 0x3c, 0x1a, 0x93, 0xa1, 0x3d, 0x77, 0x1f, 0xe7, 0x3c,
  0xc7, 0xdb, 0xcc, 0x3e, 0x35, 0x8d, 0x07, 0xbe, 0x06, 0x69, 0xd9, 0xbd,
  0xe9, 0x6f, 0xf8, 0x3d, 0x44, 0x78, 0xd5, 0x3e, 0xa3, 0x3c, 0xa8, 0x3e,
  0xa4, 0xb0, 0x03, 0x3e, 0x9b, 0x8a, 0xb9, 0x3e, 0x2b, 0x1c, 0xdb, 0x3d,
  0xbe, 0x81, 0xad, 0xbd, 0x33, 0xd3, 0x2d, 0xbc, 0x6b, 0xcd, 0xb2, 0xbd,
  0x10, 0x33, 0x21, 0x3e, 0xd9, 0x08, 0xc1, 0x3d, 0x48, 0x34, 0x20, 0xbe,
  0xa4, 0xec, 0xf8, 0x3e, 0x9d, 0xd9, 0x2c, 0x3d, 0xfe, 0x5a, 0x20, 0xbe,
  0x75, 0x26, 0xd3, 0x3e, 0x6d, 0x8d, 0x81, 0x3d, 0xc8, 0x63, 0x0e, 0xbe,
  0x3e, 0x78, 0x27, 0x3e, 0xa9, 0xd4, 0x10, 0x3e, 0x54, 0x10, 0xbd, 0xbe,
  0x64, 0x2b, 0xb8, 0x3d, 0x80, 0x08, 0x8e, 0x3c, 0xb3, 0x02, 0x28, 0xbd,
  0x15, 0xd3, 0xb1, 0x3e, 0x2c, 0x7a, 0xee, 0x3d, 0x57, 0x38, 0x02, 0xbe,
  0x45, 0x0a, 0x9b, 0x3e, 0x27, 0xb3, 0x23, 0x3d, 0xd4, 0x86, 0x73, 0xbe,
  0x52, 0xbe, 0xd4, 0x3d, 0x38, 0xcb, 0x36, 0x3d, 0xb9, 0x73, 0xcf, 0xbd,
  0x9f, 0xfa, 0x8f, 0x3d, 0x34, 0x56, 0x41, 0x3c, 0xf7, 0x87, 0x4c, 0x3c,
  0x32, 0x1b, 0x96, 0xbd, 0x5e, 0x34, 0x25, 0x3e, 0xd4, 0xf7, 0x8e, 0x3d,
  0xe7, 0x6d, 0x65, 0x3e, 0xb7, 0xef, 0x25, 0x3c, 0x3d, 0x83, 0x86, 0xbe,
  0x6f, 0x68, 0x84, 0x3e, 0xa9, 0xa8, 0xfb, 0x3d, 0x3d, 0xac, 0x45, 0x3d,
  0xf7, 0x56, 0x3c, 0x3e, 0xe3, 0x04, 0x84, 0x3c, 0x56, 0x92, 0x4c, 0x3e,
  0xe2, 0xd4, 0xd8, 0x3d, 0xe5, 0xe9, 0x29, 0xbe, 0x0c, 0xb8, 0x96, 0x3d,
  0x40, 0x0e, 0xa3, 0x3e, 0x7c, 0x2e, 0xc4, 0xbd, 0x2f, 0x19, 0x2d, 0xbe,
  0xdf, 0xe0, 0x42, 0x3e, 0x35, 0xd2, 0x7f, 0xbe, 0x7f, 0x33, 0x70, 0x3d,
  0x27, 0x43, 0xff, 0x3e, 0xa6, 0xa4, 0x0f, 0xbd, 0xe2, 0xdd, 0x48, 0xbe,
  0x55, 0xd8, 0x0b, 0x3f, 0x82, 0x01, 0xbc, 0xbe, 0x4b, 0x02, 0x0f, 0x3e,
  0x68, 0x40, 0x8c, 0x3e, 0x6e, 0xbb, 0x7c, 0xbe, 0x68, 0xbc, 0x05, 0xbd,
  0x5b, 0x6d, 0xcb, 0x3e, 0x04, 0x66, 0x2d, 0xbf, 0x78, 0x89, 0x14, 0x3e,
  0xb2, 0x07, 0xfe, 0x3e, 0xc1, 0x16, 0x20, 0xbf, 0x23, 0x0b, 0xa6, 0xbc,
  0xeb, 0xf7, 0xaf, 0x3e, 0xe0, 0xf9, 0x1f, 0xbf, 0xaa, 0xb1, 0x91, 0xbc,
  0x4e, 0xf5, 0x26, 0x3e, 0x18, 0x00, 0x41, 0xbf, 0xc1, 0xf6, 0x85, 0x3d,
  0xfa, 0x55, 0x33, 0x3e, 0xf9, 0xe0, 0x9a, 0xbe, 0x1a, 0xe2, 0x2f, 0x3e,
  0xc9, 0x71, 0x47, 0xbb, 0x2c, 0x5b, 0x8e, 0xbd, 0x9c, 0xfd, 0x06, 0x3d,
  0x2d, 0x95, 0x03, 0x3e, 0x39, 0xdf, 0x61, 0xbe, 0x41, 0xda, 0x97, 0xbd,
  0xe5, 0xa1, 0x0a, 0x3e, 0x98, 0x9c, 0xb9, 0xbd, 0x0a, 0x62, 0x44, 0x3e,
  0x4e, 0x61, 0x7b, 0xbe, 0x4b, 0xda, 0x94, 0xbd, 0x6e, 0xd7, 0x32, 0x3e,
  0x6d, 0x19, 0x8d, 0xbe, 0x5c, 0xb0, 0x95, 0xbe, 0xd9, 0xfb, 0x3b, 0xbe,
  0x00, 0x97, 0x92, 0xbe, 0x9f, 0xe5, 0x96, 0xbe, 0xda, 0xb4, 0xdf, 0xbc,
  0x88, 0x7f, 0x3f, 0xbd, 0x8c, 0x81, 0xb8, 0xbe, 0x7c, 0xe7, 0x2e, 0xbc,
  0x87, 0xd0, 0x56, 0xbe, 0x32, 0x56, 0x49, 0xbe, 0x5d, 0xdc, 0x3c, 0x3d,
  0xe2, 0x01, 0xce, 0xbe, 0x60, 0xaa, 0x41, 0xbe, 0x18, 0x39, 0x25, 0x3e,
  0xbb, 0x66, 0xb5, 0xbe, 0x30, 0x29, 0xaf, 0xbe, 0x60, 0xee, 0x07, 0x3e,
  0x4f, 0x08, 0xf0, 0xbe, 0xbc, 0x13, 0xa3, 0xbe, 0x45, 0xb1, 0x48, 0x3e,
  0xa8, 0x15, 0x3b, 0x3f, 0x98, 0x92, 0x0c, 0x3f, 0xe4, 0x3e, 0x8d, 0x3e,
  0xb1, 0xbe, 0x13, 0x3f, 0xa8, 0x72, 0x39, 0x3e, 0x16, 0x6b, 0xfe, 0x3e,
  0x36, 0x3e, 0x35, 0x3f, 0xcb, 0x20, 0x70, 0x3e, 0x9d, 0x0c, 0xbc, 0x3e,
  0x04, 0xb7, 0x0b, 0x3f, 0x6a, 0x94, 0xdc, 0x3d, 0x6b, 0xec, 0xbe, 0x3e,
  0xeb, 0x14, 0x27, 0x3f, 0x11, 0xf9, 0x8c, 0x3d, 0x10, 0x3b, 0xac, 0x3e,
  0x15, 0x4c, 0xe0, 0x3e, 0x13, 0x1f, 0xe9, 0x3e, 0x58, 0x43, 0x36, 0x3d,
  0xf2, 0xea, 0x8a, 0x3e, 0xab, 0x99, 0x08, 0x3e, 0x1c, 0xc1, 0xdb, 0x3e,
  0xc1, 0x38, 0x07, 0x3f, 0x3a, 0xb9, 0xeb, 0x3d, 0xec, 0x87, 0xe7, 0x3d,
  0x14, 0xe0, 0xc9, 0x3e, 0x79, 0x16, 0x0f, 0xbd, 0x6b, 0x42, 0x37, 0x3e,
  0xe9, 0x32, 0xfe, 0x3e, 0x87, 0xb1, 0xcb, 0x3d, 0xb8, 0xf1, 0x83, 0x3e,
  0x01, 0x4b, 0x24, 0x3f, 0x59, 0x02, 0xff, 0x3e, 0xbe, 0xe0, 0x79, 0x3e,
  0xdc, 0x96, 0x17, 0x3f, 0x12, 0x02, 0xa5, 0x3e, 0x36, 0x32, 0x03, 0x3f,
  0xae, 0x09, 0x39, 0x3f, 0x52, 0xc6, 0xa0, 0x3e, 0x8f, 0x0e, 0x76, 0x3e,
  0x3b, 0xa4, 0x8c, 0x3f, 0x9a, 0xc7, 0x3d, 0xbe, 0xe9, 0xc1, 0x19, 0x3e,
  0xb6, 0xae, 0x2d, 0x3f, 0x03, 0xd7, 0x94, 0x3d, 0xd7, 0x08, 0xec, 0x3d,
  0xcd, 0x26, 0xb9, 0x3e, 0x90, 0x2a, 0xcd, 0x3c, 0x68, 0xf8, 0xba, 0x3e,
  0xb8, 0xe5, 0xd9, 0x3e, 0x4a, 0xd1, 0x9b, 0x3e, 0x0f, 0x4c, 0xcb, 0x3e,
  0x15, 0xa2, 0x0c, 0x3f, 0x8f, 0xbd, 0x82, 0x3d, 0x60, 0xa9, 0x73, 0x3e,
  0xec, 0xab, 0xcf, 0x3e, 0xe3, 0x18, 0x4e, 0x3e, 0x7a, 0xee, 0x1f, 0x3e,
  0x23, 0x44, 0xf8, 0x3e, 0xd9, 0x0a, 0x0f, 0x3e, 0x33, 0xba, 0xc9, 0x3e,
  0x55, 0xb5, 0x09, 0x3f, 0xcd, 0x9d, 0x22, 0x3e, 0xd0, 0x60, 0x32, 0x3e,
  0x8a, 0xa7, 0x87, 0x3e, 0x80, 0xb6, 0x33, 0x3e, 0xbe, 0xe3, 0x07, 0x3e,
  0xe0, 0x34, 0xaa, 0x3e, 0xcc, 0x9e, 0x18, 0xbe, 0x97, 0x36, 0x68, 0x3e,
  0x12, 0x84, 0xb6, 0x3e, 0xdd, 0x46, 0x23, 0xbd, 0x13, 0x76, 0x1b, 0x3e,
  0x7d, 0x93, 0xae, 0x3e, 0x7d, 0x8f, 0xe7, 0x3d, 0x1a, 0x50, 0x59, 0x3e,
  0x9a, 0xbf, 0x0b, 0x3f, 0xc6, 0xa0, 0x39, 0x3e, 0x9c, 0x98, 0xab, 0x3e,
  0x9d, 0xbb, 0x88, 0x3e, 0xd0, 0x89, 0x8d, 0x3e, 0xbc, 0x5a, 0x57, 0x3e,
  0x5d, 0x7b, 0xf3, 0x3e, 0xc3, 0xb3, 0x8c, 0xbd, 0xfc, 0x85, 0xa9, 0x3e,
  0x68, 0xc8, 0x8a, 0x3e, 0xb4, 0x50, 0x77, 0x3e, 0x85, 0xe5, 0x37, 0x3e,
  0x9f, 0xdb, 0xcc, 0x3e, 0x8c, 0x8a, 0x9b, 0x3e, 0x6a, 0x37, 0x47, 0x3e,
  0x96, 0xed, 0xb1, 0x3e, 0xf1, 0x4d, 0xab, 0x3e, 0x38, 0x48, 0xba, 0x3e,
  0x40, 0x13, 0xc7, 0x3d, 0x06, 0x5f, 0xa8, 0x3d, 0x61, 0xbb, 0xf1, 0x3e,
  0xec, 0xe7, 0x9e, 0x3e, 0xaa, 0x97, 0x98, 0x3e, 0x2c, 0xae, 0xa4, 0x3d,
  0x03, 0x38, 0xa9, 0x3e, 0xa7, 0xef, 0x65, 0x3e, 0x5b, 0xe5, 0x7c, 0x3d,
  0x48, 0x0d, 0x98, 0x3e, 0x9e, 0x62, 0x86, 0x3e, 0xff, 0x9d, 0x74, 0x3e,
  0x04, 0x3a, 0x35, 0x3e, 0x33, 0xb1, 0xac, 0x3e, 0x87, 0x70, 0x60, 0x3e,
  0xc2, 0x5c, 0x11, 0x3f, 0x6e, 0x3f, 0x09, 0xbe, 0x91, 0xb4, 0xdb, 0x3e,
  0x72, 0xed, 0x96, 0x3e, 0x3b, 0xb0, 0x4c, 0x3d, 0x32, 0x98, 0xd0, 0x3e,
  0xc0, 0x74, 0xe4, 0x3c, 0x6d, 0xf0, 0x42, 0x3d, 0xe7, 0xe3, 0x3b, 0x3e,
  0x77, 0xef, 0x0c, 0x3e, 0xb0, 0xfc, 0x37, 0xbe, 0xbb, 0x9b, 0x0c, 0x3f,
  0x56, 0x7d, 0x31, 0x3e, 0x9e, 0x85, 0x87, 0xbc, 0xcf, 0x22, 0xec, 0x3e,
  0x25, 0x1e, 0xaf, 0x3d, 0xb5, 0xd4, 0xc1, 0x3e, 0xc7, 0x97, 0x10, 0x3f,
  0x95, 0xe3, 0x26, 0xbe, 0x00, 0x39, 0x16, 0x3e, 0x10, 0xf5, 0xfc, 0x3e,
  0x81, 0x18, 0x0a, 0xbe, 0x07, 0x4c, 0xc1, 0x3e, 0xa1, 0xed, 0xa8, 0x3e,
  0xf2, 0x1f, 0x18, 0xbe, 0xcb, 0xe2, 0x69, 0x3e, 0x7d, 0x6a, 0x70, 0x3e,
  0x83, 0xf1, 0x80, 0x3e, 0x00, 0x59, 0xe6, 0x3e, 0x66, 0x29, 0x01, 0x3e,
  0x2c, 0x58, 0x25, 0xbe, 0x12, 0x6f, 0x80, 0x3e, 0x14, 0x23, 0x27, 0x3f,
  0x45, 0x13, 0x7b, 0xbd, 0x29, 0x28, 0xe7, 0x3e, 0x64, 0x64, 0x13, 0x3f,
  0x71, 0x75, 0x3c, 0xbe, 0x2f, 0xff, 0x47, 0x3f, 0x3f, 0x0b, 0x17, 0x3f,
  0x1e, 0x9e, 0xd3, 0xbd, 0x73, 0xd8, 0x08, 0x3f, 0xf5, 0x21, 0xe0, 0x3e,
  0x0d, 0x61, 0xb3, 0xbd, 0xfb, 0x76, 0x56, 0x3e, 0xe3, 0xcc, 0xa8, 0xbc,
  0x12, 0xa1, 0x3e, 0xbe, 0x50, 0x04, 0xa2, 0x3e, 0xa8, 0xb6, 0x3b, 0xbe,
  0x54, 0xb9, 0xb0, 0xbb, 0xbe, 0x56, 0x97, 0x3e, 0x2c, 0xea, 0x51, 0xbe,
  0xd2, 0xb0, 0xba, 0xbd, 0x68, 0xb0, 0xb1, 0x3d, 0x45, 0x43, 0x12, 0x3e,
  0x14, 0xa5, 0x13, 0xbe, 0xea, 0x1d, 0x36, 0x3c, 0x0c, 0x99, 0x6e, 0xbd,
  0x84, 0x97, 0xf7, 0xbc, 0xeb, 0xba, 0x03, 0xbe, 0xef, 0xf5, 0xcd, 0x3d,
  0xe1, 0xf8, 0xf8, 0xbd, 0x59, 0x03, 0xbb, 0xbd, 0xea, 0x30, 0xb3, 0xbb,
  0xd8, 0xe2, 0x1c, 0xbe, 0x3a, 0xdb, 0x41, 0x3d, 0x52, 0xa8, 0x3a, 0xbd,
  0x19, 0x50, 0x14, 0xbe, 0x68, 0x03, 0x28, 0xbe, 0x5a, 0x58, 0x68, 0x3d,
  0x9a, 0xdf, 0xa3, 0xbd, 0xd7, 0x1a, 0xc1, 0x3e, 0xec, 0xbc, 0x23, 0x3c,
  0xa9, 0xf8, 0x95, 0xbd, 0x0e, 0x14, 0xd5, 0x3e, 0x62, 0xe9, 0x82, 0x3d,
  0x12, 0xdc, 0x93, 0x3e, 0x64, 0xc1, 0xb4, 0x3e, 0x75, 0x5e, 0xd1, 0xbd,
  0xe4, 0xcf, 0x80, 0x3e, 0xc4, 0x0b, 0xe3, 0x3e, 0x03, 0x80, 0xc2, 0x3e,
  0x02, 0xce, 0xbe, 0xbd, 0x26, 0x93, 0xbc, 0x3e, 0x43, 0xe5, 0x67, 0x3c,
  0x59, 0x50, 0x81, 0xbe, 0xdc, 0x9c, 0x3b, 0xbe, 0x16, 0x82, 0x9a, 0x3d,
  0xc3, 0x8a, 0x37, 0xbe, 0xcf, 0x99, 0xc1, 0x3d, 0xde, 0x6c, 0x2c, 0xbe,
  0x79, 0x21, 0x8c, 0x3e, 0x56, 0x88, 0x40, 0x3e, 0xd2, 0x6b, 0x01, 0xbc,
  0x3d, 0x5e, 0x98, 0x3e, 0xb9, 0x61, 0xea, 0xbd, 0xf0, 0x98, 0xca, 0x39,
  0x05, 0xfc, 0xd4, 0x3e, 0xdb, 0xe6, 0x8a, 0xbd, 0x2e, 0x48, 0xc2, 0xbd,
  0x6b, 0x16, 0x3b, 0x3e, 0xab, 0xa4, 0xf4, 0xbd, 0xa0, 0x1d, 0x80, 0x3d,
  0x91, 0x8e, 0x94, 0x3e, 0x89, 0x2e, 0x71, 0xbe, 0x01, 0x00, 0x43, 0xbe,
  0x2b, 0x6d, 0x17, 0x3d, 0x99, 0x24, 0xd2, 0xbe, 0x02, 0x7f, 0xf4, 0xbd,
  0x6b, 0xc9, 0xc9, 0x3c, 0x95, 0xa2, 0x85, 0xbe, 0x5a, 0xf8, 0x38, 0x3e,
  0x74, 0xb6, 0xb7, 0x3d, 0x7b, 0xdb, 0x4c, 0xbe, 0x10, 0x5a, 0xc2, 0x3d,
  0x3b, 0x89, 0x99, 0x3c, 0x16, 0x87, 0xbb, 0xbb, 0xf6, 0xa3, 0xf7, 0xbd,
  0x2b, 0xec, 0xb1, 0x3d, 0x2c, 0x07, 0x84, 0x3d, 0xa1, 0x6b, 0x08, 0xbd,
  0xe8, 0x78, 0xde, 0xbd, 0xb0, 0x72, 0xa9, 0xbd, 0x79, 0x71, 0x31, 0xbe,
  0xcd, 0x00, 0xbc, 0xbd, 0xe9, 0xaf, 0xce, 0xbe, 0x77, 0x58, 0x4b, 0xbe,
  0xc4, 0x9b, 0x87, 0xbc, 0x71, 0xfb, 0x90, 0xbe, 0xdd, 0x84, 0x01, 0xbb,
  0xf7, 0x5e, 0xc9, 0x3d, 0x9e, 0x23, 0xc8, 0xbd, 0x67, 0xdd, 0x07, 0xbe,
  0xc8, 0x5b, 0x8f, 0xbd, 0x8e, 0x12, 0x19, 0xbe, 0xfc, 0x65, 0x8f, 0xbd,
  0x8e, 0x76, 0x12, 0x3d, 0xa8, 0xb3, 0x04, 0x3e, 0x3a, 0x58, 0x9d, 0xbe,
  0x4f, 0x33, 0x29, 0x3d, 0xb7, 0xdf, 0x07, 0x3e, 0x54, 0x82, 0x71, 0xbb,
  0x4b, 0xfa, 0x55, 0xbd, 0xf0, 0x25, 0xb1, 0xbd, 0x27, 0xbf, 0x75, 0x3d,
  0x63, 0xc8, 0xe9, 0x3d, 0xa4, 0xa2, 0xd8, 0x3a, 0x04, 0xb4, 0x2a, 0xbe,
  0xb5, 0xd9, 0x3d, 0xbd, 0x20, 0x08, 0xda, 0x3c, 0xf6, 0x48, 0x8c, 0xbe,
  0x93, 0x32, 0xb6, 0xbe, 0x14, 0x78, 0xc4, 0x3d, 0xb9, 0x0c, 0x91, 0xbe,
  0x88, 0x18, 0x7c, 0xbe, 0x04, 0x91, 0x9b, 0xbd, 0x40, 0xe7, 0x94, 0x3c,
  0xd9, 0xda, 0xb0, 0xbe, 0xa8, 0xbc, 0x01, 0xbd, 0x03, 0x52, 0x67, 0xbe,
  0x9c, 0xb5, 0x7c, 0x3d, 0x15, 0x8e, 0x42, 0xbe, 0xdc, 0xbc, 0x46, 0xbe,
  0x1e, 0xc1, 0x94, 0xbe, 0x87, 0x7a, 0x08, 0xbe, 0x0d, 0x92, 0x28, 0xbe,
  0x34, 0xc9, 0xea, 0xbc, 0xff, 0x93, 0x25, 0xbe, 0xf7, 0x6e, 0x3b, 0x3e,
  0x98, 0x9a, 0xb6, 0xbe, 0x04, 0x1e, 0xae, 0xbd, 0x5d, 0xca, 0xb1, 0x3d,
  0xd8, 0xb6, 0x8c, 0xbe, 0xfd, 0x41, 0x41, 0xbb, 0xd7, 0x8e, 0x50, 0x3e,
  0xc1, 0xcf, 0x50, 0xbe, 0x1c, 0x39, 0xf6, 0xbd, 0x81, 0x82, 0x08, 0x3e,
  0x54, 0x9e, 0xe5, 0xbe, 0xa4, 0x7b, 0x33, 0xbd, 0x5a, 0xf7, 0x0a, 0x3c,
  0x4a, 0x45, 0x49, 0xbe, 0x79, 0x87, 0x05, 0x3d, 0x05, 0x1f, 0x7c, 0xbd,
  0xfb, 0x7d, 0x3d, 0xbe, 0x29, 0x6d, 0x64, 0x3e, 0x2e, 0xf3, 0x0c, 0x3d,
  0x7f, 0xe5, 0x8c, 0xbe, 0xf7, 0x24, 0x99, 0x3d, 0xcd, 0x78, 0x46, 0x3d,
  0x55, 0x5b, 0x67, 0xbd, 0x8f, 0xf3, 0xb3, 0x3e, 0xa0, 0x3e, 0x9b, 0xbd,
  0xd7, 0x08, 0x42, 0x3e, 0x83, 0x4a, 0x73, 0xbd, 0xe3, 0xcb, 0x8f, 0x3e,
  0xdc, 0xbc, 0x98, 0x3e, 0xbb, 0x4e, 0x9f, 0x3b, 0x69, 0xbe, 0x3f, 0x3e,
  0xbb, 0xd0, 0x9f, 0x3e, 0xb7, 0x16, 0xc0, 0xbc, 0xff, 0xb9, 0xdd, 0x3d,
  0xa3, 0x59, 0xd2, 0x3e, 0xcc, 0x95, 0x9c, 0x3c, 0x8c, 0xbc, 0xde, 0x3d,
  0x40, 0x74, 0xcd, 0x3d, 0xad, 0x24, 0x1a, 0xbe, 0x8b, 0x30, 0xad, 0x3d,
  0xc7, 0x16, 0xaa, 0x3e, 0xbb, 0xeb, 0x18, 0x3e, 0x9c, 0x39, 0x26, 0xbc,
  0x4d, 0x59, 0x7d, 0x3e, 0xc6, 0x27, 0x6c, 0xbe, 0x1b, 0xa6, 0x79, 0x3d,
  0x5c, 0xce, 0xc0, 0x3d, 0x41, 0x71, 0x16, 0xbd, 0x76, 0x11, 0x21, 0x3d,
  0x21, 0xe2, 0x4f, 0x3e, 0xab, 0x30, 0x62, 0xbd, 0x03, 0x9a, 0xf0, 0xbb,
  0x28, 0xb4, 0xb6, 0x3e, 0xab, 0xbd, 0x48, 0x3e, 0x94, 0xe6, 0xe2, 0xbd,
  0x23, 0xf3, 0xe2, 0x3e, 0x37, 0x46, 0x1d, 0x3d, 0x7c, 0x20, 0x8e, 0xbd,
  0x90, 0xb9, 0xa3, 0x3e, 0x17, 0xaf, 0xac, 0x3d, 0xfb, 0xff, 0x85, 0x3d,
  0xcf, 0x39, 0x59, 0x3e, 0xe0, 0xcf, 0x00, 0x3e, 0xa7, 0x95, 0x59, 0x3e,
  0xca, 0xa1, 0xf3, 0x3e, 0x45, 0x42, 0xc4, 0xbb, 0xa8, 0xbf, 0xad, 0x3c,
  0x77, 0x81, 0x68, 0x3e, 0x6f, 0xdd, 0xfd, 0x3c, 0xdc, 0x6f, 0x84, 0xbc,
  0x54, 0xd3, 0x7c, 0x3e, 0xaf, 0xc6, 0x9e, 0xbd, 0x43, 0x90, 0x43, 0x3d,
  0x7d, 0x4b, 0xd1, 0x3e, 0x75, 0xa5, 0xb6, 0xbd, 0xd6, 0xce, 0x6d, 0xbe,
  0x8d, 0x4c, 0x07, 0x3f, 0x1f, 0x00, 0x50, 0xbd, 0x84, 0xc6, 0x8a, 0xbe,
  0x39, 0x0f, 0x90, 0x3e, 0x38, 0x14, 0xef, 0x3c, 0xa4, 0xfe, 0x9a, 0xbe,
  0x6b, 0x2a, 0xcc, 0x3e, 0x01, 0x45, 0x83, 0xbe, 0xe1, 0x07, 0x2d, 0xbd,
  0x6e, 0xea, 0x50, 0x3e, 0xf6, 0xd8, 0x04, 0x3e, 0xad, 0x4d, 0xb9, 0xbd,
  0xd5, 0x72, 0xf1, 0x3d, 0xb5, 0x45, 0x4f, 0xbe, 0x32, 0xd8, 0x4c, 0xbd,
  0x40, 0xcd, 0x6d, 0x3e, 0xd0, 0x4c, 0xd7, 0x3c, 0x53, 0x47, 0x76, 0xbb,
  0x75, 0x88, 0x04, 0x3d, 0x36, 0x14, 0x8c, 0xbe, 0x41, 0x2c, 0x88, 0x3d,
  0x48, 0x1b, 0x8c, 0xbd, 0xd4, 0x38, 0x85, 0xbd, 0x2e, 0x22, 0xb1, 0xbd,
  0xb0, 0x3f, 0xee, 0xbd, 0x42, 0x97, 0x89, 0xbe, 0xfd, 0x37, 0x85, 0xbe,
  0xd2, 0xf5, 0x64, 0xbd, 0x89, 0x08, 0xbc, 0xbd, 0x38, 0x00, 0x5b, 0x3d,
  0x71, 0xfd, 0x10, 0xbe, 0xb1, 0x88, 0xf3, 0xbd, 0x86, 0xf6, 0x24, 0x3e,
  0x7b, 0xad, 0x8b, 0xbd, 0x56, 0x0d, 0x50, 0xbe, 0x92, 0x6d, 0xa8, 0x3e,
  0x5b, 0xc4, 0x9f, 0xbc, 0x96, 0x01, 0x47, 0xbe, 0x87, 0x0e, 0x9b, 0x3e,
  0xb8, 0x95, 0x41, 0x3e, 0x6f, 0xef, 0x37, 0xbe, 0xb7, 0x41, 0x1f, 0x3e,
  0xaa, 0xd3, 0x85, 0x3d, 0x74, 0x5f, 0xf1, 0xbe, 0x86, 0xed, 0x6d, 0x3d,
  0x48, 0x02, 0x7a, 0x3e, 0x3d, 0x4b, 0x90, 0x3c, 0x0e, 0x2e, 0x4f, 0x3e,
  0xe0, 0x6a, 0xae, 0xbd, 0x14, 0xf6, 0x18, 0x3e, 0xd3, 0x45, 0xa0, 0x3d,
  0x80, 0xd2, 0x0c, 0x3e, 0x53, 0x91, 0x96, 0x3d, 0x3b, 0x31, 0x82, 0xbe,
  0x44, 0x38, 0x6f, 0x3e, 0x9a, 0x8d, 0x5c, 0xbe, 0xb8, 0x13, 0xcf, 0x3d,
  0xd7, 0xe5, 0xf9, 0x3d, 0x47, 0xf9, 0x1b, 0xbe, 0x8f, 0xe0, 0x51, 0x3e,
  0xff, 0xc3, 0xbf, 0x3d, 0xd3, 0x1d, 0xd2, 0xbd, 0x3f, 0x89, 0x34, 0xbd,
  0x58, 0xc0, 0x1a, 0x3e, 0x1f, 0x9f, 0xbe, 0xbe, 0xa1, 0x88, 0x33, 0x3e,
  0xc9, 0x97, 0x44, 0xbe, 0x50, 0x72, 0x8e, 0xbe, 0x16, 0xc6, 0x21, 0x3e,
  0x84, 0xb0, 0x81, 0x3d, 0x91, 0xe2, 0x28, 0xbe, 0xd3, 0x87, 0x3d, 0xbc,
  0x1a, 0x2e, 0x99, 0xbd, 0xb0, 0x23, 0x48, 0xbe, 0x16, 0x70, 0x0c, 0xbe,
  0x42, 0xba, 0xa7, 0xbe, 0xda, 0xc7, 0xeb, 0xbe, 0x49, 0x0e, 0x44, 0x3e,
  0x37, 0x3b, 0xed, 0xbd, 0x88, 0x47, 0xba, 0xbe, 0xbd, 0x97, 0x68, 0xbd,
  0xc5, 0xbd, 0xda, 0xbd, 0xfa, 0x9f, 0x91, 0xbe, 0x36, 0x0b, 0xab, 0xbd,
  0x63, 0x26, 0xbe, 0xbe, 0x1b, 0xfd, 0xf5, 0xbd, 0xc7, 0xea, 0x16, 0x3d,
  0xb0, 0x65, 0xc9, 0xbe, 0x9a, 0x5a, 0x3d, 0xbe, 0xd5, 0x3e, 0xf9, 0x3c,
  0x5f, 0xb1, 0x79, 0xbe, 0xbe, 0x04, 0x8b, 0xbe, 0xc1, 0x87, 0x15, 0x3d,
  0x3c, 0x0f, 0xfb, 0xbe, 0x0e, 0x99, 0x96, 0xbe, 0xe1, 0x44, 0x28, 0x3e,
  0x7e, 0xa8, 0x0a, 0xbf, 0x56, 0x06, 0x87, 0xbe, 0x84, 0xeb, 0xa2, 0x3e,
  0xa2, 0x62, 0x53, 0xbe, 0xb6, 0x62, 0xb6, 0xbd, 0x20, 0xd2, 0x0a, 0x3d,
  0x8b, 0x17, 0x59, 0xbe, 0x77, 0xd0, 0x91, 0x3d, 0x42, 0x6a, 0x2d, 0xbe,
  0x36, 0x6f, 0xc3, 0x3b, 0x64, 0x4c, 0x28, 0xbe, 0xbe, 0x87, 0x77, 0xbd,
  0x71, 0x77, 0x85, 0xbd, 0x50, 0x0c, 0x0e, 0x3e, 0xed, 0xdd, 0x6b, 0xbd,
  0x27, 0x0d, 0x1b, 0xbe, 0x0a, 0x28, 0x09, 0xbd, 0x89, 0x21, 0x70, 0xbe,
  0xa6, 0x02, 0xbd, 0xbc, 0x82, 0xaa, 0xf9, 0xbd, 0x3b, 0x79, 0xbe, 0x3d,
  0xe6, 0x97, 0x51, 0xbe, 0x97, 0x5d, 0xde, 0xbd, 0x97, 0xf2, 0x04, 0xbe,
  0xc4, 0x0e, 0x83, 0xbe, 0x34, 0x5f, 0x29, 0x3d, 0xab, 0x4c, 0xf3, 0xbc,
  0x49, 0x41, 0x18, 0xbe, 0x0f, 0x27, 0x99, 0x3d, 0x43, 0x7f, 0xdd, 0xbb,
  0x25, 0xe7, 0xab, 0xbe, 0xc4, 0xa7, 0x19, 0x3e, 0x4d, 0x8c, 0xb1, 0xbd,
  0xbc, 0xf1, 0x46, 0xbe, 0x39, 0x96, 0x19, 0xbe, 0x76, 0xd1, 0x18, 0xbe,
  0xd7, 0xf6, 0x19, 0xbd, 0x96, 0x44, 0x41, 0x3e, 0xba, 0xe5, 0xbb, 0xbc,
  0x4a, 0x00, 0x3a, 0xbe, 0xaa, 0x53, 0x84, 0xbd, 0xe4, 0xd9, 0x3d, 0xba,
  0x45, 0xd3, 0x7e, 0xbd, 0x48, 0xe6, 0xa0, 0xbd, 0x5c, 0xed, 0x04, 0xbd,
  0x1c, 0x21, 0x8d, 0xbe, 0xb0, 0xdb, 0x6e, 0x3d, 0x96, 0xeb, 0xb2, 0xbd,
  0xd1, 0xe4, 0x8b, 0xbe, 0x0a, 0x93, 0xde, 0x3a, 0xd9, 0xf7, 0x19, 0xbe,
  0x4c, 0x8f, 0x1f, 0xbd, 0x8d, 0x40, 0xba, 0x3d, 0x45, 0x4a, 0x1a, 0x3e,
  0x5d, 0xb1, 0x10, 0x3d, 0xb2, 0xa9, 0xce, 0xbc, 0x57, 0x96, 0x25, 0xbb,
  0x3a, 0x44, 0x19, 0x3e, 0x29, 0x5f, 0xf6, 0x3d, 0xfd, 0x4c, 0x93, 0x3d,
  0xa8, 0x5f, 0xd2, 0xbd, 0x82, 0x4b, 0x04, 0x3e, 0x30, 0xeb, 0x00, 0x3e,
  0xd7, 0x31, 0x81, 0xbd, 0x88, 0xfa, 0xab, 0x3d, 0x33, 0x3f, 0xd0, 0xbd,
  0xd1, 0x87, 0x3c, 0xbd, 0x8a, 0xbd, 0x07, 0xbe, 0x8d, 0xd9, 0x2c, 0x3e,
  0xff, 0xfa, 0x0f, 0xbe, 0xfa, 0xdd, 0x46, 0x3d, 0x78, 0xa1, 0x62, 0x3d,
  0x5b, 0x5e, 0x26, 0x3e, 0x3f, 0x0b, 0x42, 0x3d, 0x35, 0x9a, 0xdc, 0x3d,
  0xd8, 0x70, 0xf2, 0x3d, 0x30, 0x07, 0x3e, 0xbc, 0x3c, 0x9e, 0xe7, 0xbd,
  0xd8, 0xd9, 0xe1, 0xbd, 0x46, 0x81, 0x62, 0x3e, 0x59, 0xee, 0x4b, 0xbe,
  0x5b, 0xac, 0x95, 0x3d, 0x93, 0xa1, 0xe7, 0xbc, 0xe1, 0xca, 0x2c, 0xbe,
  0x11, 0x94, 0x1c, 0x3e, 0x19, 0xfe, 0x1b, 0x3e, 0xd9, 0x4b, 0xc3, 0x3c,
  0xe4, 0x62, 0xde, 0xbc, 0xf4, 0x44, 0xa3, 0x3d, 0xb2, 0xf4, 0x3e, 0xbe,
  0x64, 0x01, 0x9b, 0x3d, 0x63, 0xf8, 0x2c, 0xbc, 0x02, 0x9f, 0x33, 0xbe,
  0x9d, 0x42, 0xd5, 0x3d, 0x48, 0xa6, 0x11, 0x3d, 0xa7, 0xc3, 0x46, 0xbd,
  0xb7, 0x95, 0xff, 0x3d, 0x7b, 0xdf, 0x5b, 0x3e, 0x14, 0xe9, 0xcf, 0x3d,
  0x2e, 0xc1, 0x1a, 0x3d, 0x68, 0x07, 0xab, 0xbc, 0x51, 0x49, 0x58, 0x3c,
  0xce, 0x57, 0xb9, 0x3d, 0x7c, 0x61, 0x56, 0x3e, 0xa9, 0x21, 0xb3, 0xbd,
  0x9e, 0x0e, 0x4b, 0x3d, 0x5c, 0xda, 0xb5, 0x3d, 0x5a, 0x7b, 0x44, 0xbe,
  0x66, 0x81, 0x03, 0xbd, 0x6c, 0xc9, 0x4e, 0x3e, 0xc9, 0xee, 0xc0, 0x3c,
  0x44, 0x2f, 0x53, 0xbe, 0x60, 0xf2, 0x2a, 0xbd, 0x2f, 0x75, 0xd0, 0x3c,
  0x02, 0x88, 0x28, 0xbe, 0xa3, 0x93, 0x71, 0xbd, 0xa9, 0xb5, 0xf2, 0x3d,
  0xce, 0x33, 0x82, 0x3d, 0x9f, 0x6f, 0x6b, 0x3e, 0x72, 0x8a, 0x4b, 0xbe,
  0x16, 0x87, 0x94, 0x3c, 0x8b, 0x3f, 0xa7, 0x3d, 0xa6, 0x29, 0xcc, 0xbd,
  0x2b, 0x9d, 0xf4, 0x3c, 0x77, 0x25, 0x02, 0xbe, 0xb4, 0xa1, 0x23, 0xbe,
  0x42, 0x0e, 0x96, 0x3d, 0x00, 0x1e, 0x22, 0x39, 0x0a, 0x84, 0x00, 0xbe,
  0xce, 0x65, 0x7d, 0x3d, 0xee, 0xbd, 0x41, 0x3e, 0x07, 0x21, 0xbd, 0x3d,
  0x05, 0x1f, 0x07, 0x3e, 0x84, 0x37, 0x1d, 0x3e, 0x60, 0x59, 0x10, 0x3e,
  0x06, 0x3d, 0x07, 0x3e, 0x40, 0xc2, 0x36, 0x3e, 0xc8, 0x51, 0x88, 0xbd,
  0xec, 0xe1, 0x63, 0x3e, 0x37, 0xd5, 0x87, 0x3e, 0x73, 0x4e, 0xca, 0x3d,
  0x6e, 0xbe, 0xb3, 0x3d, 0xce, 0xc4, 0xfb, 0x3d, 0xb6, 0x64, 0x1b, 0xbe,
  0xd5, 0x14, 0x37, 0x3e, 0x2c, 0x9b, 0x1c, 0x3c, 0xc5, 0x2e, 0x7d, 0xbd,
  0x2a, 0x84, 0x99, 0x3e, 0x4c, 0xc2, 0x4f, 0x3e, 0xe4, 0x6d, 0x1f, 0xbd,
  0xd6, 0xf7, 0x3e, 0x3e, 0xd6, 0x35, 0xb3, 0x3c, 0x07, 0x57, 0x88, 0xbe,
  0x82, 0x99, 0x5b, 0x3d, 0x8f, 0x60, 0xd2, 0x3d, 0x86, 0xda, 0x92, 0x3a,
  0xb5, 0x21, 0x23, 0xbe, 0xaf, 0xe0, 0x79, 0xbd, 0x5d, 0x04, 0xac, 0xbd,
  0x61, 0x9d, 0xe0, 0x3d, 0x0c, 0x43, 0xd7, 0xbd, 0x5b, 0x9e, 0x2d, 0x3e,
  0x2a, 0x5e, 0x49, 0xbb, 0xb7, 0x67, 0x0c, 0x3e, 0xe9, 0xd6, 0xe7, 0xbd,
  0x59, 0xa1, 0x48, 0x3d, 0xca, 0xf9, 0x05, 0xbe, 0x85, 0xc5, 0x45, 0x3d,
  0x1e, 0xaf, 0x0c, 0xbe, 0xac, 0x90, 0x39, 0xbe, 0xd4, 0xaf, 0xe9, 0xbd,
  0xba, 0x3e, 0x26, 0x3e, 0x95, 0xdf, 0x57, 0x3d, 0xc0, 0x49, 0x92, 0xbd,
  0x7e, 0x46, 0x6b, 0x3d, 0x45, 0x20, 0x7c, 0x3d, 0xba, 0xf0, 0xb1, 0x3d,
  0xbd, 0x46, 0xc2, 0x3d, 0xf7, 0x11, 0x3e, 0xbd, 0xaa, 0x6c, 0x85, 0x3d,
  0x36, 0x93, 0x1c, 0x3e, 0x38, 0x5c, 0x1f, 0xbe, 0x18, 0xbb, 0x1b, 0xbe,
  0x7d, 0x94, 0x3a, 0xbe, 0xab, 0xb9, 0x1d, 0xbe, 0xfa, 0x56, 0xd8, 0x3d,
  0x69, 0xd6, 0x88, 0x3d, 0x98, 0xa1, 0x28, 0x3d, 0xec, 0xd5, 0x17, 0x3d,
  0x74, 0x07, 0xff, 0x3d, 0xc5, 0x92, 0x83, 0x3d, 0x1b, 0xc1, 0x04, 0x3e,
  0xb4, 0xe5, 0x16, 0x3e, 0xe7, 0xeb, 0x23, 0x3e, 0x98, 0xa9, 0x34, 0xbe,
  0x31, 0xa3, 0x38, 0xbd, 0x5d, 0xd1, 0x09, 0x3e, 0x2f, 0x2b, 0x1b, 0xbe,
  0x68, 0xbc, 0x2b, 0x3e, 0xb1, 0xcb, 0x2e, 0xbe, 0x28, 0xee, 0x66, 0x3c,
  0x3e, 0x09, 0xe0, 0x3d, 0x84, 0x6f, 0x0b, 0xbe, 0x37, 0x72, 0x80, 0x3d,
  0xdb, 0xc8, 0x25, 0x3e, 0x07, 0x63, 0x3a, 0xbd, 0xb5, 0x59, 0x24, 0xbe,
  0x48, 0x1a, 0xbc, 0x3d, 0x70, 0xba, 0x16, 0x3b, 0xeb, 0x1d, 0x08, 0xbe,
  0xe2, 0x96, 0xa9, 0x3d, 0x44, 0xb5, 0xe4, 0xbb, 0xc5, 0x94, 0x99, 0xbb,
  0x7b, 0x54, 0x21, 0x3e, 0x65, 0x90, 0xcb, 0xbd, 0x30, 0xe4, 0x0a, 0xbd,
  0xf9, 0xc3, 0x02, 0xbc, 0xc2, 0x4c, 0x16, 0xbd, 0x4e, 0xa5, 0xd2, 0x3d,
  0x62, 0x50, 0x18, 0xbd, 0x2c, 0x67, 0x07, 0xbd, 0x04, 0x9f, 0x3d, 0xbe,
  0xa7, 0xe9, 0xd7, 0xbd, 0xc9, 0x97, 0x2f, 0x3d, 0x41, 0x9d, 0x5a, 0x3d,
  0x80, 0x56, 0x01, 0xbe, 0x06, 0xff, 0x26, 0xbe, 0xe0, 0x02, 0xcf, 0xbd,
  0x4b, 0xa7, 0xad, 0x3d, 0x3f, 0xc7, 0x30, 0xbe, 0x0d, 0x7a, 0x11, 0xbc,
  0x84, 0x04, 0xc2, 0x3d, 0xf8, 0xfc, 0xb8, 0x3d, 0x31, 0x85, 0xa9, 0x3d,
  0x51, 0xc0, 0x3b, 0x3d, 0x4b, 0x73, 0xe8, 0xbd, 0x76, 0x1b, 0x97, 0x3c,
  0x6e, 0x98, 0x05, 0x3d, 0xe8, 0x7c, 0x8b, 0xbd, 0x10, 0xc6, 0x1c, 0x3d,
  0x41, 0x08, 0x36, 0xbe, 0x61, 0x40, 0x09, 0xbe, 0xc4, 0x20, 0xbd, 0x3d,
  0x08, 0x36, 0xf9, 0x3d, 0x49, 0x8a, 0xdb, 0xbd, 0xb4, 0xb3, 0xff, 0x3c,
  0x1a, 0xb0, 0x15, 0xbd, 0x88, 0x72, 0x1b, 0x3e, 0x9c, 0x4a, 0xbe, 0x3d,
  0x9d, 0x90, 0xb8, 0xbd, 0x79, 0x20, 0xea, 0xbd, 0x16, 0x3f, 0x38, 0x3b,
  0x28, 0xe3, 0xd9, 0x3c, 0x14, 0x6c, 0xd6, 0xbd, 0x2c, 0x1f, 0x1e, 0x3e,
  0xb8, 0x6b, 0x78, 0x3c, 0x14, 0x18, 0x5a, 0x3d, 0xf9, 0x36, 0x2c, 0xbe,
  0x5e, 0xe1, 0xc9, 0xbc, 0x17, 0x66, 0x1d, 0xbe, 0x3a, 0xc6, 0x2e, 0x3e,
  0xc4, 0x21, 0x84, 0xbc, 0x54, 0x2a, 0x9f, 0x3d, 0x02, 0x7b, 0xf2, 0xbd,
  0x7a, 0xc8, 0x2a, 0xbe, 0x41, 0xde, 0x84, 0x3d, 0xb4, 0x72, 0x2f, 0x3e,
  0xf9, 0x79, 0x2b, 0xbe, 0xb1, 0xc4, 0xa8, 0xbd, 0x20, 0xed, 0x82, 0xbd,
  0xb4, 0xb8, 0xae, 0xbc, 0xa2, 0xc5, 0x15, 0x3e, 0xe2, 0x55, 0x9a, 0xbd,
  0xa8, 0xf8, 0x21, 0x3c, 0x5f, 0x1c, 0x97, 0xbd, 0x55, 0x7f, 0xba, 0xbc,
  0x31, 0x15, 0x15, 0xbe, 0x39, 0xb3, 0x16, 0xbe, 0x69, 0x64, 0x2b, 0xbd,
  0x43, 0x82, 0xb2, 0x3d, 0x3f, 0xe3, 0x4e, 0xbc, 0xbf, 0x77, 0xbb, 0x3c,
  0x70, 0xed, 0x42, 0x3d, 0x59, 0x52, 0x97, 0xbd, 0xdf, 0x19, 0xe6, 0x3d,
  0x35, 0xba, 0x05, 0xbe, 0x2c, 0x5b, 0x9e, 0x3b, 0xfd, 0xcc, 0xa5, 0xbd,
  0xa2, 0xe0, 0x09, 0xbe, 0x4a, 0xb7, 0x9f, 0xbc, 0xf7, 0x36, 0xfa, 0xbc,
  0xa8, 0x0e, 0xdf, 0xbd, 0xfa, 0xc0, 0x00, 0x3c, 0x1f, 0xe4, 0x09, 0xbd,
  0x65, 0x09, 0x34, 0x3e, 0x5c, 0x98, 0xdf, 0x3a, 0xb1, 0xc3, 0x51, 0xbd,
  0x18, 0xdc, 0x90, 0xbb, 0xfc, 0xc5, 0x11, 0xbe, 0x4e, 0x92, 0x19, 0x3e,
  0xe8, 0xb0, 0xf5, 0xba, 0x60, 0xc9, 0x81, 0xbd, 0x0e, 0xaf, 0xc9, 0x3c,
  0x2f, 0x28, 0xaf, 0xbc, 0x4b, 0x0d, 0xa8, 0xbd, 0xf8, 0x3f, 0x5b, 0x3d,
  0xb8, 0x5c, 0x27, 0xbd, 0x67, 0x2f, 0x0d, 0x3e, 0x00, 0x7f, 0x19, 0xbc,
  0x22, 0x9c, 0xc6, 0x3b, 0xde, 0x9d, 0x02, 0xbc, 0x45, 0x61, 0x70, 0x3b,
  0xc8, 0x47, 0x60, 0xbd, 0xc7, 0x43, 0xa4, 0x3d, 0x3d, 0x94, 0xdd, 0xbb,
  0xe5, 0x85, 0x09, 0x3e, 0xa7, 0xb7, 0xc5, 0x3d, 0xf6, 0x72, 0xd6, 0xba,
  0x09, 0x41, 0x17, 0xbe, 0x9f, 0x01, 0x15, 0xbe, 0xdb, 0x75, 0x18, 0x3e,
  0x6f, 0x3e, 0x30, 0x3e, 0x32, 0x5f, 0x48, 0x3c, 0x6b, 0x39, 0x33, 0x3e,
  0x29, 0x6d, 0xaf, 0xbd, 0x40, 0x04, 0xc4, 0xbd, 0xf0, 0x47, 0xed, 0x3c,
  0x60, 0x0c, 0xbf, 0xbd, 0x73, 0x66, 0x16, 0x3e, 0xa3, 0x27, 0x3a, 0xbe,
  0x59, 0x81, 0x25, 0x3e, 0x43, 0xb5, 0x40, 0xbd, 0x22, 0x13, 0x28, 0x3c,
  0x80, 0xe9, 0xcd, 0x3a, 0xb7, 0x68, 0x3d, 0xbd, 0xf1, 0xf5, 0x2f, 0xbe,
  0x25, 0xdd, 0x30, 0x3e, 0x56, 0x16, 0x9e, 0xbb, 0x4d, 0x78, 0x1d, 0xbc,
  0x02, 0x43, 0x63, 0xbc, 0xbc, 0x10, 0x12, 0xbe, 0xa7, 0x48, 0xa3, 0x3d,
  0x0f, 0x87, 0x2e, 0x3e, 0xf6, 0x1c, 0x25, 0x3d, 0x6d, 0xe7, 0x44, 0x3d,
  0x99, 0x73, 0x09, 0x3e, 0xf6, 0xb6, 0x2e, 0xbd, 0xa3, 0xa0, 0x1e, 0xbd,
  0xc9, 0xc8, 0x07, 0x3e, 0xe0, 0x31, 0x36, 0xbe, 0x63, 0xfa, 0x94, 0xbd,
  0x0a, 0x62, 0x68, 0x3c, 0xdc, 0xe5, 0x93, 0x3d, 0x45, 0x7c, 0x15, 0x3e,
  0x83, 0x10, 0xf7, 0xbc, 0x4a, 0xb0, 0x14, 0xbe, 0xae, 0x13, 0x88, 0x3c,
  0x27, 0x20, 0x48, 0x3c, 0xd6, 0x60, 0xc5, 0x3d, 0x4d, 0xf3, 0x22, 0xbd,
  0x10, 0xeb, 0x73, 0x3d, 0xf8, 0xf2, 0x08, 0x3e, 0x7a, 0xec, 0x2c, 0xbe,
  0x9b, 0x2e, 0x35, 0xbe, 0x08, 0xc8, 0x00, 0xbd, 0x39, 0xff, 0x1e, 0xbe,
  0x59, 0x68, 0x54, 0xbd, 0x4a, 0x9b, 0x35, 0xbe, 0x99, 0xa5, 0xef, 0xbd,
  0x36, 0x94, 0x25, 0xbd, 0xc3, 0xb1, 0xda, 0x3c, 0xf8, 0x42, 0x0f, 0xbe,
  0xd6, 0x60, 0x26, 0xbd, 0xf8, 0x72, 0x12, 0xbe, 0x1a, 0x67, 0x3c, 0xbb,
  0xe7, 0x1e, 0x35, 0x3d, 0x8a, 0x5f, 0xa1, 0x3a, 0x0b, 0xd6, 0x01, 0xbe,
  0x40, 0x6c, 0xd6, 0x3d, 0x8c, 0x75, 0xfc, 0x3b, 0x40, 0x40, 0x2b, 0x3d,
  0x7d, 0x97, 0x05, 0xbe, 0xf5, 0xb3, 0x2c, 0xbe, 0xaf, 0x24, 0xd1, 0x3d,
  0x5c, 0xac, 0x32, 0xbe, 0x17, 0x37, 0xf7, 0x3d, 0x8e, 0x45, 0x92, 0xbd,
  0xe2, 0xb0, 0x03, 0x3e, 0xb6, 0x96, 0x25, 0x3e, 0x4c, 0x50, 0x1c, 0xbc,
  0x7d, 0x11, 0x33, 0x3d, 0x5c, 0x6b, 0xc6, 0x3c, 0xb7, 0x41, 0xd3, 0x3d,
  0x74, 0x37, 0x53, 0xbc, 0xcc, 0x6d, 0xab, 0xbd, 0xa8, 0x6f, 0x46, 0x3c,
  0x60, 0x9c, 0x20, 0xbd, 0x96, 0xca, 0x13, 0xbe, 0x94, 0xd6, 0x17, 0x3c,
  0x36, 0x93, 0xcc, 0xbd, 0x02, 0xbe, 0x6f, 0xbc, 0xe9, 0xaa, 0x49, 0xbd,
  0x84, 0xcb, 0x07, 0xbe, 0xed, 0x26, 0x55, 0x3d, 0xc8, 0x1a, 0xc4, 0x39,
  0x2e, 0xf5, 0x02, 0x3c, 0xa1, 0x66, 0xb2, 0x3d, 0x56, 0xdb, 0x16, 0xbe,
  0xe8, 0x2e, 0x85, 0xbd, 0x50, 0xfc, 0xe0, 0xba, 0x87, 0xba, 0xf7, 0xbd,
  0xaf, 0x3f, 0xb7, 0x3d, 0x85, 0xe4, 0xd4, 0x3b, 0xd0, 0x27, 0xa5, 0xbd,
  0x50, 0xc1, 0xbc, 0xbc, 0x2f, 0x05, 0xa1, 0xbd, 0x44, 0x7d, 0xec, 0xbd,
  0xdd, 0x64, 0x0f, 0xbe, 0xa2, 0x4a, 0x13, 0xbe, 0x86, 0xaf, 0xd3, 0x3b,
  0x6f, 0xfd, 0x30, 0xbd, 0x6a, 0x39, 0x13, 0x3e, 0x79, 0xc1, 0x21, 0x3e,
  0xae, 0x12, 0x9d, 0xbc, 0xb6, 0xc6, 0xb0, 0xbd, 0x82, 0xe0, 0x5f, 0xbc,
  0xee, 0x08, 0x64, 0x3d, 0xb4, 0x90, 0x06, 0xbe, 0xf7, 0x2c, 0x14, 0xbe,
  0x28, 0x2b, 0x1c, 0x3e, 0x4e, 0xc6, 0x27, 0xbd, 0x50, 0x73, 0xfa, 0x3d,
  0x56, 0xa3, 0xf1, 0xbc, 0x88, 0x70, 0x1a, 0x3e, 0x78, 0xa5, 0x2a, 0x3e,
  0x85, 0xa7, 0x89, 0x3d, 0x60, 0x9b, 0xd1, 0x3d, 0x1d, 0x59, 0xe0, 0x3d,
  0xf7, 0xbc, 0xbc, 0x3d, 0x1a, 0x67, 0x66, 0xbc, 0xdd, 0xfc, 0xff, 0x3d,
  0x4f, 0x2b, 0x1c, 0xbe, 0x53, 0xba, 0x4a, 0x3d, 0x6b, 0x4b, 0x34, 0xbd,
  0xe5, 0x37, 0x49, 0xbc, 0xdc, 0xdf, 0x57, 0xbd, 0x58, 0x27, 0xe1, 0xbd,
  0x15, 0x26, 0x08, 0xbe, 0xc7, 0x11, 0x23, 0xbe, 0x10, 0x2e, 0x30, 0xbe,
  0x5d, 0xbb, 0x75, 0x3d, 0x02, 0x96, 0xa9, 0x3d, 0x66, 0x5f, 0x84, 0x3d,
  0xd9, 0x20, 0x37, 0xbe, 0x50, 0x7a, 0x43, 0xbc, 0x88, 0xf7, 0x18, 0x3e,
  0xd9, 0xd6, 0xa9, 0x3d, 0xc5, 0xa1, 0x8a, 0xbb, 0xda, 0xd3, 0x9e, 0xbc,
  0x45, 0x83, 0x22, 0xbd, 0x0d, 0x14, 0x39, 0xbe, 0xf3, 0xa6, 0xc7, 0xbd,
  0x4b, 0x8d, 0xb3, 0xbd, 0x60, 0x98, 0x3b, 0xbe, 0xc1, 0xac, 0x9d, 0x3d,
  0x32, 0x89, 0x54, 0xbd, 0xfa, 0x8a, 0x5c, 0x3d, 0x13, 0x00, 0xce, 0x3d,
  0xc4, 0xc2, 0x14, 0xbe, 0xb4, 0x3a, 0xbd, 0xba, 0x48, 0xc4, 0x43, 0xbd,
  0x85, 0xad, 0x30, 0x3d, 0x09, 0x21, 0xbb, 0x3c, 0x56, 0x5e, 0xbd, 0xbc,
  0xfb, 0x3d, 0x91, 0x3d, 0xe2, 0x17, 0x05, 0xbd, 0x61, 0x0e, 0x27, 0xbe,
  0x4b, 0x13, 0x84, 0xbd, 0x07, 0x6f, 0x14, 0x3d, 0xb0, 0xab, 0xf8, 0xbd,
  0x0b, 0x7a, 0x14, 0xbe, 0xb2, 0x5d, 0xd4, 0x3d, 0x5b, 0x10, 0x27, 0xbe,
  0x70, 0xc8, 0x16, 0xbe, 0xef, 0x76, 0xb1, 0x3b, 0x79, 0x42, 0x41, 0xbd,
  0x59, 0x31, 0x86, 0xbc, 0xb9, 0x43, 0x55, 0x3d, 0xf6, 0x5c, 0xab, 0xbd,
  0x47, 0x45, 0xb2, 0xbd, 0x38, 0x75, 0xe8, 0x3d, 0xda, 0x8b, 0xe6, 0xbd,
  0xbb, 0x49, 0xc9, 0xbd, 0x1c, 0x37, 0xe9, 0x3d, 0x26, 0xa0, 0x62, 0x3d,
  0x9e, 0x0b, 0x1c, 0xbd, 0x56, 0x30, 0xab, 0xbd, 0xbe, 0x7e, 0xe0, 0xbd,
  0x85, 0xc5, 0x35, 0x3e, 0x89, 0x4f, 0x99, 0x3d, 0x9c, 0xe1, 0x31, 0x3e,
  0xf6, 0xfd, 0x0f, 0x3e, 0xe3, 0x6a, 0x1c, 0x3e, 0x98, 0x1d, 0xf5, 0x3d,
  0x45, 0xf0, 0x76, 0x3d, 0xdf, 0x69, 0xf5, 0xbd, 0x08, 0x0e, 0x37, 0x3e,
  0x59, 0x14, 0xad, 0xbd, 0x3d, 0xb4, 0x24, 0xbe, 0x3e, 0x56, 0x9b, 0xbd,
  0xba, 0xc2, 0x00, 0x3e, 0x84, 0x2e, 0x29, 0x3d, 0xc2, 0x95, 0xd7, 0x3d,
  0x12, 0x44, 0xec, 0x3c, 0xc4, 0x85, 0xec, 0x3d, 0xc2, 0x0e, 0xd9, 0x3d,
  0x1f, 0x7f, 0xba, 0x3d, 0x20, 0x7d, 0x85, 0xbd, 0xbb, 0x65, 0xd8, 0x3d,
  0xa8, 0x86, 0xff, 0xbd, 0xf1, 0x8d, 0xa7, 0x3d, 0x8a, 0xe6, 0xca, 0xbd,
  0xe5, 0xa1, 0x7b, 0x3d, 0xd5, 0xd8, 0xb1, 0xbd, 0x8d, 0x25, 0xc3, 0xbd,
  0x6e, 0x35, 0xc2, 0x3d, 0x6e, 0xfe, 0xcb, 0x3c, 0x11, 0x18, 0xf1, 0xbc,
  0x10, 0x08, 0x0f, 0x3e, 0x01, 0xbb, 0x1a, 0x3e, 0xdc, 0x44, 0x2f, 0xbe,
  0xf9, 0x93, 0x29, 0xbd, 0x78, 0x1d, 0xb0, 0xbd, 0xac, 0x0a, 0x49, 0x3d,
  0xfe, 0xd9, 0xea, 0x3d, 0x44, 0x6a, 0x14, 0x3e, 0xb0, 0x0c, 0xeb, 0x3d,
  0x1e, 0xfa, 0xae, 0x3c, 0xa8, 0xcb, 0x3a, 0xba, 0x07, 0x84, 0x1a, 0xbe,
  0x48, 0x61, 0x1f, 0xbe, 0x51, 0xcb, 0xcd, 0x3b, 0xe3, 0xaf, 0x0f, 0x3e,
  0x81, 0xcd, 0xb2, 0xbd, 0xd6, 0x95, 0xaa, 0xbd, 0x1d, 0x31, 0x27, 0xbe,
  0x51, 0xb7, 0x35, 0x3e, 0x79, 0xd1, 0x67, 0xbd, 0xde, 0x9b, 0x63, 0xbd,
  0x27, 0x28, 0xae, 0x3d, 0xaa, 0x58, 0x24, 0x3e, 0x7a, 0xa0, 0xc0, 0x3d,
  0x2e, 0x8b, 0x86, 0x3d, 0x3f, 0x86, 0x0c, 0x3e, 0x77, 0x91, 0xe2, 0x3d,
  0x14, 0x00, 0x9c, 0xbd, 0x80, 0x09, 0x28, 0xbe, 0xa7, 0xf7, 0xd9, 0xbd,
  0x02, 0x97, 0x67, 0x3b, 0x34, 0x31, 0x27, 0xbe, 0x08, 0xf4, 0xb9, 0xbd,
  0x23, 0xcc, 0xab, 0xbd, 0xa7, 0xbc, 0xa0, 0xbd, 0xbf, 0xc0, 0x23, 0xbe,
  0xca, 0x75, 0x39, 0xbd, 0x0f, 0xda, 0xac, 0xbd, 0xea, 0xb7, 0xca, 0x3d,
  0xe5, 0xdd, 0x25, 0x3e, 0xcc, 0x01, 0xe3, 0xbc, 0xc8, 0xd9, 0xe7, 0xbd,
  0x10, 0x1d, 0x67, 0x3c, 0xd0, 0x19, 0x34, 0xbd, 0xd3, 0x88, 0xef, 0x3d,
  0xa5, 0xed, 0x88, 0x3d, 0x9d, 0x63, 0x23, 0x3e, 0x17, 0x34, 0x87, 0xbd,
  0x8b, 0x5f, 0xfc, 0xbd, 0xb3, 0xea, 0x2f, 0xbe, 0xd6, 0x2e, 0x60, 0xbc,
  0x12, 0x80, 0xd6, 0x3d, 0xaf, 0x3b, 0x0a, 0x3e, 0x25, 0x04, 0x04, 0xbe,
  0x8d, 0x9a, 0x08, 0x3e, 0x4d, 0xfa, 0x1e, 0x3d, 0xdb, 0xd0, 0x37, 0x3d,
  0x3d, 0x3e, 0xa6, 0x3d, 0x6e, 0x14, 0xef, 0x3d, 0x39, 0x57, 0xd4, 0xbd,
  0xd8, 0x31, 0x1f, 0xbe, 0xac, 0x00, 0xc0, 0xbd, 0x3a, 0x4f, 0xa0, 0xbd,
  0x69, 0xa7, 0xa5, 0x3d, 0x4c, 0xe0, 0x2a, 0x3e, 0xe8, 0xb3, 0x27, 0xbe,
  0x87, 0xff, 0xad, 0xbd, 0xb4, 0x27, 0xd3, 0xbd, 0x48, 0x16, 0xa8, 0xbd,
  0x8a, 0x80, 0x89, 0x3d, 0x82, 0xcf, 0x1e, 0xbd, 0x52, 0xb8, 0xc4, 0xbd,
  0x30, 0x22, 0x87, 0xba, 0x74, 0xe9, 0xd1, 0xbc, 0x39, 0xfe, 0x05, 0x3e,
  0x20, 0x36, 0x15, 0x3d, 0xc0, 0xd4, 0xd2, 0x3c, 0x8c, 0x7d, 0x94, 0x3d,
  0x4c, 0x7f, 0x44, 0x3d, 0x1c, 0x66, 0x51, 0xbd, 0x50, 0xa4, 0x31, 0x3d,
  0x5a, 0x04, 0x12, 0xbe, 0xe8, 0xd8, 0xbf, 0x3d, 0xf6, 0x82, 0x28, 0x3e,
  0x28, 0x18, 0x19, 0x3d, 0x10, 0xe8, 0x18, 0xbe, 0x60, 0x59, 0x11, 0xbc,
  0xf8, 0x0f, 0xc6, 0x3c, 0xd8, 0xdd, 0x20, 0x3d, 0xe8, 0x78, 0x51, 0x3d,
  0x17, 0x80, 0xe9, 0xbd, 0x08, 0x9d, 0x90, 0x3d, 0x49, 0x1c, 0xa9, 0xbd,
  0xc0, 0xd0, 0x5f, 0x3d, 0x2e, 0xc5, 0x21, 0x3e, 0x60, 0xb2, 0x93, 0xbc,
  0x78, 0x3d, 0x6c, 0xbd, 0x49, 0x4a, 0xbb, 0xbd, 0x68, 0x17, 0xda, 0x3d,
  0x74, 0x1b, 0x2d, 0xbd, 0x46, 0xe3, 0xa0, 0xbd, 0x34, 0xa1, 0xbd, 0x3d,
  0xbe, 0x9b, 0x0e, 0x3e, 0xf4, 0x78, 0x1e, 0xbe, 0xb0, 0x72, 0xf2, 0x3d,
  0xb0, 0x30, 0xfd, 0x3d, 0xa0, 0x60, 0x24, 0xbc, 0x08, 0x0a, 0xd8, 0x3d,
  0x30, 0xa0, 0x26, 0xbe, 0xc7, 0x73, 0x1f, 0xbe, 0x05, 0xd3, 0x2c, 0xbe,
  0xbe, 0x33, 0xce, 0xbd, 0x9a, 0x62, 0x30, 0x3e, 0x0a, 0x12, 0x9e, 0xbd,
  0x78, 0xad, 0xd3, 0xbc, 0xd8, 0x91, 0x10, 0x3d, 0xc0, 0x10, 0x2e, 0xbd,
  0xc6, 0x34, 0x1e, 0x3e, 0x18, 0x2d, 0x88, 0xbc, 0x70, 0xc2, 0xa3, 0x3d,
  0x2c, 0xa3, 0xf6, 0xbd, 0x80, 0x75, 0xcb, 0xbc, 0xac, 0xc5, 0x2b, 0xbd,
  0x49, 0x42, 0xb4, 0xbd, 0xd0, 0x93, 0xd0, 0x3d, 0xf0, 0x4e, 0xfc, 0xbd,
  0x88, 0x4e, 0x91, 0xbd, 0xa8, 0xfe, 0x92, 0x3d, 0xc0, 0x8b, 0x86, 0x3b,
  0x5b, 0xa2, 0x11, 0xbe, 0xb6, 0x25, 0xc8, 0xbd, 0x76, 0x77, 0x0d, 0x3e,
  0xf5, 0x2e, 0x8d, 0xbd, 0xc4, 0x85, 0x53, 0xbd, 0x24, 0x41, 0x17, 0xbe,
  0x24, 0xe6, 0xaf, 0x3d, 0x54, 0xb2, 0x1f, 0x3e, 0xc8, 0x60, 0xa7, 0xbc,
  0x40, 0xc6, 0xdd, 0xbd, 0x68, 0x37, 0x82, 0xbc, 0x38, 0x73, 0xa2, 0x3c,
  0x84, 0xd7, 0x31, 0x3d, 0x60, 0x65, 0xc0, 0xbb, 0xe2, 0x1c, 0x00, 0xbe,
  0x4c, 0x44, 0x0e, 0xbe, 0x46, 0xda, 0x27, 0xbe, 0x51, 0x07, 0x8a, 0xbd,
  0x24, 0x85, 0xed, 0x3d, 0xc0, 0x17, 0x25, 0xbb, 0x40, 0x9e, 0x24, 0x3e,
  0xbc, 0xa9, 0x27, 0x3d, 0xaa, 0xe4, 0x2a, 0xbe, 0x26, 0x44, 0xf0, 0xbd,
  0xd0, 0x9c, 0x83, 0x3d, 0xf0, 0x8e, 0x9d, 0xbc, 0xac, 0xca, 0xc4, 0x3d,
  0x2b, 0x5b, 0xb9, 0xbd, 0x50, 0x2a, 0x2c, 0x3e, 0x24, 0xa7, 0xd2, 0xbd,
  0x50, 0xab, 0xeb, 0x3d, 0xe0, 0xad, 0x0b, 0x3c, 0x18, 0x23, 0x69, 0xbd,
  0x96, 0x1c, 0x7a, 0xbd, 0x9d, 0x0d, 0xe9, 0xbd, 0x18, 0xdb, 0x8b, 0x3d,
  0xfe, 0x7f, 0x33, 0xbe, 0xc0, 0x68, 0x7c, 0x3b, 0x96, 0x24, 0x83, 0x3d,
  0x0c, 0xed, 0x7e, 0x3d, 0xc0, 0xe0, 0x44, 0xbd, 0x7a, 0xb7, 0x18, 0xbe,
  0xb0, 0x6b, 0xf1, 0xbd, 0xa2, 0x08, 0x07, 0x3e, 0xb0, 0x16, 0xcd, 0x3c,
  0x58, 0xe2, 0x1c, 0xbd, 0x40, 0x70, 0x22, 0x3e, 0x0c, 0x36, 0x9c, 0x3d,
  0xc7, 0xf9, 0xe3, 0xbd, 0x44, 0x18, 0x1d, 0xbe, 0x28, 0xa7, 0x99, 0x3c,
  0x40, 0x90, 0xeb, 0x3d, 0x20, 0xd7, 0x83, 0x3c, 0x5d, 0xbb, 0x97, 0xbd,
  0xfc, 0xd8, 0xc7, 0xbd, 0xb2, 0x32, 0x13, 0x3e, 0x90, 0xdc, 0x42, 0xbd,
  0xac, 0x6d, 0x00, 0xbe, 0xc0, 0xbc, 0x36, 0x3d, 0x80, 0x38, 0x05, 0x3c,
  0x6c, 0x0a, 0x77, 0x3d, 0x17, 0x55, 0x1b, 0xbe, 0xaa, 0x73, 0x01, 0x3e,
  0x88, 0x2f, 0x80, 0x3c, 0xb8, 0x49, 0xba, 0x3d, 0xf3, 0xc7, 0x1a, 0xbe,
  0x1c, 0xa6, 0x48, 0x3d, 0x63, 0xb6, 0x0f, 0xbe, 0x90, 0x3e, 0x0b, 0xbd,
  0x22, 0x89, 0x2b, 0x3e, 0xc8, 0x84, 0x8b, 0xbd, 0x8c, 0xa3, 0x13, 0xbe,
  0x20, 0x94, 0xf8, 0x3d, 0xc0, 0x6e, 0x65, 0xbd, 0x34, 0x91, 0x30, 0xbe,
  0x00, 0x47, 0x6c, 0xbc, 0x6b, 0xb5, 0xd9, 0xbd, 0xb4, 0x5b, 0x35, 0x3d,
  0x06, 0x84, 0xf6, 0xbd, 0x7d, 0x69, 0xcb, 0xbd, 0xa4, 0x9c, 0x76, 0x3d,
  0xaf, 0x84, 0x09, 0xbe, 0x10, 0x33, 0x4d, 0xbd, 0x1c, 0xde, 0x6d, 0x3d,
  0x61, 0xf9, 0xe7, 0xbd, 0x1c, 0x17, 0xee, 0x3d, 0x78, 0xbf, 0x1a, 0xbe,
  0x10, 0xbf, 0x06, 0xbe, 0x9c, 0xca, 0xce, 0x3d, 0x96, 0xc0, 0x13, 0x3e,
  0x70, 0x7b, 0xab, 0x3d, 0xf6, 0xe9, 0xc7, 0xbd, 0xf8, 0xd2, 0x5a, 0xbd,
  0xa0, 0x70, 0x31, 0x3c, 0x00, 0x86, 0x29, 0x3b, 0xf0, 0xd8, 0xbf, 0x3d,
  0xdc, 0xc6, 0xc6, 0x3e, 0xf9, 0xf4, 0x9d, 0xbe, 0x42, 0x6f, 0x4e, 0x3e,
  0xf3, 0xf0, 0x0a, 0x3f, 0xf9, 0x22, 0x96, 0xbe, 0x98, 0xb9, 0x80, 0x3d,
  0x43, 0xd5, 0xa9, 0x3e, 0xb4, 0xfb, 0x04, 0xbe, 0x92, 0xc0, 0xbf, 0xbd,
  0x86, 0x5e, 0x86, 0x3e, 0x79, 0xdd, 0xd9, 0xbb, 0xd1, 0x58, 0x5f, 0xbd,
  0x29, 0xd3, 0x02, 0x3f, 0xbd, 0x0b, 0x9d, 0x3d, 0x3c, 0x14, 0x9d, 0x3d,
  0x66, 0xf9, 0x01, 0x3e, 0x50, 0x8b, 0x40, 0xbd, 0x2b, 0x38, 0xea, 0x3d,
  0xa2, 0x5d, 0x97, 0x3e, 0x86, 0x53, 0xed, 0x3d, 0x05, 0x82, 0xd2, 0x3d,
  0x3b, 0xca, 0x9b, 0x3e, 0x6b, 0x8b, 0x02, 0x3d, 0xae, 0xae, 0x49, 0xbd,
  0xcf, 0xf4, 0x87, 0x3e, 0x6c, 0x53, 0x37, 0x3e, 0x13, 0xd5, 0x83, 0x3e,
  0x42, 0x8a, 0xea, 0x3e, 0xba, 0xbc, 0x70, 0xbe, 0xfe, 0x4e, 0xeb, 0x3c,
  0x24, 0x01, 0xcd, 0x3e, 0x38, 0x3c, 0x38, 0xbe, 0x40, 0xce, 0xd0, 0xbd,
  0x30, 0x3e, 0xf6, 0xbd, 0x5d, 0x86, 0xca, 0xbe, 0x4b, 0x60, 0xe1, 0xbd,
  0x1a, 0xfd, 0xe6, 0x3b, 0xb9, 0xd9, 0x2f, 0xbe, 0xe5, 0xd6, 0xcf, 0xbd,
  0xa5, 0x7d, 0xd1, 0x3c, 0xf3, 0xa2, 0x4f, 0xbb, 0xc2, 0xd0, 0xfb, 0xbb,
  0x0c, 0xe5, 0x60, 0xbd, 0x48, 0x98, 0xf8, 0x3d, 0x56, 0x2d, 0x92, 0xbc,
  0xdf, 0xd3, 0xb5, 0x3e, 0x05, 0x60, 0xd2, 0xbc, 0x6d, 0x2f, 0xc7, 0xbb,
  0x04, 0x98, 0x2a, 0x3e, 0x17, 0xcb, 0x96, 0xbe, 0x60, 0xb9, 0x88, 0xbe,
  0x36, 0x30, 0x0e, 0xbe, 0xcc, 0xee, 0xcb, 0xbc, 0xe2, 0x63, 0x91, 0x3d,
  0x0f, 0x64, 0x9a, 0x3d, 0x39, 0x4c, 0x09, 0xbd, 0x3a, 0x95, 0x6e, 0xbe,
  0x01, 0x38, 0x71, 0xbd, 0xe9, 0xc3, 0xdf, 0x3c, 0xf1, 0xd7, 0x1a, 0xbe,
  0xaf, 0x16, 0x3c, 0xbe, 0xa6, 0x37, 0x4e, 0x3e, 0x92, 0x7e, 0x97, 0xbd,
  0x96, 0x87, 0x7f, 0xbd, 0x09, 0xf0, 0x9e, 0x3d, 0x9c, 0xb6, 0xad, 0xbd,
  0xf6, 0xcb, 0x45, 0x3d, 0x89, 0x10, 0xac, 0xbc, 0xae, 0xf2, 0xf8, 0x3d,
  0x2f, 0x5a, 0x74, 0xbe, 0x55, 0xeb, 0x3a, 0x3e, 0x2d, 0x45, 0x18, 0xbe,
  0x76, 0x69, 0x55, 0xbe, 0xc9, 0x55, 0x18, 0xbe, 0x98, 0x45, 0x0c, 0xbd,
  0xa5, 0x9e, 0x84, 0xbe, 0xb3, 0x4c, 0x5f, 0xbe, 0xf1, 0x06, 0x45, 0x3e,
  0x3d, 0xc7, 0x92, 0xbe, 0x71, 0xe4, 0xf5, 0x3b, 0x79, 0xef, 0x79, 0x3e,
  0xbf, 0x96, 0x0c, 0x3d, 0xef, 0x62, 0x7c, 0xbd, 0x48, 0x3d, 0x24, 0x3e,
  0x40, 0x15, 0x11, 0x3e, 0x5c, 0x07, 0x97, 0x3c, 0x67, 0xe1, 0xfa, 0x3d,
  0xea, 0x32, 0x25, 0x3e, 0x6f, 0x6c, 0x0a, 0xbd, 0xed, 0x42, 0x8d, 0x3e,
  0xb5, 0xc7, 0x3a, 0x3e, 0xfa, 0xf5, 0xef, 0xbd, 0xe0, 0x58, 0xf9, 0x3d,
  0xe6, 0xfd, 0xbe, 0x3d, 0x6c, 0x5b, 0x79, 0xbe, 0x16, 0x3e, 0x83, 0x3e,
  0xa7, 0x38, 0x7d, 0x3e, 0xc1, 0xd3, 0x81, 0xbe, 0x71, 0xd0, 0x0e, 0x3e,
  0x3f, 0x5b, 0x5f, 0x3e, 0xa7, 0x26, 0xdd, 0x3d, 0x1f, 0x05, 0x92, 0x3d,
  0x96, 0x1d, 0x4a, 0x3e, 0x8c, 0xea, 0x25, 0xbd, 0x09, 0xda, 0x87, 0x3d,
  0x8c, 0x6e, 0x82, 0xbd, 0x2c, 0xf2, 0x9d, 0xbe, 0xde, 0x03, 0xe9, 0x3d,
  0xbd, 0xdb, 0x75, 0x3e, 0xe0, 0x7c, 0xe2, 0xbe, 0xab, 0xae, 0x88, 0x3d,
  0x5c, 0x52, 0xd6, 0x3d, 0xef, 0x13, 0x49, 0x3c, 0x6d, 0xc1, 0xf5, 0x3d,
  0x8b, 0xe2, 0x4e, 0xbd, 0x04, 0xcb, 0x91, 0xbd, 0x53, 0xbb, 0x0e, 0x3e,
  0x7b, 0xe3, 0xe7, 0x3c, 0x44, 0xa3, 0x3a, 0xbd, 0x6b, 0x90, 0x87, 0x3e,
  0x8e, 0xec, 0xfd, 0xbd, 0x58, 0x29, 0x29, 0x3d, 0xfd, 0xc5, 0x30, 0xbd,
  0x77, 0x93, 0xc5, 0xbd, 0x71, 0x59, 0xa4, 0x3e, 0x59, 0x3b, 0x49, 0xbc,
  0xcd, 0x24, 0xec, 0x3d, 0x66, 0xe7, 0x8b, 0x3c, 0x8d, 0xf0, 0xc3, 0xbd,
  0xc9, 0xf9, 0x40, 0xbe, 0xd2, 0x7f, 0xd1, 0xbd, 0xa7, 0x4e, 0x13, 0xbe,
  0xa0, 0xae, 0x2c, 0xbd, 0x32, 0x88, 0x89, 0xbe, 0x1f, 0xad, 0x64, 0xbd,
  0xaa, 0xe6, 0xa3, 0xbd, 0xea, 0x76, 0x97, 0xbe, 0xb6, 0x90, 0x82, 0xbe,
  0x11, 0x99, 0x62, 0x3d, 0xdf, 0x80, 0xd4, 0xbe, 0x13, 0x1c, 0xf6, 0x3d,
  0xb7, 0x84, 0xa8, 0xbd, 0x26, 0xd5, 0x41, 0xbe, 0xbe, 0xf9, 0x0a, 0x3e,
  0x4b, 0x5e, 0x91, 0xbc, 0xf1, 0x5f, 0xd6, 0xbe, 0x61, 0x84, 0x6c, 0x3e,
  0x57, 0x94, 0x3b, 0xbe, 0x78, 0x54, 0x24, 0xbf, 0x16, 0xee, 0xec, 0x3b,
  0x2c, 0xf8, 0xca, 0x3d, 0xdb, 0x78, 0x88, 0xbc, 0xbe, 0x48, 0xde, 0x3d,
  0xcf, 0x62, 0x6f, 0x3e, 0x7e, 0x2d, 0x4c, 0x3e, 0x88, 0xb9, 0x89, 0xbc,
  0x43, 0xe6, 0xc8, 0x3d, 0xc8, 0xe6, 0xb2, 0x3e, 0xc0, 0x1d, 0x5b, 0xbd,
  0x82, 0xe1, 0xcc, 0xbd, 0x68, 0xb5, 0x59, 0xbb, 0xef, 0x34, 0x03, 0xbe,
  0x75, 0xf8, 0x1d, 0x3e, 0xd4, 0x58, 0xb3, 0x3c, 0x46, 0xb2, 0xd1, 0x3d,
  0xd8, 0x21, 0xad, 0x3e, 0x91, 0x8e, 0x47, 0x3c, 0x42, 0x69, 0x91, 0x3e,
  0x97, 0xc3, 0xf2, 0xbc, 0x5a, 0x35, 0xab, 0x3d, 0x41, 0xe4, 0x6b, 0x3e,
  0xa5, 0x6a, 0x77, 0x3e, 0x3d, 0xb3, 0x9c, 0xbd, 0x87, 0x87, 0x71, 0x3e,
  0xc4, 0xb8, 0x3b, 0x3e, 0x74, 0x13, 0x44, 0x3d, 0xdf, 0x78, 0xa6, 0x3c,
  0x2b, 0x7c, 0xc2, 0x3e, 0x74, 0xee, 0xda, 0x3e, 0x06, 0x59, 0xa0, 0xbd,
  0xa6, 0xcc, 0x96, 0x3e, 0x2e, 0x90, 0x93, 0x3e, 0xbe, 0xab, 0xa1, 0x3e,
  0x93, 0x3b, 0x17, 0x3e, 0x14, 0xe5, 0xbc, 0x3e, 0x11, 0x89, 0xaf, 0x3d,
  0x32, 0xee, 0x21, 0xbe, 0x3f, 0x00, 0xb8, 0x3e, 0xd0, 0xb6, 0xb3, 0x3e,
  0x6f, 0xa7, 0x77, 0x3e, 0x7c, 0x4e, 0xd0, 0x3e, 0xe8, 0x31, 0xc5, 0x3e,
  0x4e, 0x12, 0x1e, 0x3e, 0xbc, 0x58, 0xd0, 0xbd, 0xc8, 0x31, 0x92, 0x3e,
  0xea, 0x3a, 0xb1, 0x3e, 0x7b, 0x11, 0x0d, 0x3e, 0x92, 0xa1, 0xbd, 0x3d,
  0x45, 0xec, 0xb4, 0x3e, 0x56, 0xa8, 0x09, 0xbe, 0x07, 0x5b, 0xa5, 0x3d,
  0xf2, 0xac, 0x07, 0x3f, 0x99, 0xdc, 0xc3, 0xbd, 0x92, 0x1c, 0x69, 0xba,
  0x0e, 0x20, 0x80, 0x3e, 0x01, 0xe1, 0x85, 0xbc, 0x1c, 0x86, 0x8c, 0x3d,
  0x3e, 0x43, 0x10, 0x3f, 0x59, 0x04, 0x93, 0xbe, 0xda, 0x92, 0x41, 0x3e,
  0x45, 0x6f, 0xa4, 0x3e, 0x51, 0xe1, 0x90, 0xbe, 0x41, 0x61, 0x9e, 0x3d,
  0x0f, 0x9c, 0x63, 0x3e, 0xce, 0x6e, 0x6e, 0xbe, 0x73, 0x05, 0x2e, 0xbe,
  0x5e, 0x1a, 0x97, 0x3d, 0xfd, 0xc6, 0x72, 0xbe, 0xf0, 0xeb, 0xa3, 0x3e,
  0x8f, 0x3a, 0x8f, 0x3d, 0x4b, 0x3d, 0xf6, 0xbd, 0xe7, 0x0d, 0xdb, 0x3e,
  0xbc, 0x02, 0x2c, 0xbe, 0x60, 0xda, 0xa2, 0xbd, 0x5c, 0x55, 0x87, 0x3d,
  0x3c, 0x84, 0xda, 0xbd, 0x3a, 0xa7, 0x76, 0x3b, 0xbe, 0x8e, 0x0d, 0x3d,
  0x51, 0x3c, 0x31, 0x3e, 0x7e, 0xba, 0x30, 0xbe, 0x7a, 0xa4, 0xa6, 0xbd,
  0x79, 0xd2, 0x24, 0xbe, 0xec, 0x6d, 0x94, 0x3b, 0x16, 0x15, 0x91, 0xbd,
  0xf4, 0x33, 0xf5, 0xbc, 0x78, 0x0e, 0xc2, 0xbe, 0x35, 0x79, 0xeb, 0xbd,
  0x5b, 0xed, 0x2e, 0x3c, 0x6f, 0xb8, 0x9d, 0xbd, 0x0b, 0xc8, 0x4a, 0xbe,
  0x4a, 0xc4, 0x43, 0xbe, 0x93, 0x04, 0x19, 0xbe, 0x2b, 0x85, 0x86, 0xbe,
  0x9f, 0x45, 0xbb, 0xbd, 0x6d, 0xc9, 0xaf, 0xbd, 0x17, 0x5d, 0x0f, 0xbf,
  0xdc, 0x21, 0x92, 0xbe, 0x51, 0x22, 0xe1, 0x3d, 0x63, 0xa0, 0x8f, 0xbe,
  0xcb, 0x77, 0xb5, 0xbe, 0x75, 0xd9, 0xad, 0x3e, 0x1f, 0xa1, 0x62, 0xbe,
  0xfd, 0xa2, 0x3c, 0xbe, 0x4d, 0x89, 0x93, 0x3d, 0x63, 0x0c, 0xf5, 0xbe,
  0x1a, 0xef, 0xb6, 0xbc, 0x25, 0xd8, 0x89, 0xba, 0xa8, 0x78, 0xbc, 0xbe,
  0x28, 0x9e, 0xa4, 0xbe, 0x94, 0x44, 0x9b, 0xbc, 0x0b, 0xf1, 0xbf, 0xbe,
  0x8b, 0x15, 0x3d, 0xbe, 0xbf, 0xd1, 0x1a, 0xbe, 0x2d, 0x49, 0x80, 0xbe,
  0x1f, 0x22, 0xa1, 0x3c, 0x0b, 0x7d, 0x3a, 0x3d, 0x0d, 0x4b, 0x8e, 0xbe,
  0x38, 0xd7, 0xf2, 0xbd, 0xe1, 0x2d, 0xc2, 0x3d, 0xa7, 0x5b, 0x8e, 0xbe,
  0xdc, 0x55, 0x19, 0x3e, 0xed, 0x4e, 0x5a, 0x3e, 0x93, 0x6d, 0xa8, 0xbe,
  0xcd, 0xbf, 0xaf, 0xbd, 0x69, 0x16, 0x43, 0xbe, 0x5c, 0x9e, 0x30, 0x3b,
  0x2e, 0x80, 0x2e, 0xbe, 0x9e, 0x18, 0xb7, 0xbe, 0xea, 0xaf, 0xd7, 0xbd,
  0xe7, 0xbe, 0x56, 0xbe, 0x77, 0x15, 0xa2, 0xbe, 0xa3, 0x32, 0x88, 0xbe,
  0x21, 0x12, 0x1b, 0x3b, 0x37, 0xa8, 0xb4, 0xbe, 0x9c, 0xa3, 0x25, 0x3d,
  0xce, 0xa6, 0x4f, 0x3d, 0x2f, 0xf2, 0x93, 0xbe, 0xbd, 0xe7, 0x21, 0xbd,
  0x26, 0x25, 0x07, 0xbe, 0x4c, 0xd9, 0xc0, 0xbe, 0x6f, 0x3a, 0x81, 0x3e,
  0x17, 0xf3, 0x49, 0x3d, 0xc3, 0xb7, 0x0e, 0xbf, 0x2c, 0x71, 0xa3, 0x3d,
  0x12, 0x2c, 0x50, 0xbe, 0xbe, 0x7f, 0xb0, 0xbe, 0x59, 0xad, 0xaa, 0x3e,
  0xf3, 0x96, 0x9d, 0xbe, 0xa6, 0xfc, 0x01, 0xbf, 0xf2, 0x38, 0xcc, 0x3e,
  0xed, 0x07, 0x9e, 0x38, 0x24, 0x44, 0xa7, 0x3e, 0xe6, 0x94, 0x77, 0x3e,
  0x2e, 0x7b, 0xa2, 0xbd, 0x28, 0x66, 0x05, 0x3f, 0x22, 0x02, 0x86, 0xbd,
  0xea, 0xa5, 0xa4, 0xbe, 0x5b, 0xb2, 0x98, 0x3e, 0x69, 0x5c, 0x1e, 0xbe,
  0x6a, 0x73, 0xa7, 0xbd, 0x5f, 0x85, 0x4f, 0xbc, 0x50, 0x04, 0x42, 0x3b,
  0x92, 0x83, 0xb3, 0x3c, 0x61, 0xdf, 0xab, 0x3c, 0xbb, 0xad, 0x4c, 0x3e,
  0xd0, 0x74, 0xe8, 0x3d, 0x1f, 0x5c, 0x95, 0xbe, 0xed, 0x5e, 0x3f, 0x3d,
  0x5f, 0x8b, 0x4c, 0xbe, 0xc8, 0x15, 0x41, 0x3e, 0x57, 0x10, 0xa3, 0x3e,
  0xaa, 0xd3, 0x2f, 0xbd, 0x8e, 0xfa, 0x53, 0x3e, 0x15, 0xb1, 0x9e, 0x3e,
  0x4d, 0x83, 0x1a, 0x3e, 0x4c, 0x1f, 0x15, 0xbe, 0x80, 0xa5, 0x88, 0xbd,
  0x28, 0x77, 0xae, 0xbc, 0xbb, 0x12, 0x07, 0x3f, 0x44, 0x92, 0x83, 0x3e,
  0x3d, 0xdc, 0x23, 0x3b, 0x67, 0x66, 0x07, 0x3f, 0xcc, 0xa3, 0x16, 0x3e,
  0x9f, 0x87, 0x11, 0x3f, 0x22, 0xc8, 0xfa, 0x3e, 0x36, 0x1c, 0x1f, 0xbd,
  0x90, 0xc4, 0x15, 0xbc, 0xed, 0xa9, 0x0f, 0x3f, 0x4b, 0xe2, 0x0d, 0x3f,
  0x1a, 0x6c, 0x52, 0xbd, 0x66, 0xb0, 0xa4, 0x3e, 0x02, 0x81, 0xed, 0x3e,
  0xe7, 0x51, 0x0c, 0xbc, 0xb5, 0x5d, 0x39, 0xbe, 0x9d, 0x3e, 0x55, 0x3e,
  0x1a, 0x68, 0x09, 0x3e, 0x6f, 0x72, 0xad, 0x3d, 0x71, 0x19, 0xd3, 0xbd,
  0xbf, 0x7b, 0xc5, 0x3e, 0x65, 0x2a, 0x20, 0x3e, 0x98, 0xf9, 0xfb, 0x3b,
  0xd6, 0x10, 0x0a, 0x3f, 0xde, 0xce, 0xcb, 0xbd, 0xe2, 0x01, 0x64, 0xbe,
  0xc0, 0xb7, 0x06, 0x3e, 0x46, 0x9e, 0x5b, 0x3d, 0x31, 0x15, 0x7b, 0xbe,
  0x27, 0x30, 0xb9, 0x3e, 0xbc, 0x1f, 0x88, 0xbe, 0x14, 0x0e, 0xa0, 0xbd,
  0x38, 0x8a, 0xbc, 0x3e, 0x9f, 0x3b, 0x31, 0xbd, 0x2b, 0xf3, 0xd6, 0x3d,
  0x5d, 0x99, 0xf8, 0x3e, 0xf0, 0x48, 0x25, 0xbe, 0x45, 0x0c, 0x83, 0x3c,
  0x4c, 0x20, 0xaf, 0x3e, 0x9f, 0xf7, 0xf3, 0xbd, 0x01, 0x8c, 0xbc, 0x3e,
  0xc3, 0x60, 0x9a, 0x3e, 0x92, 0x5f, 0xa4, 0xbe, 0x6e, 0x19, 0xc5, 0x3d,
  0x5b, 0x63, 0x21, 0x3e, 0xae, 0xaa, 0x19, 0x3d, 0xd8, 0x18, 0x0b, 0x3e,
  0x8b, 0xfe, 0x94, 0x3e, 0xc1, 0xf1, 0x29, 0x3e, 0xd0, 0x3e, 0xb5, 0xbe,
  0x87, 0x8e, 0x9c, 0x3e, 0xd9, 0xba, 0xb5, 0x3c, 0x9b, 0x95, 0x91, 0xbe,
  0x53, 0x0a, 0x64, 0x3e, 0xfc, 0xa7, 0xb0, 0xbe, 0x2a, 0xcb, 0x7b, 0x3c,
  0xe6, 0xd8, 0x95, 0x3d, 0x4e, 0xb0, 0xe8, 0xbe, 0xb0, 0x9f, 0xbf, 0x3c,
  0x23, 0x98, 0x3a, 0x3e, 0x78, 0xed, 0x9f, 0xbe, 0x12, 0xcd, 0xdc, 0xbd,
  0x2e, 0xcf, 0x30, 0xbe, 0xb7, 0xbe, 0xcb, 0xbe, 0xc6, 0xf5, 0x0f, 0x3d,
  0xff, 0x6d, 0x5f, 0x3e, 0x3e, 0x96, 0xe9, 0x3d, 0x2b, 0xfe, 0x18, 0xbf,
  0x29, 0x5d, 0x35, 0x3e, 0x1b, 0x0a, 0xae, 0xbd, 0x20, 0x9a, 0x74, 0xbe,
  0x72, 0x17, 0x99, 0x3d, 0x19, 0x42, 0x08, 0xbc, 0xe3, 0x96, 0x98, 0x3d,
  0x26, 0xaa, 0xed, 0x3d, 0x96, 0x2d, 0xfd, 0xbe, 0x40, 0x9e, 0x37, 0xbd,
  0xe4, 0x5a, 0x8b, 0x3d, 0x72, 0x2d, 0xd1, 0xbe, 0xec, 0x9a, 0xd5, 0xbd,
  0x0d, 0xa1, 0xc3, 0xbe, 0xd0, 0xf2, 0x2c, 0xbe, 0x4d, 0x93, 0x2b, 0xbe,
  0x36, 0xad, 0xc8, 0x3d, 0x33, 0x1f, 0xea, 0xbe, 0x6f, 0xf3, 0x2a, 0x3c,
  0x3d, 0x80, 0x1b, 0x3e, 0xa4, 0x76, 0x5a, 0xbe, 0x6b, 0x88, 0xd1, 0x3d,
  0x70, 0x18, 0x02, 0x3e, 0x5f, 0x94, 0xfb, 0xbd, 0x83, 0x8a, 0xff, 0x3b,
  0xc6, 0xfa, 0xc2, 0x3d, 0xd6, 0x39, 0x86, 0xbe, 0xc9, 0xd9, 0x12, 0xbd,
  0x8b, 0x2e, 0x00, 0xbe, 0xd3, 0xcb, 0xc7, 0xbe, 0xdb, 0x59, 0x5c, 0x3e,
  0x13, 0xb3, 0x7b, 0xbe, 0x26, 0x29, 0xcf, 0xbe, 0xa0, 0xc7, 0xff, 0x3d,
  0x74, 0x60, 0xc2, 0xbe, 0xcd, 0x1e, 0x05, 0xbe, 0x31, 0xb5, 0x44, 0x3c,
  0x91, 0xa3, 0xf2, 0xbe, 0xc1, 0x39, 0x56, 0xbe, 0xec, 0xe9, 0x09, 0x3e,
  0x51, 0x84, 0x79, 0xbe, 0x4c, 0x37, 0x9e, 0x3d, 0x79, 0x1b, 0x7d, 0x3e,
  0x8f, 0x3e, 0xbe, 0xbe, 0x1a, 0x1e, 0x6a, 0xbd, 0xec, 0x75, 0x8c, 0xbd,
  0xee, 0x86, 0xdf, 0xbe, 0x46, 0x75, 0xac, 0xbd, 0x43, 0x98, 0x1a, 0x3e,
  0xa7, 0x52, 0x55, 0xbe, 0x1d, 0xac, 0x9b, 0xbe, 0xbb, 0xba, 0x62, 0x3d,
  0xcb, 0x59, 0xc2, 0xbe, 0x34, 0xa0, 0x7d, 0xbe, 0x9e, 0x92, 0x5d, 0x3e,
  0x80, 0x2b, 0xf1, 0x3a, 0x96, 0x3c, 0x00, 0xbe, 0x06, 0x6f, 0x0c, 0x3e,
  0xfc, 0xf9, 0xd8, 0x3d, 0x00, 0x33, 0x5b, 0x3d, 0xec, 0xd6, 0x93, 0x3d,
  0xf3, 0xdd, 0xba, 0xbd, 0x10, 0x9f, 0x92, 0x3d, 0xa6, 0x31, 0xd0, 0xbd,
  0x58, 0x3e, 0x20, 0xbe, 0x40, 0xce, 0xcb, 0x3b, 0x6b, 0x15, 0xc5, 0xbd,
  0xcb, 0x9f, 0x0f, 0xbe, 0x12, 0x82, 0x01, 0x3e, 0x98, 0xeb, 0xa4, 0xbd,
  0xa0, 0x67, 0xc2, 0xbc, 0x33, 0x54, 0x37, 0xbe, 0x98, 0x7a, 0x20, 0xbe,
  0x00, 0xb0, 0x64, 0x3a, 0x9e, 0x77, 0xfa, 0xbd, 0x29, 0x92, 0xd0, 0xbd,
  0xac, 0xdf, 0x35, 0x3e, 0x38, 0xe9, 0x0a, 0x3e, 0xce, 0x49, 0x06, 0x3e,
  0xf0, 0x7a, 0xc9, 0x3c, 0x50, 0x54, 0xfa, 0xbd, 0x16, 0xa3, 0x0e, 0xbe,
  0xcc, 0x11, 0x39, 0x3e, 0x30, 0x35, 0x1b, 0x3e, 0x06, 0x03, 0x77, 0xbd,
  0xd4, 0x62, 0xb9, 0x3d, 0x74, 0x68, 0x04, 0x3d, 0x43, 0x62, 0x95, 0xbd,
  0x55, 0xa9, 0x39, 0xbe, 0xfe, 0xd5, 0x39, 0xbe, 0x8d, 0x68, 0x27, 0xbe,
  0x4f, 0xb7, 0xaa, 0xbd, 0x56, 0x1b, 0xab, 0xbd, 0x70, 0x39, 0x32, 0xbe,
  0x50, 0x17, 0x35, 0x3e, 0x10, 0x9b, 0x06, 0xbe, 0x9a, 0xb9, 0xca, 0xbd,
  0xf4, 0x72, 0xe7, 0x3d, 0x08, 0xb6, 0x6a, 0xbd, 0x18, 0x7d, 0x66, 0xbd,
  0x3a, 0x19, 0x0f, 0x3e, 0xa4, 0xbb, 0xcb, 0x3d, 0x30, 0x28, 0xe6, 0x3d,
  0xd7, 0x9a, 0x36, 0xbe, 0x59, 0x59, 0xf3, 0xbd, 0xb0, 0xe4, 0x50, 0x3c,
  0x38, 0xb2, 0xf4, 0xbc, 0x58, 0x7b, 0xd9, 0x3c, 0x48, 0x0f, 0x34, 0x3e,
  0x24, 0xb4, 0x22, 0x3e, 0x74, 0x09, 0x48, 0x3d, 0xe8, 0x3a, 0xee, 0xbc,
  0xc4, 0xd6, 0xd0, 0x3d, 0xfa, 0x47, 0x37, 0x3e, 0xc0, 0xeb, 0x14, 0xbb,
  0xe9, 0xc9, 0xea, 0xbd, 0xfc, 0xf4, 0xc8, 0x3d, 0xc6, 0x68, 0x22, 0xbe,
  0x60, 0x24, 0xe4, 0x3c, 0xfa, 0x37, 0xb6, 0xbd, 0x66, 0x70, 0xdf, 0xbd,
  0xb9, 0xab, 0x14, 0xbe, 0xe0, 0x6f, 0x3e, 0xbd, 0xed, 0x82, 0x89, 0xbd,
  0xb8, 0x2f, 0x23, 0x3d, 0x88, 0xf5, 0xcf, 0x3c, 0xf0, 0x88, 0xe0, 0xbc,
  0xbf, 0xba, 0xc4, 0xbd, 0xda, 0xc9, 0xd5, 0xbd, 0x88, 0x99, 0xd2, 0xbc,
  0x5c, 0xaa, 0x71, 0x3d, 0x40, 0x53, 0x98, 0x3b, 0xde, 0x4e, 0x2b, 0x3e,
  0x3c, 0x6c, 0x17, 0x3d, 0xb0, 0xd1, 0x00, 0x3e, 0xf0, 0xbf, 0x23, 0xbd,
  0x68, 0x41, 0xa2, 0x3d, 0x3c, 0x38, 0x2e, 0x3e, 0x07, 0x65, 0xe0, 0xbd,
  0xb4, 0xbe, 0x0f, 0xbe, 0xd0, 0x45, 0x92, 0x3d, 0x0c, 0x75, 0x1d, 0xbe,
  0x68, 0xc9, 0x1d, 0xbe, 0x80, 0xbe, 0x59, 0xbd, 0xcf, 0x0c, 0x2b, 0xbe,
  0x74, 0x2e, 0x47, 0x3d, 0x23, 0x3d, 0x02, 0xbe, 0xa8, 0xa0, 0x88, 0x3c,
  0x40, 0x12, 0x0e, 0x3b, 0xfa, 0x95, 0x39, 0x3e, 0x2c, 0x65, 0xa4, 0x3d,
  0x2d, 0xd7, 0x9b, 0xbd, 0x4e, 0xd1, 0x08, 0x3e, 0x78, 0xc5, 0xdb, 0x3d,
  0x77, 0x40, 0x07, 0xbe, 0x44, 0x06, 0xef, 0x3d, 0x3c, 0x9f, 0xb0, 0x3d,
  0x50, 0xb8, 0x06, 0xbd, 0xc9, 0x56, 0x24, 0xbe, 0xb4, 0xb2, 0xd3, 0xbd,
  0x3d, 0x04, 0x35, 0xbe, 0x1a, 0x74, 0x2b, 0xbe, 0x66, 0x1e, 0x03, 0x3e,
  0xaf, 0x18, 0x87, 0xbd, 0x9a, 0x22, 0x86, 0x3d, 0xa8, 0x03, 0x85, 0x3d,
  0xc8, 0x7e, 0xae, 0x3c, 0x47, 0x09, 0x98, 0xbd, 0x58, 0xdf, 0xf3, 0xbc,
  0x73, 0xaa, 0xe3, 0xbd, 0x4b, 0x9d, 0xc0, 0xbd, 0x80, 0x8e, 0x06, 0x3d,
  0xc0, 0xa5, 0x77, 0xbb, 0x37, 0x58, 0xfd, 0xbd, 0x20, 0x13, 0xe9, 0xbb,
  0x6c, 0x5e, 0x25, 0xbe, 0x28, 0x53, 0x18, 0x3e, 0x90, 0xe9, 0x39, 0x3e,
  0x0a, 0x31, 0xcf, 0xbd, 0x86, 0xc7, 0xa0, 0xbd, 0xa6, 0x07, 0x18, 0x3e,
  0x26, 0xc3, 0x09, 0xbe, 0x9e, 0xb3, 0x1a, 0x3e, 0x00, 0x7c, 0x5a, 0xba,
  0x18, 0x70, 0xa5, 0xbc, 0x28, 0x6b, 0x1e, 0xbe, 0x24, 0xcb, 0x0b, 0x3d,
  0xac, 0x00, 0xf8, 0x3d, 0x22, 0xff, 0x02, 0x3e, 0x3a, 0xca, 0x27, 0x3e,
  0xa4, 0x5a, 0xbc, 0x3d, 0xfc, 0xa2, 0x0d, 0x3e, 0xfc, 0x7b, 0x4f, 0xbd,
  0xe3, 0x22, 0x95, 0xbd, 0x1a, 0x46, 0x32, 0xbe, 0x5a, 0xf2, 0x85, 0x3d,
  0xc0, 0x37, 0x7e, 0x3b, 0xf4, 0xcb, 0x20, 0x3d, 0x5d, 0x39, 0x8d, 0xbd,
  0xfc, 0x52, 0x1c, 0x3e, 0x5c, 0x43, 0xd5, 0x3d, 0x1b, 0xb6, 0x06, 0xbe,
  0xf8, 0x5c, 0x4d, 0x3d, 0xb4, 0x22, 0xe6, 0xbd, 0x6c, 0xad, 0x3c, 0x3d,
  0x13, 0x9f, 0x4f, 0xbc, 0xf0, 0x6f, 0x34, 0x3e, 0x10, 0x87, 0x72, 0xbd,
  0x92, 0x39, 0x83, 0xbd, 0x97, 0x38, 0x36, 0xbe, 0xb1, 0xa8, 0xa7, 0xbc,
  0x88, 0x38, 0xb4, 0xbd, 0x13, 0xd8, 0xe4, 0xbd, 0xa3, 0xc6, 0xa1, 0xbd,
  0xeb, 0x83, 0x2e, 0xbe, 0x91, 0x97, 0xe9, 0xbc, 0x80, 0x69, 0x1e, 0x3e,
  0x98, 0x02, 0x80, 0x3d, 0x5e, 0xbc, 0x11, 0xbe, 0x6c, 0x63, 0x12, 0x3d,
  0x72, 0x10, 0x80, 0xbc, 0x18, 0x04, 0xcd, 0xbc, 0xfe, 0xb9, 0x2d, 0x3e,
  0xde, 0x34, 0x0b, 0xbe, 0x86, 0x10, 0x1a, 0x3e, 0x32, 0x4c, 0x0c, 0x3e,
  0xb0, 0x5a, 0x34, 0xbe, 0xd7, 0xe1, 0xe7, 0xbd, 0x61, 0x75, 0x6f, 0xbc,
  0xfb, 0xdf, 0xb3, 0xbd, 0x42, 0x3f, 0x06, 0x3e, 0x70, 0xff, 0xd9, 0x3d,
  0x1c, 0x73, 0x98, 0x3d, 0x1c, 0x1a, 0x05, 0xbd, 0xdf, 0x17, 0xa6, 0xbd,
  0x0c, 0xc0, 0xb3, 0x3d, 0xaa, 0x87, 0x12, 0x3e, 0x60, 0x2d, 0x53, 0x3d,
  0x85, 0xc6, 0x5c, 0xbd, 0xe0, 0x89, 0x9d, 0xbc, 0x1d, 0xc3, 0x20, 0xbe,
  0x3d, 0xc5, 0x4d, 0xbd, 0x92, 0xce, 0xda, 0xbd, 0x15, 0x3e, 0x26, 0xbe,
  0x79, 0x5c, 0xe1, 0xbd, 0x80, 0x8d, 0xfc, 0xbd, 0x34, 0x70, 0xbe, 0x3d,
  0x1d, 0x4e, 0xf2, 0xbd, 0xa2, 0x5e, 0xd1, 0xbd, 0xb4, 0x37, 0x34, 0x3d,
  0x73, 0x10, 0xbd, 0xbd, 0x3e, 0x41, 0xfd, 0xbd, 0x62, 0x48, 0xef, 0x3b,
  0x2c, 0xb1, 0x23, 0x3e, 0xdc, 0x6f, 0xd7, 0xbd, 0x88, 0x71, 0x47, 0x3d,
  0x46, 0x6d, 0xea, 0x3c, 0x62, 0x8d, 0x1e, 0x3e, 0x9b, 0x27, 0x15, 0xbe,
  0x06, 0x9a, 0x33, 0x3e, 0xc0, 0xcd, 0x20, 0x3e, 0x9c, 0xcd, 0xb4, 0xbb,
  0x2f, 0x5f, 0xa7, 0x3d, 0x9c, 0x82, 0x08, 0x3e, 0xe6, 0x60, 0x14, 0x3e,
  0xcc, 0x09, 0x30, 0x3e, 0xea, 0xd2, 0x79, 0xbc, 0xec, 0xf4, 0x2d, 0x3e,
  0x46, 0x06, 0x14, 0x3e, 0xdd, 0xc1, 0xaf, 0xbd, 0x84, 0x46, 0x04, 0x3e,
  0xa2, 0x8c, 0x27, 0xbd, 0xae, 0xbb, 0x5b, 0x3b, 0xb1, 0xa5, 0xfc, 0x3d,
  0xde, 0x09, 0x30, 0xbe, 0xa7, 0x2b, 0x07, 0xbe, 0x29, 0xd3, 0x26, 0xbe,
  0x5f, 0xc3, 0xa3, 0x3d, 0x50, 0xcc, 0xe3, 0xbc, 0x96, 0xa8, 0x34, 0xbe,
  0xd7, 0xc7, 0x87, 0xbd, 0x32, 0x38, 0x13, 0xbd, 0x7c, 0x35, 0x26, 0x3e,
  0x0e, 0x36, 0xf5, 0x3d, 0x30, 0xff, 0xf6, 0x3d, 0xf7, 0x60, 0x15, 0xbe,
  0x36, 0x6e, 0xaf, 0xbd, 0xc3, 0x20, 0x83, 0x3d, 0x8b, 0x0e, 0xe8, 0xbd,
  0x8e, 0x16, 0xe2, 0x3d, 0x28, 0x64, 0x0e, 0xbe, 0xd0, 0xb0, 0x1d, 0x3e,
  0x6e, 0x05, 0x87, 0x3d, 0x47, 0x80, 0x12, 0xbd, 0xa9, 0x29, 0x0f, 0xbe,
  0xd1, 0x61, 0x24, 0xbe, 0xfd, 0x36, 0x0d, 0xbe, 0xef, 0x4a, 0xff, 0xbd,
  0x2b, 0xe9, 0x16, 0x3d, 0xb9, 0x98, 0x14, 0xbe, 0x0d, 0x64, 0x00, 0x3e,
  0x6f, 0x10, 0x2f, 0x3e, 0x8e, 0x38, 0xda, 0xbd, 0x8c, 0xab, 0x89, 0xbc,
  0xed, 0x3a, 0x2f, 0x3d, 0x91, 0x95, 0xae, 0xbd, 0x73, 0xad, 0x81, 0x3d,
  0xe6, 0xed, 0xca, 0x3d, 0xbe, 0xdc, 0xdf, 0x3d, 0xfc, 0x65, 0x37, 0xbd,
  0x1f, 0xb8, 0xa2, 0xbd, 0x6b, 0xe5, 0xbe, 0x3d, 0x81, 0x2f, 0x20, 0xbe,
  0x71, 0xdc, 0xad, 0xbc, 0xf8, 0x81, 0x74, 0x3d, 0xee, 0x1d, 0xe0, 0xbd,
  0xc8, 0x32, 0xc6, 0xbb, 0xdc, 0xb2, 0x0e, 0x3d, 0x72, 0xc0, 0x2b, 0x3d,
  0xc8, 0xf8, 0x2f, 0x3e, 0xbe, 0x62, 0xf6, 0x3b, 0x70, 0x55, 0x2a, 0xbe,
  0x76, 0x90, 0xf6, 0x3d, 0xf9, 0x8e, 0x27, 0x3e, 0x48, 0x36, 0xc0, 0x3d,
  0xd0, 0xa0, 0x3d, 0xbe, 0x0a, 0x52, 0x09, 0xbe, 0x8d, 0x27, 0x0a, 0xbe,
  0x9d, 0x44, 0xb5, 0x3c, 0xc2, 0x91, 0x0a, 0xbe, 0xcc, 0x00, 0x96, 0x3d,
  0xc9, 0xd5, 0xbc, 0xbd, 0x32, 0xd1, 0x2c, 0x3e, 0x69, 0x0f, 0x84, 0x3d,
  0x37, 0x04, 0x32, 0xbe, 0x8f, 0x90, 0xd7, 0x3d, 0x39, 0x14, 0xbc, 0xbd,
  0x06, 0x63, 0x01, 0x3d, 0x3e, 0xdb, 0xf5, 0xbc, 0xf7, 0x17, 0x40, 0x3d,
  0x61, 0x8a, 0x26, 0x3d, 0x46, 0xc2, 0x00, 0xbe, 0x48, 0x40, 0x1a, 0xbe,
  0x0c, 0xeb, 0xd2, 0x3d, 0x7e, 0xed, 0xb1, 0xbc, 0xb4, 0x2d, 0x12, 0x3e,
  0x4c, 0xbe, 0x11, 0xbe, 0x13, 0x2c, 0xaa, 0x3d, 0xd0, 0xaa, 0x1e, 0x3d,
  0xc1, 0x2e, 0xb1, 0xbd, 0x5e, 0xcb, 0x47, 0xbd, 0x8f, 0x36, 0x1e, 0xbe,
  0x61, 0xce, 0x29, 0xbb, 0x2e, 0x50, 0xff, 0xbd, 0xca, 0xa2, 0xaf, 0x3c,
  0x22, 0x80, 0xd7, 0xbc, 0x1d, 0x58, 0x1c, 0x3e, 0xa1, 0x4e, 0x82, 0x3d,
  0x49, 0xea, 0x07, 0xbd, 0xbe, 0x06, 0x34, 0xbd, 0xde, 0x9f, 0x04, 0xbe,
  0xb4, 0xb8, 0x43, 0x3a, 0x15, 0xc6, 0xf8, 0x3c, 0xae, 0x7c, 0x2f, 0xbe,
  0xc5, 0x24, 0xb9, 0x3d, 0x91, 0x76, 0x06, 0xbe, 0x12, 0x9e, 0xf1, 0x3d,
  0x6f, 0x63, 0x72, 0xbd, 0x95, 0xaa, 0x27, 0x3e, 0x02, 0x9f, 0xdd, 0x3d,
  0xcf, 0x5b, 0x7e, 0xbd, 0x1d, 0x39, 0x10, 0x3e, 0xfd, 0x8a, 0x5e, 0xbd,
  0xea, 0x2c, 0x39, 0xbe, 0xaa, 0xb5, 0x19, 0xbd, 0xb7, 0x83, 0xd2, 0xbd,
  0xb2, 0xb3, 0xff, 0x3c, 0xf2, 0x03, 0x53, 0xbd, 0x37, 0x6a, 0x90, 0x3b,
  0x15, 0x72, 0x34, 0xbe, 0x97, 0x5a, 0x2f, 0xbc, 0x3a, 0x35, 0xa7, 0x3d,
  0x6d, 0x5e, 0x89, 0xbc, 0x47, 0x5d, 0x4e, 0xbc, 0xbb, 0xc6, 0x56, 0x3d,
  0xea, 0xbd, 0x65, 0x3d, 0x03, 0x70, 0x37, 0x3d, 0xc5, 0xb6, 0x10, 0x3e,
  0x81, 0xee, 0xcf, 0xbd, 0x0b, 0x3c, 0x33, 0x3e, 0x97, 0xab, 0x33, 0x3e,
  0x55, 0xdb, 0xe9, 0x3d, 0x01, 0xb1, 0xf8, 0xbd, 0x39, 0x7b, 0xdb, 0xbd,
  0xe9, 0x6f, 0x22, 0x3e, 0x8a, 0x15, 0x38, 0x3c, 0x3b, 0x95, 0x2b, 0x3e,
  0x33, 0x88, 0xcc, 0x3c, 0x8e, 0xf1, 0x98, 0xbd, 0x64, 0x75, 0x10, 0xbe,
  0x6c, 0x75, 0x90, 0xbd, 0xdf, 0x1f, 0xd8, 0xbd, 0x42, 0x06, 0x15, 0x3d,
  0xa1, 0xfb, 0x8f, 0x3d, 0xa6, 0xab, 0x15, 0xbd, 0xc8, 0xa4, 0x05, 0xbe,
  0xc3, 0x14, 0x06, 0x3e, 0x41, 0x33, 0x97, 0x3d, 0x3c, 0x8f, 0x02, 0xbe,
  0x6d, 0x1a, 0xe1, 0x3d, 0x81, 0x95, 0x83, 0xbd, 0xe3, 0xf8, 0x7b, 0xbb,
  0x41, 0xba, 0x2c, 0x3e, 0x97, 0x79, 0xbe, 0xbd, 0x76, 0x53, 0x50, 0xbd,
  0x0a, 0x61, 0x1e, 0x3d, 0xaf, 0x78, 0x38, 0xbe, 0xde, 0x01, 0x76, 0xbd,
  0x41, 0x69, 0xcf, 0x3d, 0x23, 0xd4, 0x31, 0xbd, 0x85, 0xec, 0xb0, 0xbc,
  0xa9, 0x37, 0x11, 0xbe, 0x45, 0x78, 0xa8, 0x3d, 0x80, 0xf3, 0x0e, 0xbe,
  0xbb, 0xa5, 0x23, 0x3e, 0xde, 0xd4, 0xe6, 0xbd, 0x56, 0x69, 0xc4, 0xbd,
  0xe9, 0x2c, 0x23, 0xbe, 0xb4, 0x7e, 0xdd, 0xbb, 0xd4, 0x7f, 0x8f, 0x3b,
  0x72, 0xbe, 0x75, 0xbd, 0x54, 0x44, 0x23, 0xbe, 0x2c, 0xc9, 0xba, 0xbc,
  0xc0, 0x34, 0x34, 0x3e, 0x3d, 0xe8, 0xd7, 0x3d, 0x50, 0x15, 0xad, 0xbd,
  0x41, 0x75, 0xee, 0x3d, 0x0c, 0x54, 0x22, 0xbe, 0x7e, 0x91, 0xa5, 0x3d,
  0x5d, 0x0c, 0xd2, 0x3d, 0x76, 0x7d, 0x1f, 0xbe, 0x40, 0xfa, 0x0d, 0x3d,
  0x6c, 0xc5, 0xe9, 0xbd, 0xaa, 0x63, 0xd3, 0x3c, 0xd6, 0xbb, 0x82, 0x3d,
  0x1e, 0xa9, 0xc0, 0xbd, 0x7e, 0x2c, 0x28, 0x3e, 0xe0, 0xf1, 0xd4, 0x38,
  0xe3, 0x67, 0xce, 0x3d, 0x28, 0xaa, 0x57, 0x3d, 0xb7, 0x50, 0xd1, 0xbd,
  0x10, 0xb5, 0x40, 0xbd, 0x3f, 0x90, 0xb6, 0xbd, 0xa7, 0x8e, 0x99, 0x3c,
  0x68, 0xf0, 0x52, 0x3c, 0xe1, 0x04, 0x0e, 0xbe, 0xf8, 0x65, 0x26, 0x3e,
  0x4c, 0x14, 0x29, 0x3d, 0x1c, 0x35, 0x6e, 0xbd, 0x72, 0x71, 0x4c, 0x3b,
  0x9b, 0x94, 0xcd, 0x3d, 0x4c, 0xa2, 0x07, 0xbe, 0xa4, 0x56, 0x3d, 0xbe,
  0x50, 0x72, 0x61, 0x3d, 0xf3, 0x81, 0xec, 0x3d, 0x16, 0xc7, 0x65, 0xbc,
  0x93, 0xa2, 0x27, 0x3e, 0x3c, 0x87, 0x88, 0xbd, 0x08, 0x48, 0x1c, 0xbc,
  0x87, 0x4b, 0x38, 0xbc, 0x49, 0x10, 0x02, 0x3d, 0xf3, 0x3c, 0x10, 0xbd,
  0xa7, 0x62, 0x13, 0xbe, 0xd4, 0xea, 0x69, 0xbd, 0x20, 0x12, 0xb3, 0xbd,
  0xac, 0xce, 0x39, 0xbe, 0xb2, 0x32, 0x3a, 0xbe, 0xce, 0x02, 0x96, 0x3c,
  0x59, 0xf9, 0xd9, 0xbd, 0xf6, 0x1d, 0xfb, 0xbd, 0x12, 0x9a, 0xad, 0xbc,
  0xb3, 0x44, 0x22, 0xbe, 0x1b, 0xc1, 0x0d, 0xbe, 0x6d, 0x5c, 0xfb, 0xbd,
  0x7d, 0x68, 0xc2, 0xbd, 0x67, 0x88, 0x28, 0x3e, 0x4c, 0x44, 0xd0, 0x3c,
  0xd9, 0xe7, 0x50, 0xbd, 0xf8, 0xd8, 0x62, 0x3d, 0x20, 0x9b, 0x0a, 0xbe,
  0x13, 0xfd, 0x2f, 0x3e, 0x48, 0x5c, 0x72, 0x3d, 0x6d, 0xa0, 0xeb, 0xbc,
  0x83, 0x92, 0x1a, 0x3e, 0xf3, 0x23, 0x5d, 0xbd, 0xa5, 0x97, 0x32, 0x3d,
  0xe8, 0xeb, 0x88, 0xbc, 0xf5, 0x86, 0x3f, 0xbd, 0x11, 0xc0, 0x47, 0x3d,
  0xb1, 0xf0, 0x9e, 0xbd, 0xaf, 0x27, 0xc1, 0x3d, 0xba, 0x2d, 0xc7, 0xbb,
  0x9c, 0xac, 0xb0, 0x3b, 0xfd, 0xc2, 0x21, 0xbd, 0x34, 0x4f, 0x31, 0xbe,
  0x06, 0x8c, 0x1b, 0xbe, 0x5c, 0xbe, 0xfa, 0x3d, 0xb8, 0x67, 0x28, 0x3e,
  0xd1, 0x37, 0x32, 0xbe, 0xdc, 0xc1, 0x35, 0xbd, 0xd8, 0x6c, 0xe5, 0x3d,
  0x24, 0xa9, 0xb8, 0x3d, 0x80, 0x84, 0x6f, 0x3b, 0x56, 0x8c, 0x0f, 0x3e,
  0xaa, 0xee, 0x15, 0xbe, 0x22, 0xe5, 0x9f, 0xbd, 0x22, 0x73, 0x28, 0xbe,
  0x9b, 0xd8, 0xb5, 0xbd, 0x78, 0xa1, 0xf5, 0x3c, 0x60, 0xf3, 0xd8, 0x3b,
  0x5e, 0xca, 0xdc, 0xbd, 0x92, 0x3c, 0x20, 0x3e, 0x00, 0x4c, 0xa7, 0xbd,
  0x64, 0xc3, 0x1b, 0xbd, 0x10, 0x84, 0xed, 0xbc, 0xa6, 0x4c, 0x15, 0xbe,
  0x4c, 0x1e, 0xa8, 0x3d, 0x80, 0x9f, 0x22, 0x3c, 0x52, 0xad, 0x26, 0xbe,
  0x68, 0x9a, 0x9e, 0x3d, 0x3a, 0x73, 0x0a, 0x3e, 0xe8, 0xf3, 0x59, 0xbd,
  0xac, 0x6c, 0x8f, 0x3d, 0xa8, 0x84, 0x20, 0xbe, 0x90, 0xff, 0x5c, 0x3c,
  0x30, 0x55, 0xe8, 0x3d, 0xd6, 0x26, 0x04, 0x3e, 0x84, 0x24, 0x0e, 0x3e,
  0xac, 0xe5, 0x7c, 0x3d, 0xb7, 0x12, 0x2a, 0xbe, 0xbc, 0x5f, 0x4c, 0xbd,
  0x18, 0x5d, 0x83, 0x3d, 0xf1, 0x5b, 0x0e, 0xbe, 0xf0, 0x5f, 0x3e, 0x3d,
  0xb3, 0x7b, 0xb2, 0xbd, 0x4c, 0x47, 0x31, 0x3e, 0x20, 0xdb, 0xa6, 0xbd,
  0x4e, 0x4d, 0xef, 0xbd, 0xec, 0x3e, 0x27, 0xbe, 0x00, 0xae, 0x57, 0xbb,
  0x84, 0xde, 0x27, 0x3e, 0x9b, 0x34, 0x03, 0xbe, 0x04, 0x2b, 0xb9, 0x3d,
  0x86, 0xd8, 0x39, 0x3e, 0x58, 0x8e, 0x34, 0x3e, 0xb8, 0x09, 0xcc, 0xbd,
  0x4a, 0x6c, 0xda, 0xbd, 0xc4, 0xb9, 0x35, 0x3d, 0x3b, 0x9a, 0x9f, 0xbd,
  0x98, 0xfa, 0x58, 0x3d, 0xda, 0x1d, 0x2e, 0x3e, 0xe4, 0xa0, 0x5d, 0x3d,
  0x00, 0x1c, 0x02, 0x3b, 0x96, 0x40, 0x76, 0xbd, 0x6f, 0xde, 0xbf, 0xbd,
  0x2c, 0x19, 0x9d, 0x3d, 0x90, 0xb1, 0x75, 0xbc, 0x00, 0xf4, 0x24, 0xbb,
  0x55, 0xcf, 0xf9, 0xbd, 0xfc, 0x74, 0xdf, 0x3d, 0x9b, 0xae, 0x0c, 0xbe,
  0x0a, 0xe9, 0x0f, 0xbe, 0x00, 0x18, 0x0a, 0x3c, 0x2a, 0xe5, 0x10, 0x3e,
  0xa0, 0x1e, 0xca, 0x3d, 0xcc, 0x54, 0xde, 0x3d, 0x4c, 0x21, 0x75, 0x3d,
  0x60, 0xbe, 0xdd, 0x3d, 0x7c, 0xe4, 0x35, 0x3e, 0x30, 0x77, 0x23, 0x3d,
  0x78, 0x68, 0xe2, 0x3c, 0x74, 0xf7, 0x46, 0x3d, 0x1c, 0xcb, 0x97, 0x3d,
  0xb0, 0x97, 0x25, 0x3c, 0x5b, 0x03, 0xbb, 0xbd, 0xac, 0x5d, 0x1b, 0xbe,
  0x44, 0xc5, 0x36, 0xbe, 0x24, 0x0b, 0x20, 0xbe, 0x60, 0x26, 0x86, 0x3c,
  0x20, 0xd3, 0xc8, 0xbb, 0xd0, 0xaf, 0xb7, 0xbc, 0xe4, 0x3c, 0x06, 0x3d,
  0x88, 0x3f, 0x84, 0x3d, 0x10, 0x39, 0x05, 0xbe, 0xad, 0xf9, 0xaf, 0xbd,
  0x52, 0x88, 0x00, 0x3e, 0x82, 0x42, 0x19, 0x3e, 0xf8, 0x6d, 0xde, 0x3d,
  0x26, 0x03, 0x0d, 0xbe, 0x51, 0x24, 0x36, 0xbe, 0xd4, 0x13, 0x62, 0xbd,
  0xca, 0x09, 0x0a, 0x3e, 0x5e, 0xf6, 0x05, 0xbe, 0x59, 0x88, 0x22, 0xbe,
  0xbc, 0xba, 0x45, 0x3d, 0x24, 0xa0, 0x7e, 0xbd, 0x06, 0x44, 0x35, 0x3e,
  0x38, 0x38, 0x3a, 0xbe, 0x98, 0x42, 0x03, 0x3e, 0xbe, 0x66, 0x17, 0xbe,
  0xb7, 0xf8, 0x31, 0xbe, 0x20, 0xa0, 0xdc, 0x3d, 0x94, 0xd2, 0x01, 0xbd,
  0x76, 0xd8, 0x6b, 0xbd, 0x94, 0xeb, 0xfa, 0xbd, 0xf4, 0x0b, 0x8f, 0xbd,
  0x20, 0x83, 0xa1, 0xbc, 0xe4, 0x63, 0xa5, 0xbd, 0xd0, 0x9f, 0x61, 0x3d,
  0xd4, 0x0c, 0xa1, 0x3d, 0x40, 0x51, 0xb2, 0xbd, 0x9c, 0x4c, 0xc1, 0xbd,
  0x34, 0x1e, 0xe1, 0x3d, 0xf8, 0x2b, 0x2e, 0x3e, 0x20, 0x54, 0xdd, 0x3d,
  0x00, 0x7a, 0x54, 0xbd, 0xec, 0x66, 0x03, 0xbd, 0x00, 0xc8, 0xb2, 0x3d,
  0x80, 0x54, 0xae, 0x3a, 0xe9, 0xa3, 0xf8, 0xbd, 0x42, 0x09, 0xa3, 0xbd,
  0xcc, 0xc4, 0xc0, 0xbd, 0x38, 0x3c, 0xcc, 0x3c, 0x20, 0x13, 0xfe, 0xbd,
  0x19, 0x31, 0xbd, 0xbd, 0x60, 0xf2, 0x13, 0x3d, 0x4c, 0x5c, 0xd3, 0x3d,
  0xe4, 0x00, 0x43, 0xbd, 0x20, 0xf4, 0xb6, 0xbb, 0x0c, 0xf8, 0x07, 0xbd,
  0xb2, 0x0e, 0x83, 0x3d, 0xc0, 0x2e, 0x6c, 0xbc, 0xa0, 0xc5, 0x05, 0xbc,
  0xb8, 0x11, 0x3a, 0x3e, 0x90, 0x9f, 0x63, 0x3d, 0x66, 0x12, 0x24, 0xbe,
  0xd6, 0x78, 0x31, 0x3e, 0x90, 0xf3, 0x03, 0xbd, 0x04, 0x94, 0xe5, 0x3d,
  0xc2, 0x2e, 0x1e, 0xbe, 0x6c, 0xf6, 0xcc, 0x3d, 0x00, 0x73, 0x0a, 0xbe,
  0x58, 0xbf, 0x8d, 0x3d, 0x40, 0x3c, 0x66, 0xbc, 0xc0, 0x10, 0xb3, 0x3b,
  0x43, 0x8a, 0x21, 0xbe, 0xc6, 0xb2, 0x30, 0xbe, 0x34, 0x23, 0xd6, 0x3d,
  0x18, 0x96, 0x6b, 0xbd, 0x98, 0x3a, 0x0c, 0xbe, 0x9c, 0x0f, 0x1f, 0xbe,
  0x01, 0x97, 0xe6, 0xbd, 0xc1, 0xa6, 0xeb, 0xbd, 0x29, 0x62, 0x2e, 0xbe,
  0x0c, 0x15, 0x9e, 0x3d, 0xd8, 0x8e, 0xd1, 0x3d, 0x04, 0x35, 0x2d, 0x3d,
  0x38, 0xcd, 0x12, 0x3e, 0x56, 0xc6, 0x1d, 0x3e, 0x9e, 0x89, 0x89, 0x3d,
  0x38, 0xcc, 0x90, 0xbc, 0x3a, 0x1d, 0x0e, 0x3e, 0xa0, 0x38, 0xb6, 0xbc,
  0x94, 0x27, 0x18, 0x3e, 0x1e, 0x52, 0x12, 0x3e, 0x20, 0x5f, 0x3c, 0x3c,
  0xc2, 0x2a, 0x37, 0x3e, 0x80, 0x5c, 0xa9, 0x3a, 0x24, 0x48, 0x17, 0x3d,
  0xd4, 0x3f, 0x13, 0xbe, 0x48, 0x5e, 0x94, 0x3c, 0x04, 0x77, 0xe2, 0xbd,
  0x2f, 0x61, 0xef, 0xbd, 0x07, 0xfa, 0x31, 0xbe, 0x19, 0x5b, 0x19, 0xbe,
  0x38, 0x70, 0x31, 0xbe, 0x98, 0x8e, 0x7a, 0x3d, 0x3a, 0xe5, 0xa7, 0xbd,
  0x10, 0x11, 0x40, 0x3c, 0x40, 0xcd, 0xe9, 0x3b, 0x9c, 0xb2, 0xb5, 0x3d,
  0xe0, 0xc9, 0x38, 0x3e, 0x50, 0x09, 0x07, 0xbe, 0x91, 0x92, 0xc0, 0xbd,
  0xee, 0x90, 0x34, 0xbe, 0x5c, 0x69, 0xe3, 0x3d, 0x50, 0x99, 0x41, 0xbd,
  0x88, 0x44, 0x1f, 0x3e, 0x90, 0xb0, 0x01, 0xbd, 0x6e, 0xf5, 0x31, 0x3e,
  0x44, 0xe6, 0x20, 0x3e, 0x78, 0x5f, 0x3d, 0x3d, 0xeb, 0xc8, 0xfc, 0xbd,
  0xd2, 0x93, 0x03, 0x3e, 0x98, 0x5f, 0x8d, 0x3c, 0xd4, 0x08, 0x3a, 0x3e,
  0xc1, 0xf4, 0xb1, 0xbd, 0x1b, 0x0c, 0x10, 0xbe, 0x4c, 0x34, 0xa6, 0x3d,
  0xea, 0x61, 0xbd, 0xbd, 0xe8, 0x17, 0xe9, 0xbd, 0x54, 0xca, 0x93, 0x3d,
  0xb7, 0x55, 0xe8, 0xbd, 0x54, 0x25, 0xab, 0x3d, 0x17, 0x3a, 0x82, 0xbd,
  0x20, 0x43, 0xcd, 0xbc, 0x4b, 0x44, 0x34, 0xbe, 0x3a, 0x8d, 0x36, 0x3e,
  0x1c, 0x68, 0x3b, 0x3d, 0xfc, 0x23, 0x23, 0x3e, 0xbc, 0xff, 0x28, 0x3d,
  0xee, 0x75, 0xc5, 0xbd, 0x65, 0xb9, 0x0a, 0xbe, 0x99, 0x4b, 0xe9, 0xbd,
  0xd9, 0x27, 0x30, 0xbe, 0x64, 0x35, 0x8e, 0x3d, 0xa1, 0x11, 0x22, 0xbe,
  0x20, 0x99, 0x55, 0xbc, 0x52, 0xdd, 0xee, 0xbd, 0x34, 0x8d, 0xd7, 0x3d,
  0x60, 0xc2, 0x32, 0x3c, 0x7b, 0xc3, 0x26, 0xbe, 0xfe, 0x50, 0x1d, 0x3e,
  0x38, 0x02, 0x1d, 0xbe, 0xf8, 0x93, 0xc9, 0xbc, 0x16, 0xda, 0x2a, 0xbe,
  0x34, 0xf5, 0xce, 0xbd, 0x16, 0x36, 0x02, 0xbe, 0x78, 0xc2, 0x00, 0xbe,
  0x68, 0x37, 0x8f, 0x3d, 0x12, 0x50, 0x07, 0x3e, 0x08, 0x61, 0x2a, 0xbe,
  0xb0, 0x7c, 0xb1, 0xbc, 0x76, 0x0c, 0x09, 0xbe, 0xae, 0xb2, 0x88, 0xbd,
  0xfe, 0x86, 0x09, 0x3e, 0x98, 0xbb, 0x60, 0xbd, 0x54, 0x44, 0x22, 0xbd,
  0xfc, 0x0a, 0x09, 0x3e, 0x84, 0x96, 0x02, 0xbd, 0x76, 0x34, 0x1d, 0xbe,
  0x80, 0x65, 0x98, 0x3b, 0xbf, 0x98, 0x37, 0xbe, 0x36, 0x5c, 0x2c, 0x3e,
  0x10, 0x03, 0x35, 0xbd, 0x90, 0x9b, 0xaa, 0x3d, 0x10, 0x0a, 0xd9, 0x3c,
  0x33, 0x3f, 0xea, 0xbd, 0x08, 0xa0, 0x1f, 0x3e, 0xee, 0xd7, 0x00, 0x3e,
  0x87, 0x64, 0x13, 0xbe, 0x75, 0xd6, 0x37, 0xbe, 0x08, 0x72, 0xca, 0xbd,
  0xb8, 0xa2, 0x73, 0x3d, 0x80, 0x0c, 0x2e, 0xbd, 0x20, 0xd7, 0x19, 0x3e,
  0xd4, 0x95, 0x29, 0x3e, 0x0e, 0xca, 0x2e, 0xbe, 0x3c, 0xf1, 0x1f, 0x3d,
  0xe2, 0xba, 0x8f, 0xbd, 0xc8, 0x7f, 0xa2, 0x3d, 0x66, 0xea, 0x1e, 0x3e,
  0x8a, 0xdb, 0x07, 0xbe, 0xe4, 0x5d, 0x9c, 0x3d, 0x63, 0x48, 0x3a, 0xbe,
  0xd4, 0xe7, 0x64, 0x3d, 0xb1, 0x2f, 0xa0, 0xbd, 0xa0, 0x24, 0xee, 0xbd,
  0x84, 0xe0, 0x0f, 0x3d, 0x28, 0xd9, 0xbd, 0x3c, 0xe7, 0xb5, 0xb4, 0xbd,
  0x36, 0xcf, 0x37, 0x3e, 0xa0, 0xb2, 0x8d, 0x3b, 0x1b, 0x5d, 0x00, 0xbe,
  0x4c, 0x59, 0x55, 0x3d, 0x64, 0xdc, 0x0a, 0x3e, 0x7c, 0x88, 0x02, 0xbe,
  0x70, 0x8a, 0x36, 0xbc, 0x48, 0x69, 0xea, 0xbd, 0x7c, 0xc9, 0x23, 0x3e,
  0x70, 0x48, 0xff, 0xbc, 0x5c, 0xab, 0x52, 0x3d, 0x41, 0x2f, 0x0a, 0xbe,
  0xe5, 0xc7, 0x94, 0xbd, 0x5c, 0xed, 0x0a, 0xbd, 0xe7, 0xa9, 0xc7, 0xbd,
  0x20, 0x8e, 0xdd, 0xbc, 0x96, 0x18, 0x36, 0xbe, 0xcd, 0x60, 0x0a, 0xbe,
  0x80, 0x46, 0x35, 0x3c, 0x40, 0xd1, 0xa6, 0xbb, 0x45, 0x2d, 0x2d, 0xbe,
  0xbe, 0xe8, 0xce, 0xbd, 0x03, 0x81, 0x1b, 0xbe, 0xfc, 0xcb, 0x64, 0x3d,
  0x52, 0x72, 0x8d, 0x3b, 0x3b, 0xcf, 0x6e, 0xbd, 0xb0, 0x9c, 0xb0, 0x3d,
  0x04, 0x48, 0x05, 0x3a, 0x25, 0x9a, 0x18, 0x3e, 0x86, 0xc8, 0x97, 0xbd,
  0xaf, 0x14, 0x20, 0xbe, 0x07, 0xb5, 0xcc, 0x3d, 0x9f, 0xee, 0xac, 0xbd,
  0x4e, 0x09, 0x09, 0x3e, 0x75, 0xfd, 0x3a, 0xbe, 0x45, 0xd1, 0x9f, 0x3d,
  0x6f, 0xcf, 0xeb, 0xbd, 0xb6, 0x54, 0xea, 0xbd, 0x03, 0x25, 0x0d, 0x3e,
  0xa0, 0x18, 0xa9, 0x3d, 0xf4, 0x13, 0x04, 0x3c, 0x0c, 0xed, 0x91, 0xbc,
  0x0a, 0x65, 0x52, 0x3d, 0x65, 0x72, 0xcf, 0xbb, 0xf8, 0xac, 0x50, 0x3d,
  0x7f, 0xa1, 0xcd, 0x3d, 0xb7, 0xd5, 0x15, 0x3d, 0xa1, 0xff, 0xac, 0xbc,
  0x3b, 0xd4, 0x27, 0x3e, 0xc8, 0x72, 0x02, 0x3c, 0xfc, 0x31, 0xb4, 0x3d,
  0x10, 0x1c, 0x0f, 0x3e, 0xa5, 0x93, 0x09, 0x3b, 0xfc, 0xe1, 0x94, 0xbb,
  0xa0, 0xf3, 0x1e, 0x3e, 0xbf, 0x21, 0x26, 0xbe, 0xb8, 0x01, 0xd7, 0xbd,
  0x0e, 0x50, 0x1e, 0xbc, 0x72, 0x22, 0x0a, 0xbe, 0x8a, 0xc5, 0xda, 0xbc,
  0x51, 0x18, 0xdd, 0xbd, 0xdf, 0xf2, 0xd6, 0x3d, 0x42, 0x67, 0xba, 0xbc,
  0x8a, 0xc3, 0x18, 0xbe, 0xd7, 0x29, 0x27, 0xbe, 0x16, 0x96, 0xa9, 0x3c,
  0x8e, 0x2b, 0x0d, 0xbe, 0x13, 0xa1, 0x72, 0x3d, 0xe4, 0x95, 0xd2, 0x3d,
  0x07, 0x5d, 0x2c, 0xbe, 0x28, 0xa5, 0x19, 0xbe, 0x07, 0x8a, 0xfd, 0x3d,
  0x5e, 0x60, 0xb6, 0x3d, 0xb4, 0x33, 0xfa, 0x3c, 0x0c, 0x46, 0x47, 0xbe,
  0x74, 0x0f, 0x45, 0xbe, 0x64, 0x1b, 0x63, 0x3d, 0x35, 0x1b, 0x3e, 0x3d,
  0x26, 0x36, 0x21, 0xbc, 0x68, 0x6f, 0xa0, 0xbd, 0x95, 0x1d, 0x29, 0x3e,
  0x31, 0x5a, 0x25, 0xbe, 0x82, 0x94, 0x3a, 0xbe, 0xec, 0xbe, 0xbc, 0x3d,
  0x2f, 0x2f, 0xd5, 0x3c, 0x84, 0xa6, 0x0d, 0x3e, 0x4e, 0x6c, 0xd4, 0xbd,
  0xf2, 0x46, 0x30, 0xbe, 0x2d, 0x78, 0xba, 0xbc, 0x02, 0x80, 0xcb, 0x3d,
  0xfa, 0x0c, 0x99, 0x3d, 0x31, 0x33, 0xba, 0xbd, 0x53, 0xa1, 0xc3, 0xbd,
  0x23, 0x3e, 0x27, 0x3e, 0xcd, 0x53, 0xd4, 0x3d, 0x5c, 0xeb, 0x02, 0x3e,
  0x2d, 0xb6, 0x8a, 0xbd, 0x25, 0x1c, 0x1c, 0x3e, 0x72, 0x38, 0x23, 0xbe,
  0xae, 0x9f, 0xc3, 0x3d, 0x42, 0x7c, 0x87, 0x3d, 0x66, 0x70, 0x11, 0xbc,
  0xea, 0x46, 0x5e, 0xbd, 0xd5, 0x62, 0xe2, 0xbc, 0x11, 0xfa, 0x20, 0x3e,
  0x6d, 0xad, 0x50, 0xbd, 0x7d, 0xcb, 0xc8, 0x3c, 0xe0, 0x3b, 0x40, 0xbe,
  0xe6, 0xc9, 0xa0, 0xbd, 0xe7, 0x89, 0x21, 0xbe, 0x9e, 0x11, 0x0b, 0x3d,
  0x6f, 0xf8, 0x06, 0xbc, 0x6f, 0x9e, 0x21, 0x3e, 0x6f, 0x29, 0xc6, 0x3d,
  0xf3, 0xcc, 0xc9, 0x3d, 0x08, 0x3e, 0x14, 0xbe, 0xbc, 0x8d, 0xd0, 0x3d,
  0x44, 0x03, 0x1b, 0x3e, 0x86, 0x7d, 0x8c, 0x3d, 0xbd, 0x06, 0x53, 0xbd,
  0x62, 0xe2, 0xb6, 0x3d, 0xee, 0x61, 0x1d, 0x3e, 0x8e, 0x53, 0x05, 0x3e,
  0xec, 0x48, 0x1d, 0xbe, 0x43, 0x95, 0xfb, 0xbd, 0x13, 0xc8, 0x2c, 0xbe,
  0x2e, 0x32, 0x83, 0x3c, 0x98, 0xa9, 0x25, 0xbe, 0xc8, 0xf1, 0x22, 0x3e,
  0xb9, 0x67, 0x3d, 0xbe, 0x26, 0x99, 0x24, 0xbe, 0x02, 0x72, 0xb1, 0x3d,
  0x06, 0x41, 0xa3, 0x3d, 0xd9, 0x5e, 0xd6, 0x3d, 0xa5, 0xf9, 0xf6, 0xbd,
  0xbd, 0x3a, 0x02, 0xbe, 0x85, 0x30, 0xbc, 0xbd, 0x43, 0x21, 0xb5, 0xbc,
  0x7b, 0x89, 0x06, 0xbe, 0xa3, 0xfd, 0x32, 0x3d, 0x66, 0x4b, 0x05, 0x3c,
  0xd7, 0x9a, 0x0c, 0x3e, 0x42, 0x99, 0x0c, 0x3e, 0x02, 0xaa, 0x13, 0x3d,
  0xa2, 0xdc, 0x75, 0x3d, 0x5c, 0xd8, 0x0c, 0x3e, 0xaf, 0x67, 0x05, 0xbe,
  0x3b, 0x3c, 0x3b, 0xbe, 0x0a, 0xd6, 0x3d, 0xbe, 0xb3, 0xdf, 0x00, 0x3e,
  0xeb, 0x41, 0x93, 0x3d, 0xd5, 0x23, 0x15, 0x3b, 0x70, 0x71, 0xb8, 0xbd,
  0x39, 0xef, 0xd8, 0x3c, 0x28, 0x8c, 0x61, 0xbd, 0x02, 0x76, 0x88, 0xbd,
  0x93, 0x2d, 0x2a, 0xbd, 0x7e, 0x26, 0x91, 0x3d, 0x8d, 0x65, 0xcd, 0xbd,
  0x5c, 0xd9, 0x18, 0xbe, 0x51, 0x98, 0x2d, 0x3d, 0x2e, 0x33, 0xef, 0xbd,
  0x75, 0x8a, 0x20, 0xbe, 0xf1, 0x22, 0x5e, 0xbc, 0x37, 0x87, 0x36, 0xbe,
  0xda, 0x42, 0x7b, 0x3d, 0x61, 0x26, 0x03, 0xbe, 0x98, 0xa9, 0x96, 0x3d,
  0x0e, 0x90, 0xc3, 0x3d, 0xab, 0x02, 0xcb, 0xbd, 0x0e, 0xbd, 0x14, 0x3e,
  0x42, 0xd6, 0xcd, 0xbd, 0xf1, 0xa9, 0xd0, 0xbc, 0x85, 0x72, 0x84, 0xbd,
  0x70, 0xb5, 0x00, 0x3d, 0x7c, 0x38, 0x27, 0xbd, 0x78, 0x14, 0x3c, 0xbd,
  0xbd, 0x12, 0xd1, 0xbd, 0x83, 0x23, 0x26, 0xbe, 0xc8, 0x83, 0xcd, 0x3d,
  0x4c, 0xf8, 0x84, 0x3d, 0x90, 0x34, 0x8e, 0x3c, 0xc0, 0x66, 0x2a, 0x3b,
  0xc1, 0xdc, 0x0d, 0xbe, 0x60, 0x53, 0x96, 0x3b, 0xfd, 0xe8, 0x9f, 0xbd,
  0x84, 0x76, 0xb8, 0x3d, 0xdc, 0xf5, 0x40, 0xbd, 0x50, 0xe4, 0xa5, 0x3c,
  0xb8, 0x0e, 0x96, 0xbc, 0x58, 0x1d, 0xdf, 0xbc, 0x4c, 0xb6, 0x7f, 0x3d,
  0xdc, 0xb8, 0xaf, 0x3d, 0xe2, 0xd0, 0x07, 0x3e, 0xca, 0xef, 0x15, 0x3e,
  0x08, 0x1e, 0xf7, 0x3c, 0xd6, 0xf9, 0x32, 0xbe, 0x0c, 0x80, 0xca, 0x3d,
  0xc3, 0x93, 0x2d, 0xbe, 0x94, 0x55, 0xe0, 0x3d, 0x74, 0x3a, 0xd6, 0x3d,
  0x50, 0x75, 0x09, 0xbe, 0x70, 0x46, 0xcf, 0x3c, 0xdb, 0xd6, 0x82, 0xbd,
  0x05, 0xc2, 0x22, 0xbe, 0x74, 0x2f, 0xa1, 0xbd, 0x36, 0x61, 0x38, 0x3e,
  0x80, 0x4f, 0x14, 0x3b, 0x60, 0x06, 0x9b, 0x3d, 0x80, 0xb0, 0xf0, 0x3c,
  0xd8, 0x70, 0xb6, 0xbc, 0x77, 0x8e, 0x06, 0xbe, 0x5f, 0x4a, 0x1d, 0xbe,
  0x62, 0x4b, 0xe2, 0xbd, 0x80, 0xae, 0x97, 0x3d, 0x08, 0xbe, 0xd2, 0xbd,
  0x30, 0x53, 0x3e, 0x3c, 0xf8, 0x04, 0xde, 0x3d, 0xc8, 0xb4, 0xe8, 0x3c,
  0x84, 0xf1, 0x71, 0x3d, 0x0c, 0xc1, 0x08, 0x3e, 0x4e, 0x45, 0x0b, 0x3e,
  0x04, 0x48, 0xc8, 0x3d, 0xf0, 0x66, 0x29, 0xbd, 0x48, 0xcd, 0x97, 0x3c,
  0xb6, 0x40, 0x00, 0x3e, 0x84, 0x5d, 0x11, 0xbe, 0x46, 0x1a, 0xa7, 0xbd,
  0x20, 0x7d, 0x49, 0x3d, 0xde, 0x22, 0x79, 0xbd, 0xfb, 0xee, 0x34, 0xbe,
  0x79, 0x82, 0xc6, 0xbd, 0x00, 0xce, 0x2b, 0xbb, 0x40, 0xe7, 0x44, 0x3b,
  0x2c, 0x53, 0x16, 0xbd, 0x54, 0x77, 0x17, 0x3d, 0x7c, 0xe5, 0x6c, 0xbd,
  0x16, 0x8c, 0x85, 0x3d, 0xb0, 0x2a, 0x4f, 0x3c, 0x96, 0x2a, 0xc9, 0xbd,
  0x49, 0x2f, 0x14, 0xbe, 0x6d, 0x6a, 0xef, 0xbd, 0x18, 0x69, 0x23, 0x3e,
  0x48, 0x66, 0xf9, 0x3c, 0x50, 0xf0, 0xd6, 0xbc, 0x18, 0x6f, 0x96, 0x3c,
  0x3f, 0xbe, 0x23, 0xbe, 0xe0, 0xf4, 0x39, 0x3e, 0x5b, 0x3c, 0x1c, 0xbe,
  0x46, 0x6b, 0x18, 0xbe, 0x42, 0xdf, 0x07, 0x3e, 0xf6, 0xfc, 0x16, 0x3e,
  0xec, 0x0f, 0x32, 0xbe, 0xac, 0xce, 0xa8, 0x3d, 0xa8, 0x7e, 0x89, 0x3c,
  0x65, 0x7c, 0x2e, 0xbe, 0xb8, 0x2e, 0x29, 0x3e, 0xe6, 0x64, 0x38, 0xbe,
  0x74, 0x2e, 0x30, 0x3e, 0x20, 0x97, 0x06, 0xbd, 0xc0, 0xcb, 0x42, 0x3c,
  0xc4, 0xcb, 0xc2, 0x3d, 0x0d, 0x68, 0xe4, 0xbd, 0xf0, 0x68, 0xa5, 0x3d,
  0x40, 0x77, 0xfe, 0x3d, 0x30, 0x12, 0x59, 0xbd, 0xf2, 0x14, 0x36, 0xbe,
  0x56, 0x5f, 0x30, 0xbe, 0xcc, 0x7a, 0x01, 0x3d, 0x30, 0xbe, 0xae, 0xbd,
  0x1f, 0x0e, 0x01, 0xbe, 0x28, 0x70, 0x55, 0xbd, 0x60, 0x10, 0x14, 0xbe,
  0x44, 0x60, 0xef, 0x3d, 0x2f, 0x7c, 0xa9, 0xbd, 0xa6, 0xd3, 0x76, 0xbd,
  0x46, 0xf0, 0x10, 0x3e, 0xf8, 0x3c, 0x1b, 0x3e, 0x07, 0x46, 0x1b, 0xbe,
  0x38, 0x87, 0xaa, 0x3c, 0x66, 0x8f, 0x28, 0x3e, 0x94, 0xeb, 0xdd, 0x3d,
  0x20, 0x81, 0x30, 0xbe, 0xe4, 0x50, 0x18, 0x3e, 0xd8, 0x71, 0xb5, 0x3d,
  0xac, 0xc4, 0xd8, 0x3d, 0xb8, 0xc3, 0xab, 0xbc, 0x08, 0xac, 0x6d, 0xbd,
  0x60, 0xaf, 0x96, 0x3d, 0x40, 0x24, 0xb9, 0xbb, 0x0f, 0x3e, 0x36, 0xbe,
  0x21, 0x2e, 0xa4, 0xbd, 0xc1, 0x0a, 0x39, 0xbe, 0xc1, 0x0a, 0x32, 0xbe,
  0x7e, 0x73, 0x30, 0x3e, 0xa8, 0x7c, 0xaa, 0x3d, 0x10, 0x47, 0x87, 0x3d,
  0x24, 0x8e, 0x8d, 0x3d, 0xe9, 0x02, 0xa9, 0xbd, 0x30, 0xe0, 0x2b, 0x3c,
  0x98, 0x8b, 0x14, 0xbd, 0x60, 0x3f, 0x49, 0x3d, 0x44, 0xff, 0x12, 0xbe,
  0xe3, 0x36, 0x0d, 0xbe, 0xa8, 0x70, 0x84, 0xbc, 0xba, 0x8c, 0x37, 0x3e,
  0x32, 0xe8, 0x04, 0x3e, 0xcf, 0x02, 0x9f, 0xbd, 0xbc, 0x78, 0x19, 0xbd,
  0xca, 0x8b, 0x00, 0x3e, 0xf8, 0x12, 0xe9, 0x3c, 0x8b, 0xe4, 0xa1, 0xbd,
  0xcc, 0x55, 0x6c, 0x3d, 0xad, 0xb1, 0x25, 0xbe, 0x34, 0xa8, 0x17, 0x3e,
  0x7c, 0xd4, 0xa6, 0xbd, 0xa0, 0x4e, 0x40, 0xbd, 0x5c, 0x59, 0xe3, 0x3d,
  0xe0, 0x74, 0x87, 0xbc, 0x18, 0x01, 0xe0, 0x3c, 0xce, 0x32, 0x20, 0xbe,
  0xa4, 0x2f, 0xfd, 0xbd, 0xa7, 0xe3, 0xa4, 0xbd, 0xf9, 0xe0, 0x13, 0xbe,
  0x5f, 0x34, 0xd4, 0x3e, 0x23, 0x86, 0xb3, 0xbd, 0x0f, 0x5e, 0x1a, 0x3e,
  0x71, 0xb8, 0x80, 0x3e, 0xb9, 0xc2, 0x48, 0xbe, 0x5d, 0x48, 0x84, 0x3e,
  0x75, 0xa1, 0x59, 0x3e, 0x32, 0xcb, 0x3e, 0xbe, 0xec, 0x4d, 0x6c, 0x3e,
  0xed, 0xec, 0x22, 0x3e, 0x92, 0xfc, 0x34, 0xbe, 0xd5, 0xbe, 0x22, 0x3c,
  0x70, 0x6a, 0xef, 0x3d, 0xb3, 0x5e, 0xc2, 0xbd, 0xc7, 0x0b, 0x9f, 0xbd,
  0x04, 0x44, 0xe8, 0x3d, 0xac, 0xdd, 0xc5, 0x3e, 0x81, 0x13, 0x8f, 0xbe,
  0x91, 0xaa, 0x89, 0xbd, 0xa0, 0x85, 0x7c, 0xbe, 0x18, 0xc9, 0x24, 0xbe,
  0x43, 0x2c, 0x67, 0x3e, 0x35, 0x46, 0x05, 0xbe, 0x1a, 0xab, 0xa1, 0xbd,
  0x68, 0x77, 0x91, 0x3d, 0xb5, 0x15, 0x86, 0xbe, 0x0d, 0x58, 0xde, 0x3d,
  0x8f, 0xed, 0xcf, 0x3e, 0x8b, 0xba, 0x9c, 0xbd, 0xc5, 0xb8, 0x52, 0xbd,
  0x7e, 0xfa, 0xc7, 0x3e, 0xab, 0xe2, 0x22, 0x3e, 0x68, 0xe8, 0x70, 0xbe,
  0x78, 0x78, 0x6b, 0x3e, 0x24, 0xf7, 0xdc, 0x3c, 0xf7, 0xf7, 0x39, 0x3e,
  0x17, 0x24, 0x8f, 0x3e, 0x26, 0x29, 0xd3, 0xbd, 0x02, 0x9e, 0x62, 0xbe,
  0x4f, 0xd2, 0xe9, 0x3e, 0xbb, 0xee, 0xab, 0xbe, 0x48, 0x66, 0xc6, 0xbe,
  0x94, 0xde, 0x5a, 0x3e, 0xbe, 0x38, 0xe3, 0xbd, 0xaa, 0x84, 0x2f, 0xbe,
  0xbd, 0xa4, 0x9b, 0xbd, 0x8f, 0x98, 0x09, 0xbe, 0x01, 0x54, 0x24, 0x3d,
  0xd6, 0xb6, 0xf5, 0xbc, 0x55, 0x3c, 0xe2, 0xbe, 0xd6, 0xbc, 0x67, 0xbe,
  0x65, 0x48, 0x83, 0xbd, 0x16, 0x55, 0x6e, 0xbe, 0x7f, 0xe6, 0x2c, 0x3d,
  0x4d, 0xd8, 0x0e, 0xbe, 0x75, 0xbe, 0xd4, 0xbd, 0x0d, 0x4b, 0x9a, 0xbd,
  0xc8, 0x9e, 0xf2, 0xbd, 0xc9, 0x31, 0x87, 0xbe, 0x07, 0xeb, 0x11, 0xbe,
  0x2c, 0xad, 0x78, 0xbe, 0x34, 0xc2, 0x67, 0xbe, 0x21, 0x18, 0x87, 0x3d,
  0x7e, 0xf7, 0x58, 0x3c, 0x10, 0x21, 0xae, 0x3d, 0xf1, 0x2a, 0xe9, 0xbd,
  0xa8, 0xf1, 0x66, 0x3c, 0x5b, 0x70, 0x09, 0x3e, 0x1f, 0x8f, 0xd2, 0xbd,
  0xa9, 0x83, 0x44, 0xbe, 0x55, 0x07, 0xd1, 0xbc, 0xce, 0x95, 0xf5, 0xbd,
  0x4c, 0xbc, 0x16, 0xbe, 0x68, 0x33, 0xbf, 0xbd, 0x16, 0x3a, 0x78, 0xbe,
  0x03, 0x37, 0x5b, 0xbe, 0x37, 0xdd, 0xb1, 0xbc, 0xa6, 0x1d, 0x11, 0xbd,
  0xb7, 0x66, 0xb2, 0xbe, 0x48, 0x29, 0x64, 0xbe, 0x8b, 0xbd, 0xaa, 0xbc,
  0x47, 0x26, 0x80, 0x3c, 0xcd, 0x93, 0x47, 0xbe, 0x78, 0x61, 0xe8, 0x3d,
  0x6d, 0xb5, 0x83, 0xbc, 0x19, 0xdb, 0xde, 0x3d, 0xc3, 0x51, 0x14, 0xbe,
  0xcc, 0xe4, 0x14, 0xbe, 0x48, 0x60, 0x5a, 0x3e, 0x7e, 0x4f, 0x19, 0x3e,
  0x0a, 0x4f, 0x15, 0x3d, 0x8a, 0x0d, 0xd7, 0xbd, 0xfb, 0x51, 0xef, 0x3d,
  0x87, 0xcd, 0x5a, 0xbe, 0x75, 0xe9, 0xa3, 0xbc, 0x27, 0xe0, 0xe9, 0x3e,
  0x3d, 0x05, 0x3c, 0xbe, 0xa2, 0x59, 0x70, 0xba, 0x0a, 0x35, 0xa1, 0xbc,
  0x4a, 0xe9, 0xbb, 0x3d, 0x79, 0x11, 0xe9, 0xbd, 0x15, 0x94, 0xd0, 0xbc,
  0x80, 0x92, 0x6c, 0xbe, 0x4b, 0x5a, 0x5e, 0x3e, 0x01, 0x19, 0xd5, 0x3a,
  0x88, 0x38, 0x06, 0xbe, 0x3c, 0x7a, 0x4d, 0x3e, 0x09, 0xcd, 0x4e, 0x3e,
  0x31, 0x5a, 0xb5, 0x3d, 0x09, 0x66, 0xdc, 0x3d, 0xf7, 0xae, 0x44, 0x3c,
  0x33, 0xe4, 0x30, 0xbe, 0x22, 0xbf, 0xde, 0x3c, 0x04, 0x38, 0x06, 0x3e,
  0xa1, 0x73, 0x80, 0xbe, 0xc4, 0x1f, 0xae, 0xbb, 0xa1, 0x99, 0x60, 0xbc,
  0x00, 0x8c, 0x89, 0xbd, 0x07, 0x9b, 0x87, 0xbd, 0x57, 0x69, 0x3e, 0x3e,
  0x0b, 0xb5, 0x11, 0xbe, 0x53, 0x83, 0x2e, 0x3d, 0x79, 0x19, 0xf1, 0x3d,
  0x3e, 0xdb, 0xbf, 0xbe, 0x52, 0x2c, 0x8f, 0x3e, 0xa1, 0x91, 0x2c, 0xbe,
  0xeb, 0xf6, 0x6a, 0xbe, 0x3c, 0x1c, 0x7e, 0x3e, 0x9a, 0x4d, 0x8b, 0x3d,
